#version: 0.2
Ä ±
a n
Ã ¼
a r
e r
i n
Å Ł
Ä± n
e n
i l
Ä Ł
Ã §
Ġ b
a l
Ġ y
Ġ k
d e
a k
Ġ s
Ã ¶
i r
Ġ g
d a
e l
e t
a y
a s
l ar
d i
e k
a ÅŁ
o n
Ġ t
Ġ o
d Ä±
e s
i y
u n
Ġ i
Ġ v
a t
Ġ B
a m
Ġ h
u r
Ä± l
l er
l i
Ġ A
Ġ d
o r
Ġ m
Ã¼ r
u l
e m
Ä± k
Ã¼ n
Ġv e
Ä °
s t
Ġ K
Ġ T
Ġ Ã§
Ġ S
i k
a p
Ġ M
l e
Ġ il
Ġ de
Ġb ir
i m
Ġo l
' d
Ġ a
e y
Ä±n da
l a
ÄŁ Ä±
Ã¶ r
i ÅŁ
t Ä±
Ġ Ä°
an Ä±
t i
a z
d an
d en
Ġ D
in de
Ġ E
i s
i z
Ã¼ z
Ġ p
a b
u m
Ġ Ã¶
d u
Ġ e
Ġ G
Ä±n Ä±
o l
l Ä±
Ġ H
aÅŁ k
a h
iy e
as Ä±
Ġ Ã
Ġy ap
Ġ P
Ġ ar
Ġ al
in e
es i
m a
c e
i t
y a
Ä±n a
Ġ 2
o ÄŁ
Ä± r
Ã¼ l
in i
Ġ 1
l an
lar Ä±
Ä± ÅŁ
Ã¼r k
a c
Ġ Y
Ġ f
l u
Ã¼ k
in in
Ġi Ã§
Ġ F
a f
a v
Ġs on
Ġa Ã§
o k
Ġ C
Ġ ÅŁ
k i
Ġ da
al ar
ler i
Ä±n dan
ÄŁ i
il er
Ġg Ã¶r
Ġ n
y on
n in
a ÄŁ
e Ã§
Ġ et
st an
l en
Ã¼rk iye
Ä± s
e v
Ġil e
u s
y or
ÅŁ t
Ã¶ n
l Ã¼
aÅŁk anÄ±
a d
il di
Ġk ar
ĠiÃ§ in
l am
Ä±n Ä±n
u z
u t
Ġb ul
ak i
Ġol du
o m
Ġ -
e c
Ġy Ä±l
Ġb aÅŁ
Ä± m
Ġg el
ĠaÃ§ Ä±k
e z
el er
li k
u k
Ä±l an
ay a
Ġe d
u y
ĠÃ¶ n
dÄ± r
Ġg Ã¶
il i
Ġv er
Ġ '
Ġy ar
a Ã§
Ġt ar
Ġ O
d ir
Ġb u
t a
ab er
r o
Ã¼ y
dÄ± ÄŁÄ±
r u
Ġ 3
Ġbul un
e di
Ġ ay
Ġg Ã¼n
iy le
l Ä±k
Ġ 5
Ä± z
ĠÃ§ Ä±k
Ġ z
Ġ R
l et
b ul
Ġy aÅŁ
ek i
ĠÃ ĸ
stan bul
ÄŁ u
Ã¼ m
Ġb el
es inde
Ġ an
Ġ r
o p
ĠT Ã¼rkiye
Å ŀ
Ġ (
Ġg er
m an
n Ä±n
ik a
il en
Ġk iÅŁ
Ġg eÃ§
l aÅŁ
o s
c u
an lÄ±
en i
ĠÃ ĩ
Ġ en
Ã¼ ÅŁ
Ġb in
c i
y la
ar a
Ġk on
ĠB aÅŁkanÄ±
el i
al Ä±ÅŁ
as Ä±nda
iy or
d Ã¼r
d aki
Ã¼ t
ĠB ak
a de
il m
ak ika
e h
u ÅŁ
k in
m asÄ±
Ġ L
t e
Ġd Ã¼z
Ġ2 0
m ak
Ġs Ã¼r
ey e
B D
Ġi ÅŁ
Ä±l dÄ±
y e
en el
u Ã§
Ġn e
h ur
ĠÃ§ alÄ±ÅŁ
ĠdÃ¼z en
ĠE r
Ġ c
ac ak
as yon
Ġy er
um hur
li s
S on
Ġ N
Ã¼ s
e ÅŁ
m e
an s
Ġm il
Ġk ad
Ġi st
t er
Ġol an
t an
Ġy Ã¼z
r em
in den
lar ak
' t
k en
Ġk ay
ĠP ar
i st
Ġ in
Ġ di
Ġbel ir
Ġ 4
ÄŁ r
Ġo r
ĠÄ° stanbul
Ġk al
un u
ĠaÃ§Ä±k lam
Ġs Ã¶
is i
oÄŁ lu
Ä±s Ä±
d er
e ce
Ġb il
Ġil Ã§
ĠA n
Ġ el
l em
p er
Ġde ÄŁ
Ġ Åŀ
Ġh ak
Ġk ur
ÄŁ ini
c Ä±
Ġ Ã¼z
Ä±n daki
r a
Ġ V
er Ã¶r
Ġkar ÅŁ
Ġo larak
Ġ 6
Ġ uy
un da
la dÄ±
ru p
Ġs or
Ġde di
Ã¼y Ã¼k
a da
ĠG enel
ar k
el ik
tÄ± ÄŁÄ±
Ġde v
Ġbulun du
ĠÃ¼z er
Ġb Ã¶
al an
tÄ± r
i h
ĠC umhur
Ġtar af
al e
Ġt op
a ÄŁÄ±
Ġy Ã¶n
en di
d Ã¼
Ġd ur
lan dÄ±
ĠyÃ¼z de
n e
er i
Ġk ul
Ġk ap
iy et
len en
d oÄŁ
ar Ä±
Ġt erÃ¶r
u ÅŁt
Ġy eni
Ġo y
Ġde p
ek t
lÃ¼ ÄŁ
i p
Ġi s
ĠE k
r ak
l g
Ġ U
er k
doÄŁ an
ĠilÃ§ esinde
an Ä±n
er s
Ġy ak
ĠA k
e b
o t
ar ak
ĠD akika
ĠH aber
ĠPar ti
Ġtaraf Ä±ndan
T Ã¼rkiye
m alar
Ä±l Ä±
e d
l at
Ġg i
Ġet ti
H P
ay an
d di
y le
et i
dÄ± m
Ġm Ã¼
Ã¼n de
c a
lar Ä±n
Ġh af
ĠÃ¶ ÄŁr
s a
Ġil g
ĠEr doÄŁan
al Ä±
Ġil iÅŁ
Ġ20 1
o y
Ġk at
ĠgÃ¶r e
anlÄ± ÄŁÄ±
d ar
Ġ 7
Ġh aber
ĠA v
Ġe v
ĠB aÅŁk
m as
r am
im iz
v en
ĠÃ ľ
Ġyap Ä±lan
ec ek
b i
g i
Ġy an
Ġh ay
Ġet k
ĠkiÅŁ i
ĠBak anÄ±
Ġg Ã¼
Ġp ro
ĠgÃ¶ st
Ġdep rem
Ġt ut
Ġh as
ĠÃ§ ok
b aÅŁkanÄ±
n de
ĠA K
Ġp o
Ġal Ä±n
ĠA BD
Ġda h
Ġhak k
ÄŁ Ä±nÄ±
Ġg ir
lar Ä±nÄ±
Ġ at
Ġi ddi
ĠA l
Ġne den
ĠgÃ¶st er
e de
Ġs al
ay Ä±
rup a
Ġ I
Ġ es
Ġ ce
am p
ĠM il
per asyon
Ġilg ili
Ä± yor
Ġs ah
un a
g Ã¼t
m ek
s i
al t
Ġgel en
Ġil k
uÅŁt ur
ĠiliÅŁ kin
Ġ eki
Ã§ ek
Ġo t
ĠgÃ¶ z
Ġkay b
ĠbÃ¶ lg
Ġ 9
et ir
Ġd Ã¶n
ĠM Ã¼
Ġy ol
Ġoldu ÄŁ
Ġmil yon
ĠÃ¶ÄŁr en
k ara
et im
at Ä±
az et
Ġ1 0
ĠÃĸ z
ĠHaber ler
u cu
Ġb aÅŁk
as k
Ġo perasyon
ler in
ĠA r
Ġal an
Ġoldu ÄŁu
ĠdÃ¼zen lenen
r e
y al
Ġt es
Ġd Ã¼n
Ġd Ã¼ÅŁ
t en
Ġb Ã¼yÃ¼k
ĠB el
Ġ J
Ã¼ p
ĠÃ¶ l
Ġger ek
d Ä±ndan
Ġ ak
ĠK ur
ĠL i
Ġg etir
un un
Ġi f
ul u
Ġsal dÄ±r
s el
Ã§ Ä±
Ġy ay
li ÄŁi
Ġson ra
m en
Ġ Ã¶r
ĠÃ§ ek
Ġed ildi
i f
di ÄŁi
lan an
Ġdah a
m et
am a
Ġm aÃ§
le ÅŁ
ĠÄ° n
Ġz am
m aya
u h
Ġar dÄ±ndan
t ir
Ġ Z
lar a
Ġt ek
az Ä±r
av un
ÅŁt ir
eh ir
ĠEk im
erk ez
i v
ar t
Ġs er
Ġs eÃ§
ĠS ur
ĠkarÅŁ Ä±
ĠAv rupa
A BD
e f
n a
Ġ l
Ġ Ã¼l
Ã§ e
lar Ä±nÄ±n
es ine
Ġh av
Ġar asÄ±nda
Ġhay at
a at
i c
Ġs uÃ§
dan a
Ġor t
ĠCumhur baÅŁkanÄ±
Ġpo lis
an da
er ek
Ġy az
Ġt ak
iy as
Ġi ki
Ã¼l t
Ġdev am
l Ã¼l
iy at
ler ini
Ġe den
ah k
Ġgel di
Ġif ade
m az
ar et
en t
Ġk aÃ§
lar da
Ġd akika
iler i
Ġce z
h an
o b
ĠB ir
n da
r i
Ġ ey
an an
Ġh azÄ±r
Ġd oÄŁ
ÅŁt e
Ġger Ã§ek
os yal
Ġc in
alan dÄ±
Ġi h
Ġyap tÄ±ÄŁÄ±
Ġkad ar
lÃ¼ÄŁ Ã¼
ĠolduÄŁ unu
v ek
al i
Ġa z
Ġal t
ĠsÃ¶ yle
Ġ 8
Ġ uz
Ġk az
Ġk endi
Ġs aÄŁ
ĠÃ¶ z
g ul
Ġ ek
Ġk am
ĠY ar
Ġda v
Ġbelir t
Ġdur um
Ġ201 9
ĠÃ¶r gÃ¼t
ĠSur iye
ĠÃ¼l k
g Ã¼n
ler e
Ä° stanbul
Ġbulun an
g il
n un
p or
Ġy as
ĠB aÅŁ
Ġd o
ey en
Ġp ar
ĠC HP
us u
ĠÃ§Ä±k tÄ±
Ġel e
Ġhakk Ä±nda
ĠÃ¶l dÃ¼r
o c
Ġ W
Ġ li
Ġ Ã¼r
as Ä±na
ĠK on
ĠAn kara
ĠÃľ n
r af
Ġs ay
le y
inde ki
ol o
Ġhaf ta
Ġkayb et
avun ma
l ay
m esi
Ġd uy
Ġkad Ä±n
ĠsÃ¶ z
dÄ±m c
Ġeki p
ir a
lar Ä±nda
es inin
Ã¼n Ã¼
ĠÄ° ÅŁte
Ġed ilen
ĠyÃ¶n elik
ĠBel edi
Ã¼p h
g ram
i stan
s Ä±
t ik
an k
de m
Ã¶ z
Ġm ed
ĠÄ° l
ĠgÃ¶r Ã¼ÅŁ
ĠterÃ¶r ist
E R
F A
c ak
Ġ ask
Ġy Ã¼k
ay et
ĠB u
iÅŁ leri
Ġtar ih
let vek
2 0
t al
aÅŁ Ä±
li ÄŁ
tÄ± ÅŁ
ti v
Ġver di
Ġetk is
ĠMÃ¼ dÃ¼r
r an
Ã ĸ
Ġk r
ler inin
ĠA y
Ġa d
ĠdeÄŁ iÅŁ
Ġgi bi
ĠBaÅŁk an
Ġes ki
ahk em
s am
dÄ± ÅŁ
Ġi k
Ġm es
ĠT Ã¼rk
ab il
ĠF laÅŁ
ĠÅŁ Ã¼ph
ev let
Ġkar ar
eler i
0 0
b ir
ar p
Ġb o
Ġk Ã¶
lar Ä±na
Ġo k
Ġh al
ler inde
em al
Ã¼n ya
ĠgÃ¶r ev
ĠÃ¶n ce
ĠO r
Ġis e
dÄ±mc Ä±sÄ±
b u
b ak
k an
o v
t ar
Ġde st
Ã¼l en
lÃ¼ m
ĠgÃ¼ ven
ĠalÄ±n dÄ±
ĠLi gi
Ġhayat Ä±nÄ±
b ar
i Ã§
j i
Ġ Ã¼
il e
Ġb ek
Ġg azet
on om
ĠS avunma
ÄŁÄ± r
Ã¼k Ã¼m
Ä±m Ä±
Ġneden iyle
alt Ä±na
Ġ dÄ±ÅŁ
Ġs at
lu k
len dir
Ġbu gÃ¼n
ĠBak anlÄ±ÄŁÄ±
Ġtut uk
ĠgÃ¶z altÄ±na
oc uk
m eye
s an
ar ek
Ġs ev
ĠK or
ĠK om
Ġol ay
ĠD evlet
Ġbulundu ÄŁu
c el
m iÅŁ
m Ä±z
t r
Ġ er
ir k
Ġh ale
Ä±l dÄ±ÄŁÄ±
ler de
ler ine
ĠE y
Ġson ucu
Ġbil dir
Ġkap sam
m ir
m am
Ġk im
Ġt ah
iy on
ĠB Ã¼yÃ¼k
Ġh er
Ġd er
ma dÄ±
ac aÄŁÄ±
Ã¼s Ã¼
Ġkul lan
ekt Ã¶r
ĠI rak
letvek ili
A B
A n
g en
Ġ Ã¼y
Ġs Ä±nÄ±
ay y
Ġh ap
Ġe ÅŁ
ĠÃ¶n em
ĠkiÅŁ inin
ĠsaldÄ±r Ä±
b ol
e p
il ah
as Ä±l
aÅŁ tÄ±r
Ġm ey
Ġbir lik
Ġyap tÄ±
alar Ä±
uz ey
ĠÃ§alÄ±ÅŁ malar
ĠsÃ¶yle di
Ġmed ya
E T
a dÄ±
t ay
Ã ľ
ÅŁ ehir
ÄŁ imiz
Ġy ok
Ġv ar
ec i
Ġay r
dÃ¼ ÄŁ
ers it
iv ersit
ĠYar dÄ±mcÄ±sÄ±
D P
K K
m Ä±ÅŁ
t aÅŁ
v er
il ik
Ġs Ä±r
Ġs aat
Ġt em
Ġd ol
ĠT ayy
ĠP ro
us ya
ĠgeÃ§ en
Ġoy un
ĠÄ°n gil
Ġdo lar
Ġkaybet ti
m ay
s iz
u v
al Ä±k
es t
Ġd en
ĠÃ§ arp
le ÅŁtir
Ġf iyat
ĠgeÃ§ ir
ĠÃĩ elik
Ġiddi a
Ġmey dana
ĠTayy ip
ar ay
Ġb ak
Ġb az
Ã¶ k
un dan
at anda
ur sa
Ġa da
Ġp ay
Ġyap an
Ġal dÄ±
ĠaÃ§Ä±k ladÄ±
ter e
ĠdeÄŁ il
Ä±lÄ± Ã§
Ġort aya
ĠEy lÃ¼l
atanda ÅŁ
il iyor
al et
Ġs an
Ġs osyal
ur du
Ġm er
Ġm erkez
ĠT r
ĠS u
Ġ5 0
Ġsor uÅŁtur
ĠKur ulu
Ġl ira
c ade
y an
Ġ am
Ġy Ã¼r
iy i
Ġh em
Ġh Ã¼kÃ¼m
ur u
ĠT ek
Ġar ac
lan tÄ±
ilm esi
ĠAK P
Ġhav a
b e
g an
en in
Ġs ok
Ä±l Ä±k
Ġ1 5
ĠbaÅŁ lat
Ġkapsam Ä±nda
i d
l anÄ±
r et
t Ä±k
Ġ uÃ§
en d
Ġk ez
em e
ey i
us unda
ĠyaÅŁ Ä±ndaki
ĠgeÃ§ ti
kin ci
Ġyay Ä±n
ĠÃ¶nem li
Ġbirlik te
s e
s al
Ã¼ ven
ÄŁ er
lar la
Ġt Ã¼m
Ġi z
at Ä±r
ĠB il
Ġh es
Ã¼n e
ĠK aÅŁ
ĠS er
ĠE s
Ġn asÄ±l
ĠbaÅŁ v
Ġyar g
Ġtar tÄ±ÅŁ
ru bu
Ġhap is
A K
E FA
c isi
c Ã¼sÃ¼
Ã§ i
Ġk es
Ġt am
es ini
Ä±k Ã§Ä±
Ã¼n Ã¼n
ĠP eki
Ġson r
ĠÅŁ irk
len di
ĠÃ§Ä±k ar
Ġpay laÅŁ
g Ä±n
u di
Ä±l masÄ±
ĠK Ä±lÄ±Ã§
ĠT L
ĠT em
Ġf ark
iler in
Ġuy gul
dar oÄŁlu
Ġetkis iz
ĠÄ°ngil tere
. '
f a
k at
l ayan
m ar
s ek
Ġy et
di yor
ur t
Ġm et
im i
Ġol mak
Ġa ÄŁÄ±r
ĠÄ° s
ĠP KK
aÄŁ Ä±nÄ±
amp iyon
Ġtes p
ĠBeledi ye
ĠMÃ¼dÃ¼r lÃ¼ÄŁÃ¼
Ġbo ÅŁ
dÃ¼ÄŁ Ã¼
ĠKaÅŁ Ä±kÃ§Ä±
) ,
b Ã¼s
k larÄ±
al at
Ġk il
Ġs ilah
Ġh arek
ĠA d
or m
or um
ĠÃ§ ocuk
ĠS an
um p
ĠG rubu
lÄ± ÄŁÄ±
ĠÃĸ n
Ġkon uÅŁ
ĠdeÄŁ er
ĠÃ¼zer ine
mas Ä±na
tal ya
B M
n ik
o z
t Ã¼
Ġ em
ÅŁ am
il li
Ġk ol
lar Ä±ndan
es iyle
Ġi kinci
ĠK ar
den iz
ĠÅŁ ek
ut bol
Ġay Ä±nda
Ġz or
ĠR ece
Ġbil g
ĠÃ¼zer inden
ĠCumhur iyet
ĠMil letvekili
ĠdÃ¶n em
ĠseÃ§ im
Ġli der
ĠhÃ¼kÃ¼m et
ĠRece p
r ans
u c
Ġk Ä±s
Ġg it
as Ä±nÄ±n
iy ar
Ġa il
ĠH ak
ĠbaÅŁ ladÄ±
ĠÃ¶n c
ans Ä±
ist em
Ġdi k
Ġkal dÄ±r
Ġtop lantÄ±
ĠgÃ¼ Ã§
Ġzam an
ĠgerÃ§ek leÅŁtir
olo ji
Ġask er
ĠBÃ¼yÃ¼k ÅŁehir
ET Ãĸ
c iler
i de
v et
Ä± p
Ġb Ä±r
Ġs iyas
Ġg en
Ġa v
ĠD r
iz e
Ġson uÃ§
Ä±s Ä±nda
Ġyar alandÄ±
Ġhas tan
ĠMil li
ĠÅŁÃ¼ph eli
ov a
Ġdik kat
d ur
m i
u st
y ar
as aray
es tiv
Ġv atandaÅŁ
ĠB Ã¶
ĠA li
ĠM ar
ĠE n
ac aÄŁÄ±nÄ±
ĠyÄ±l Ä±nda
Ġgel iÅŁ
ĠÃ¶z el
ĠÃ¶rgÃ¼t Ã¼
Ġdest ek
Ġyarg Ä±lan
ĠKÄ±lÄ±Ã§ daroÄŁlu
Ġtesp it
alat asaray
ĠbÄ±r ak
c Ã¼
Ġ ul
er b
Ġy anÄ±
Ġk Ä±r
Ġm uh
ĠT op
ĠE m
iz met
um a
ĠH DP
asÄ± yla
Ġyap Ä±l
av aÅŁ
Ġ3 0
ĠyaÅŁ am
ĠAl t
Ġtak Ä±m
cade le
Ġtam am
5 0
m anÄ±
s Ä±z
y Ä±
Ġk o
Ġg enel
Ġt eh
ler inden
Ġa it
la dÄ±ÄŁÄ±
ĠÄ° st
ĠD Ã¼nya
is yon
Ġ1 1
Ġ1 9
alar da
ĠgÃ¶ Ã§
Ġmil yar
Ġyak alandÄ±
Ã¼nde ki
Ġok ul
ĠgÃ¼ven lik
Ġbaz Ä±
Ġmer ak
B B
g Ä±
r Ä±
Ã¼ yor
Ã¼ ÅŁt
Ġb ab
Ġb aÄŁ
Ġs Ä±k
Ġs ey
Ġg rup
da t
Ġi ti
ĠT ur
le di
Ã¼l dÃ¼
ec lis
Ġ4 0
ĠaÃ§Ä±klam a
ĠÃ¼zer e
Ġcin sel
ĠTr ump
ĠSu udi
d in
l iye
m er
m in
n Ä±
n iyet
s uz
Ġ on
Ä± yla
ÄŁ ine
Ġb oy
al im
Ġy atÄ±r
Ġs en
et e
li f
ul an
ik taÅŁ
ĠÄ° ÅŁ
ĠD em
iz i
Ġe diyor
Ġar aÅŁtÄ±r
Ġf ilm
ok r
ĠyaÅŁ anan
eÅŁ iktaÅŁ
Ġist eyen
Ġis im
ers on
mas Ä±nÄ±
ĠÃľn iversit
bak Ä±r
iyar bakÄ±r
t on
u p
u ÄŁ
y i
ÄŁ Ä±na
Ã§ iÅŁleri
Ġb en
on s
ĠM ahkem
Ġe de
ah at
Ġ1 7
Ġf az
Ġda ir
ĠgÃ¶r Ã¼n
ĠÃ§Ä±k an
ĠaÃ§Ä±klam ada
ece ÄŁi
Ġoy n
ĠAk ar
Ġak ÅŁam
Ã¼lt Ã¼r
ĠBir liÄŁi
Ġsonr asÄ±
ĠÅŁirk et
Ġmet ro
ĠÃľniversit esi
C HP
a g
s il
t Ã¼rk
y en
z mir
Ġb ur
Ġk uzey
Ġk end
de t
Ġi m
Ġi t
ĠA t
ĠS Ã¶z
ap or
ti f
ĠE t
is ine
ĠiÃ§ inde
ĠgÃ¼n dem
Ġan laÅŁ
Ġr is
ilm ek
Ġtop lam
Ġpro j
ĠgÃ¶ster iler
Ġot om
ĠmaÃ§ Ä±nda
Ġey lem
ley en
Ġhes ab
BM M
Ã¼ÅŁt Ã¼
C umhur
e den
g Ã¼r
u yor
Ġ aÅŁ
Ä± cÄ±
in ci
il ir
Ġk om
Ġs u
Ġs Ä±
Ġt el
ĠK an
ĠK ad
ĠM erkez
is inde
ĠG Ã¼ven
ĠH as
oÄŁ un
Ġ1 2
Ġ1 4
av c
laÅŁ Ä±k
ĠkarÅŁ Ä±l
Ġkul landÄ±
Ġpro gram
Ġgetir ildi
ĠW ol
uv vet
Ġfaz la
A v
Y K
b aÅŁk
c h
c an
f l
k ada
y esi
ÄŁ Ä±nda
Ã§ ok
Ã¼z el
ĠP o
Ġar aÃ§
Ġ2 6
oÄŁ raf
Ä±ÅŁ iÅŁleri
ĠiÃ§ er
Ġet kin
ĠÃĸ r
ĠÃ§alÄ±ÅŁ an
uÅŁt u
ĠgerÃ§ek leÅŁ
Ġbelirt ildi
Ġada y
kada ÅŁ
I rak
K E
e ÄŁ
Ġ Ã¼n
Ä±n tÄ±
al k
Ġs un
da sÄ±
es el
un ca
Ġm ahkem
la h
Ġp ara
Ġp erson
ĠG azet
Ġar kadaÅŁ
ĠC emal
ĠÅŁ ey
ec ik
Ġver ildi
ĠV al
ĠbÃ¶ lÃ¼m
Ġkap at
Ġyan a
Ġgir iÅŁ
Ġsah ip
ic aret
Ġele ÅŁtir
Ġekip leri
onom i
Ġbildir ildi
AB ER
ĠgÃ¶Ã§ men
fl asyon
m ayan
n den
y anÄ±n
an y
an dar
in g
ÄŁ Ä±n
ak Ã¼lt
lar dan
Ġt ur
un an
ĠB aÄŁ
ĠK emal
ĠM eclis
Ġol madÄ±
is s
ĠG Ã¼n
ol u
lu ÄŁu
ez a
ĠÃ¶n er
Ġyar dÄ±m
ĠR usya
ĠÃ§alÄ±ÅŁ ma
ĠPar is
Ġkur ul
Ġuy uÅŁtur
Ġdev let
ĠÃĸz el
ĠdÃ¼n ya
Ġgerek Ã§
Ġcez asÄ±
ĠdeÄŁiÅŁ ik
Ġoyun cu
ĠgeÃ§ti ÄŁimiz
ĠÃĸn der
ĠdeÄŁer lendir
Ġiti bar
' s
H ABER
Z Ä°
a j
k s
l Ã¼k
o cu
Ġ `
Ġ j
an dÄ±r
ar asÄ±
en ti
Ġy urt
Ġk or
Ġs istem
ir ektÃ¶r
et in
Ġt e
Ġt aÅŁÄ±
ĠM ER
Ġbir i
ĠD on
ab istan
um u
Ġ1 6
ĠF rans
Ġkar arÄ±
Ã¼t Ã¼n
Ġdi ÄŁer
aÄŁÄ± ÅŁ
ot oÄŁraf
Ġgi den
Ġoperasyon da
ĠAr abistan
Ġcez a
Ġih l
Ġyas a
Ġsay Ä±sÄ±
ĠPro f
ĠyÃ¼r Ã¼t
ĠyatÄ±r Ä±m
ĠSÃ¶z cÃ¼sÃ¼
ĠÃĸr gÃ¼t
KE ZÄ°
ĠuyuÅŁtur ucu
ĠMER KEZÄ°
c ek
k Ã¼
l as
l ek
s un
s avc
v an
w it
an dÄ±
il ecek
ÄŁ e
Ġb or
Ġy a
Ġy ansÄ±
Ġk Ä±z
Ġk amp
ay i
ĠB or
ĠB ursa
Ġh an
Ġh iÃ§
Ġh izmet
ler le
Ġm al
ĠS Ã¼
ĠS Ã¼r
Ġil an
Ġbir Ã§ok
ĠÄ° mam
az i
ĠD en
iz m
ĠY eni
eler in
ĠO k
Ġist is
Ġist edi
ĠÅŀ ampiyon
cÄ± lar
ĠmÃ¼ da
ĠsuÃ§ undan
Ġcin ayet
Ġkam yon
Ġduy urdu
ĠsÄ±nÄ± f
ĠbaÅŁv uru
wit ter
. ,
b ay
f er
g e
g in
k il
m Ä±
n et
n dan
r ik
Ġ ci
er ken
Ã§ ak
Ġy aÄŁÄ±ÅŁ
Ġk it
Ġg Ã¶n
da v
as Ä±ndaki
Ġt ale
iy aret
ĠB ay
Ġh at
Ġm ak
ĠT ar
ey in
ĠÄ° ran
anÄ± ÅŁ
Ġyap mak
Ġal dÄ±ÄŁÄ±
ma da
larÄ± yla
ĠY al
ĠY Ã¶n
ĠF akÃ¼lt
af a
iler e
ĠyaÅŁ ayan
Ġbel edi
man ya
Ġdi ye
Ġor man
ece ÄŁini
Ġpro t
Ġhas ar
ĠbÃ¶lg e
ĠbaÅŁk enti
Ġyay Ä±m
Ġifade lerini
ob Ã¼s
Ġkam u
Ġpar ti
Ġkr edi
ĠdÄ±ÅŁ Ä±
An kara
ĠgeÃ§ir ildi
ĠkarÅŁÄ±l aÅŁ
ĠmÃ¼da h
T O
b et
m eler
n ak
o d
s in
Ã ĩ
il de
al d
Ġy oÄŁun
Ġk oy
Ġk ent
ir ken
as t
as Ä±nÄ±
Ġm aÄŁ
ĠS a
az ar
ĠD iyarbakÄ±r
ab an
Ã¼l Ã¼
ĠY Ä±l
ev r
lam a
ĠaÃ§Ä±k landÄ±
uk at
Ġed iliyor
ĠO t
Ġz iyaret
Ġan n
Ġan lat
ĠsÃ¼r dÃ¼r
Ġin san
Ġin cel
Ġuy ar
Ġdev r
Ġyak laÅŁÄ±k
ĠAk deniz
Ġhaber leri
ĠalÄ±n an
ĠJ o
ĠsaÄŁ lÄ±k
Ġdurum u
ĠBaÅŁ savc
mÄ±z Ä±
ĠsonuÃ§ larÄ±
ĠBÃ¶ lg
Ġul aÅŁ
Ġmetro bÃ¼s
ĠBaÄŁ dat
Ġitibar en
Ġprot est
D Ã¼nya
R usya
e der
h amp
l ilik
n os
an ak
Ã¼ Ã§
en s
Ġy en
Ġk ab
de ÅŁ
ek li
Ġt eÅŁ
Ġo ÄŁ
ĠB ab
ler den
Ġm Ä±
ĠK uvvet
ĠS Ä±r
ĠM ust
Ã¼z e
Ġp lan
ĠÃ¶ lÃ¼m
ĠG Ã¶
Ġf utbol
ĠF et
ĠF estiv
alar Ä±nda
ĠgÃ¶r en
eler inin
ili ÄŁi
ĠgÃ¼n Ã¼
man Ä±n
Ġkon u
ĠBak an
ĠiÅŁ lem
Ġbil in
ĠÅŀ u
Ġsor un
ĠU z
ĠU EFA
ot o
Ġhaf t
Ġot ur
ĠbaÅŁk an
ĠdÃ¼ÅŁ Ã¼r
ĠbÃ¼yÃ¼k lÃ¼ÄŁ
Ġey lÃ¼l
ĠBaÅŁ bak
ĠyÃ¼k sel
Ġtutuk landÄ±
ĠKor e
ĠKom ut
Ġtah liye
ver hamp
Ġsok ak
Ġkil o
Ġharek et
ĠyanÄ± t
Ġgenel inde
ĠEt nos
andar ma
ĠÄ°mam oÄŁlu
ĠFakÃ¼lt esi
Ġprotest o
ĠMust afa
verhamp ton
ĠEtnos por
Y T
i g
r ah
w a
Ġ iyi
en erb
ÄŁ a
ÄŁ it
Ġb er
on u
ĠA B
or t
ĠK o
ĠT BMM
ĠÃ§ aÄŁ
ĠS aÄŁ
ĠS osyal
ey ya
ĠD oÄŁ
Ġp u
Ġ1 8
Ġf a
Ã¼k sek
iler ine
ĠbaÅŁ layan
Ġyar Ä±n
Ġyar alan
Ġen flasyon
Ġkon usu
ĠyÃ¶n etim
ĠmÃ¼ cadele
Ġdeprem in
ĠbÃ¶lg esinde
Ġgetir ilen
ĠkarÅŁÄ± tÄ±
ĠÃ¶z gÃ¼r
Ġek onom
Ġduy ur
ĠÄ°l k
Ġask eri
ĠÃ¼ Ã§
ĠÃ¼y esi
ĠsÄ±r asÄ±nda
Ġlider i
okr at
Ġotom ob
Cumhur baÅŁkanÄ±
Ġtel ef
ĠWol verhampton
baÅŁk anlÄ±ÄŁÄ±
unan istan
Ġte dav
ĠDon ald
ĠÃĸrgÃ¼t Ã¼
ĠSÃ¼r eyya
ĠgÃ¶n der
ĠSÄ±r rÄ±
enerb ah
S G
d Ä±n
g el
i di
m esine
o ok
o tiv
s on
u ÄŁr
ar ar
in di
Ġb Ä±
Ġb as
ak Ä±
Ġs ez
Ġs ektÃ¶r
as a
lar arasÄ±
Ġt aki
Ġt ep
es mi
Ġh am
ler iyle
li m
ul lah
ĠK r
ĠÃ§ ocu
ĠS el
Ġde tay
ĠÄ° Ã§iÅŁleri
ti ÄŁi
ab z
ol ks
lÄ± yor
Ġar t
it ir
Ġf otoÄŁraf
av uÅŁ
Ġson uc
ĠaÃ§ Ä±l
Ġn ok
aÄŁ a
eler ine
ĠÃ¶n e
ĠÃ¶n Ã¼nde
Ġay nÄ±
Ġan cak
ter ek
Ġbelir terek
lem e
Ä±lÄ± ÄŁÄ±
Ġetti ÄŁi
Ġkat Ä±ldÄ±
Ġyan gÄ±n
ĠgÃ¶ster di
ĠÃ¶ÄŁren ci
ĠdoÄŁ ru
ĠdeÄŁiÅŁ tir
Ġbek len
ĠKom isyon
ĠsÄ±nÄ± r
Ġuygul am
ĠEm niyet
ĠYÃ¶n etim
ĠFestiv ali
wa gen
olks wagen
A TO
S P
U EFA
s Ä±nda
il iÅŁ
ÄŁ un
de ki
Ġs ayÄ±
Ġg Ã¼zel
aÅŁ a
am az
Ġh ede
li tik
ĠA h
Ġd ar
Ġd ok
Ġm em
Ġm ad
ul us
ĠT witter
ĠM an
Ġol ma
Ġol uÅŁ
ĠD ur
ĠD Ä±ÅŁiÅŁleri
ĠE l
Ġp at
du ÄŁu
ĠG eÃ§
ĠG alatasaray
ah al
lan dÄ±r
Ä±ÅŁ Ä±
ĠF ETÃĸ
ĠaÃ§ tÄ±
ĠC eza
ĠÅŁ u
ĠÅŁ eh
alar Ä±na
Ġet mek
om b
ĠbaÅŁ lay
Ġr apor
Ġkon usunda
ĠsÃ¼r Ã¼
Ġist iyor
ter net
ĠsÃ¶ y
Ġyeni den
ĠParti si
ĠmÃ¼ dÃ¼r
Ġkat Ä±l
Ġgir di
Ġiddi asÄ±yla
Ġtek lif
Ġkendi s
lay arak
ĠBeledi yesi
liÄŁ inde
ĠÃ¼ st
ĠboÅŁ alt
ĠSan ayi
ĠkÄ±s a
ĠMahkem esi
ĠGÃ¼ven lik
Av rupa
ĠgerekÃ§ esiyle
irektÃ¶r Ã¼
ÄŁit im
enerbah Ã§e
M illi
f et
k larÄ±nÄ±
Ġ as
Ä± da
an t
ar i
Ġy itir
et er
et men
ay asa
Ġt as
Ġt alim
ĠB ar
ĠB ank
ĠB eÅŁiktaÅŁ
ĠA b
ĠK ara
ĠT icaret
Ġol ur
iÅŁ im
ĠÄ° zmir
ĠD er
ĠG Ã¶k
ol os
ĠH ulus
Ġyap tÄ±k
Ġ2 7
Ġf ir
ĠF at
ĠÅŁ ik
iler ini
us una
ĠyÄ±l dÄ±r
Ä±m Ä±z
lik le
uy la
ĠgÃ¼n de
Ġbel li
Ġkon tr
te p
Ġ20 20
asyon u
Ġin ÅŁ
Ġdi z
Ġkur um
Ġdur uÅŁ
ĠEk rem
mas Ä±nÄ±n
Ġhas t
ĠAl manya
ĠkaÃ§ ak
Ġaz il
Ġalt Ä±nda
Ġuz ak
Ġbelirt ti
ĠÃ¼lk e
Ġpar Ã§
ĠKon s
olo j
Ġik ti
Ġmes aj
abil ir
Ġgazet eci
ĠpaylaÅŁ Ä±m
Ġfark lÄ±
Ġhastan eye
Ġteh lik
ĠbaÄŁ lÄ±
ete or
uÄŁ la
ĠPo lis
ĠÅŀampiyon lar
Ġtelef on
ĠbÄ± Ã§ak
Ġhede f
ĠHulus i
A l
F ETÃĸ
Y Ä°
b est
l ak
m uz
m esini
n an
n er
o g
r ar
in a
Ġy Ä±k
Ġg ram
di ÅŁ
on e
Ġt anÄ±
Ġo da
ĠB en
ler ce
ĠA f
ĠA s
Ġm ev
Ġm ark
Ġve ya
ĠK Ä±
ĠK al
ĠK ay
ĠK Ä±r
ĠM er
Ġa ÄŁ
ĠE ÅŁ
Ġp iyas
ĠÃ¶ lÃ¼
ĠH av
ac an
ĠY Ã¼ksek
Ġf Ä±r
Ġson a
alar a
uy u
Ġyar Ä±ÅŁ
lÄ±k larÄ±
ĠÃĸ mer
Ġger il
ade ce
eh met
masÄ± yla
ĠsÃ¼r e
ĠiÅŁ Ã§
Ġyer ine
ist ik
Ġin dir
Ġin ternet
ĠaÃ§Ä±klam alarda
Ġel ekt
ĠCumhur baÅŁkanlÄ±ÄŁÄ±
Ġkul lanÄ±
ĠEk onomi
ĠU lu
ĠmÃ¼ h
Ġdeprem de
Ġat eÅŁ
ef er
Ġih r
Ġalt Ä±n
Ġuz man
ĠÃ¶ldÃ¼r Ã¼l
ĠÃ¼r etim
Ġsan at
Ġam ac
ĠÅŁek ilde
ĠyaÅŁam Ä±nÄ±
ĠTur k
Ġris k
Ġperson el
Ã¼Ã§ Ã¼k
Ġber aber
ĠÃ§aÄŁ r
Ġkontr ol
1 9
B ir
g o
m ayÄ±
o f
r ol
v ri
Ä± t
Ä± larÄ±
al iyet
Ġk an
Ġs eb
Ġs avaÅŁ
Ã¶ y
Ġt Ã¼r
at Ã¶r
Ġh ey
Ġm Ã¼z
ĠK Ã¼ltÃ¼r
ĠT erÃ¶r
ĠS in
ĠM al
ĠM es
ĠM uh
Ġol acak
is el
ah Ã§
Ġyap tÄ±r
Ġyap acaÄŁÄ±
Ġar tÄ±ÅŁ
Ġ2 1
ĠF a
aÄŁ men
Ä±s Ä±nÄ±
Ä±s Ä±na
ad olu
Ġkar deÅŁ
ĠyÄ±l Ä±n
Ġed ilm
ĠgÃ¼n lerde
Ġz arar
ĠR us
Ġan ne
Ġr aÄŁmen
Ä±ldÄ± z
lis i
Ġkal dÄ±
ĠAn talya
Ġhaber ine
ĠMil let
Ġot obÃ¼s
ĠÃ¶ÄŁren ciler
Ġgerek en
ĠLi g
ĠÃ§ek iliÅŁ
Ġl ir
iyas et
Ġey alet
ĠÃľn al
ĠyÃ¼k sek
Ġtarih i
Ġder ece
Ġtem sil
Ġfiyat larÄ±
ĠTek nik
Ġarac Ä±n
Ġsilah lÄ±
Ġsiyas et
ĠyargÄ±lan an
Ġim z
Ġhesab Ä±ndan
ĠMerkez i
Ġihl al
ĠhiÃ§ bir
Ġistis mar
Ġkab ul
ĠBab acan
Ġpu an
ĠKomisyon u
ĠsayÄ± da
eteor oloji
G alatasaray
b ook
c usu
n Ã¼n
y Ä±z
Ġ 0
Ġ uÄŁr
in t
il la
Ã§ Ä±n
Ġb Ã¼tÃ¼n
Ġs it
ir in
Ġg ol
Ġg ez
ay Ä±n
lar Ä±ndaki
on ya
dÄ± klarÄ±
un iz
Ġv ur
ĠB er
ul du
ĠÃ§ evr
ĠS im
Ġde m
Ġbir in
Ġbir bir
ti h
is inin
iz li
ĠH at
Ġar tÄ±r
ce book
Ġ2 2
Ġ2 5
ĠF ar
ĠÅŁ art
alar Ä±nÄ±
ĠgÃ¶r Ã¼l
ĠyÄ±l lÄ±k
ĠaÃ§Ä±k larÄ±nda
ili vri
ĠR as
Ġr eh
ĠÃĩ alÄ±ÅŁ
ade t
ĠiÅŁ Ã§i
ĠN ATO
Ġor gan
Ġsor u
endi s
Ġyak Ä±n
Ġhaber imiz
Ġev inde
ĠBaÅŁk anlÄ±ÄŁÄ±
Ġeki bi
atÄ± yla
Ġort ak
ĠkaÃ§ Ä±r
Ġcez asÄ±na
Ġkam er
Ġdav a
ĠAy dÄ±n
Ġhal k
Ġtutuk lu
Ġayr Ä±
ĠsoruÅŁtur ma
ĠbaÅŁv ur
ĠtartÄ±ÅŁ malar
ĠTem el
Ġharek at
ĠÃ¶nc eki
ĠAlt Ä±n
Ġboy unca
Ġben z
ons olos
Ġbur s
ĠKad ir
ĠÃ¼n iversit
Ä±ntÄ± lar
ĠVal iliÄŁi
ĠFrans a
ĠmaÄŁ lu
ĠSaÄŁ lÄ±k
Ġduyur usunda
ĠÅŁik ayet
uniz ade
A dana
G Ã¼n
T Ãľ
b ank
g a
k ut
l iy
l um
l iyor
n ci
p aÅŁa
Ġ ama
Ã¼ b
ar lÄ±k
in ce
ÅŁ Ä±
Ġb al
Ġy aya
Ġs ar
Ġs ab
on d
Ġt at
Ġt raf
Ġh erk
Ġd Ã¶r
Ã¼n den
Ä° T
Ä° BB
ĠK Ã¶
ĠT h
ĠS on
ĠM a
ĠM ehmet
le diÄŁi
Ġol uÅŁtur
Ġa dÄ±m
Ã¶r en
iz yon
Ġp ak
Ġp ark
ab Ä±
lÄ± ÄŁÄ±nÄ±
ĠH ay
ĠH arek
ĠH alk
asÄ± m
Ġyap Ä±ldÄ±
Ġar asÄ±ndaki
Ġal acak
ĠY ap
ĠY unanistan
Ġf Ã¼ze
Ġet m
yor um
om p
eler e
eler ini
Ġver ilen
Ã¼y le
ĠÃ§Ä±k acak
Ã¼m r
Ġan a
Ġbin a
ĠsÃ¼r ec
Ġne dir
Ġc am
Ġin tih
ece ÄŁ
ĠV olkswagen
ĠÃ¼zer inde
erk ek
Ġhaf if
Ġhaber i
ĠBaÅŁk onsolos
Ġetk il
Ġsah i
ĠKur umu
Ġser in
ĠsuÃ§ lam
Ġaz al
Ġuz un
Ġdav ada
ĠKon g
Ġhal inde
Ġsev k
Ġbildir di
ĠsaldÄ±rÄ± da
mÄ±ÅŁ tÄ±
ĠÃ§arp tÄ±r
orum lu
ide o
Ġgen Ã§
Ġav ukat
Ġteh di
Ġsey ahat
Ġon ay
Ġsen e
ĠHas tan
ĠSÃ¼ per
Ġbeledi ye
ĠYÄ±l maz
Ġincel em
Ġfa aliyet
Ġsez on
Ġtep ki
ĠbaÅŁlay acak
ĠFat ih
Ġamac Ä±yla
ĠFa cebook
3 5
B ursa
S K
b a
e g
h n
k Ä±
k aÃ§
l in
m ara
t u
v is
y aya
Ġ lis
Ġ erkek
an a
er al
er li
er rah
Ã§ a
Ġb iz
Ġb omb
al adÄ±
Ġy alan
Ġk av
de k
Ġs avun
ay la
lar ca
ĠB ey
ĠB iz
Ä±l Ä±r
ĠA ÄŁÄ±r
Ġd in
Ġm i
ul tan
em lik
em eyen
ĠK ul
ĠK az
ĠK YK
ĠÃ§ iz
ĠÃ§ Ã¶k
ĠS ev
Ġil eri
Ġol um
ĠÄ° r
ĠÄ° BB
ĠÄ° YÄ°
ĠD i
ĠD irektÃ¶rÃ¼
is a
is ini
ĠP r
Ġal Ä±ÅŁ
Ġ2 3
Ä±r at
Ġ1 3
ĠF utbol
av uz
ĠÅŁ ark
ĠÅŁ id
alar Ä±nÄ±n
Ġn er
aÄŁ Ä±nda
Ġgel ecek
Ġver i
Ġver en
Ġver diÄŁi
Ġyar at
ĠO dasÄ±
ĠgÃ¼n cel
ĠÃĩ ocuk
Ġbin asÄ±
Ġkon uk
ĠL oto
Ġyer el
Ġmil letvekili
Ġkay nak
Ġ4 5
ĠilÃ§ esi
ĠAn adolu
ĠÅŀ irin
ih bar
eb ek
Ġes n
Ġkayb eden
ĠdÃ¶n Ã¼m
ĠÃ¶ÄŁren ildi
ĠbaÅŁk a
lerin ce
Ġtes t
ĠdÃ¼n yanÄ±n
Ġtek nik
han e
Ġih t
FA D
ĠÅŁÃ¼ph el
Ġbo z
ĠgÃ¶rev lisi
Ġsat Ä±n
Ġsat Ä±ÅŁ
Ġtah min
ĠeÅŁ i
ep rem
ver iÅŁ
Ġsok aÄŁa
ĠTem muz
ĠKar am
Ġgen iÅŁ
ĠyargÄ±lan dÄ±ÄŁÄ±
ĠDem okrat
ĠtaÅŁÄ± yan
ĠyÃ¼rÃ¼t Ã¼len
ĠyaÄŁÄ±ÅŁ lÄ±
Ġkit ap
ĠYal Ã§Ä±n
eder asyonu
ĠbÃ¼yÃ¼klÃ¼ÄŁ Ã¼ndeki
Ġtaki p
ĠÅŁeh it
ĠTurk ey
Ġreh in
ĠKadir ova
ĠalÄ±ÅŁ veriÅŁ
B eÅŁiktaÅŁ
S iyaset
T r
a di
b ey
d al
d Ã¼l
e j
g un
g ileri
h lÄ±
m ez
m edi
m alÄ±
n i
n oloji
s eri
t in
t Ã¼r
x it
an i
an tep
Ã¼ f
il in
Ġb it
Ġy ine
Ġy orum
Ġk as
Ġk ans
ak at
Ġs es
Ġs adece
Ġg em
Ġg ecik
ay arak
as i
Ġt aÅŁ
es ir
un cu
ĠB al
Ġh en
li ÄŁini
ĠA dana
Ã¼r esel
ĠK asÄ±m
ĠT V
ĠÃ§ eÅŁ
ĠÃ§ if
ĠÃ§ Ã¶z
ĠS ah
ĠS uÃ§
ĠS orumlu
ik ay
ĠM ur
ĠM ad
Ġol mayan
la oÄŁlu
az ine
ab a
ĠG Ã¶r
ol laoÄŁlu
Ġyap acak
ĠP en
Ġal mak
ce ÄŁini
it e
Ġ2 4
Ġ2 8
Ä±r hlÄ±
lan da
larÄ± mÄ±z
ĠY avaÅŁ
ĠY avuz
Ġf in
ĠaÃ§ Ä±lan
ĠaÃ§ Ä±ldÄ±
ĠC an
Ġn eler
len ecek
Ġbul uÅŁ
Ġyar ar
ĠO n
ta j
Ġay Ä±
Ġen gel
Ġbin lerce
ĠiÅŁ let
Ġmil let
Ġbelir len
Ġbil e
Ġ6 0
Ġtop rak
Ġkul lanan
Ġis m
ĠHaber leri
Ġ7 0
Ġpo litik
Ġgir en
ĠMÃ¼ cadele
re xit
Ġser best
ĠÃ¶ldÃ¼r en
ĠÃ¼r et
ĠÃ¼r Ã¼n
ĠÃľn lÃ¼
ĠsÃ¶z leÅŁ
Ġkr iz
Ġmes lek
abil eceÄŁini
Ġsev iy
ĠsÄ±r ada
ĠPro gram
alÄ±k esir
Ġmerkez inde
ĠbaÅŁlat Ä±lan
mar is
ĠAd alet
ĠÅŁek l
Ġsiyas i
ĠAlt unizade
suz luk
ĠgÃ¶rÃ¼n tÃ¼
Ġkuzey indeki
Ġit fa
ĠGazet e
azi antep
ĠJo hn
ĠoÄŁ lu
ĠKuvvet leri
Ġotur ma
ĠDoÄŁ u
Ġyaralan dÄ±ÄŁÄ±
Ġsonuc unda
ĠAh met
Ġmad de
ĠoluÅŁ an
ĠsÃ¶y lem
Ġikti dar
ĠUlu s
ahÃ§ eli
ĠmaÄŁlu p
Ġherk es
Ã¼mr Ã¼k
ihbar at
3 1
B or
E n
T Ã¼rk
Y eni
e ÄŁi
f orm
g esi
k r
k leri
k ale
m ur
m asÄ±nda
m uÅŁ
o da
p ag
s Ä±nÄ±
t em
t re
an Ä±nÄ±n
er im
en g
il t
ÄŁ unu
Ġb ar
al ama
Ġy aÄŁ
Ġs Ã¶n
Ã¶ l
ir v
Ġg Ã¼mrÃ¼k
da ÄŁ
el e
el en
ay eti
iy a
iy atÄ±
Ġv il
ĠB ek
ĠB ur
ĠB rexit
ĠB ahÃ§eli
Ġd Ã¼k
Ġd Ã¼ÅŁtÃ¼
or din
Ġm a
Ġm u
Ã¼n cÃ¼
st a
ĠK uzey
ĠS al
ĠM ark
ĠM iss
Ġol masÄ±
ĠÄ° d
ĠÄ° t
anÄ± yor
ĠE v
um uz
ĠG rup
ĠH ar
ĠH er
ĠH Ã¼s
ah a
ĠP er
ĠP ort
Ġar alarÄ±nda
Ġf estiv
ĠF Ä±rat
av ut
Ġn it
Ġet tir
ad ira
ildi ÄŁi
om otiv
ĠbaÅŁ lÄ±k
Ġgel iyor
eler den
ro s
Ġ3 1
ĠÃ§Ä±k ma
man da
Ġen diÅŁ
Ġ20 0
Ä±ldÄ± ÄŁÄ±nÄ±
ĠdÃ¼zen lem
ĠdÃ¼zen leyen
Ġc an
ans ur
Ġist em
Ġbelir lendi
ĠaÃ§Ä±klam asÄ±
Ä±sÄ± yla
Ġhak aret
Ġkur tar
Ġsor gul
ĠbÃ¶ yle
ne ÄŁi
arÄ± yla
ekt en
eb ilir
ĠÃ¶ÄŁr etmen
ĠiliÅŁ k
Ġ201 8
Ġpro pag
Ġdah il
ĠAl bay
Ġneden le
ĠI n
Ġsah te
Ġeki b
Ġyol larla
ĠolduÄŁ una
Ġ10 0
ĠbaÅŁk ent
ĠJ andarma
ĠmaÃ§ ta
ĠÄ°n san
iv il
maz lÄ±k
tik leri
Ġad lÄ±
ĠkÃ¶ y
ĠkÃ¶ tÃ¼
ĠÃ¼ c
miÅŁ ti
Ġmerkez li
ĠuÃ§ ak
Ġem ekli
Ġgit ti
ĠMar maris
ĠkÄ±r sal
ons por
ĠgÃ¶rÃ¼n t
Ġris ki
ĠaÅŁ am
ĠsÄ± cak
ĠKad Ä±n
ĠiÃ§er isinde
ĠGÃ¼n ey
ĠdeÄŁiÅŁik lik
Ġbor Ã§
ĠyansÄ± dÄ±
Ġci ddi
Ġtale b
ĠmÃ¼dah al
ĠSa int
ĠBaÅŁsavc Ä±lÄ±ÄŁÄ±
ĠBÃ¶lg e
Ġbilin en
ĠÅŀu be
ĠBaÅŁbak anÄ±
ĠKomut anlÄ±ÄŁÄ±
Ġtedav i
indi stan
ullah Ã§Ä±
abz onspor
Ġdar be
ĠMan isa
ĠKons eyi
Ġseb eb
ĠFar uk
Ġsahi bi
ĠÅŁid det
ĠKaram ollaoÄŁlu
ĠHÃ¼s eyin
Ġpropag anda
B u
B il
P h
P ar
R T
a dÄ±ÄŁÄ±
b er
b eti
c il
c ut
o Ã§
p p
p ek
r uk
s en
s inin
w e
Ġ ap
er ma
in er
in tÃ¼rk
Ġb ask
al am
Ġk i
Ġk Ä±
Ġk ir
ak a
ak ta
Ġs por
ir i
Ġt az
Ġt Ã¼k
Ġo b
dÄ± z
es inden
Ġi tir
ĠB in
ĠB ul
Ġh ar
ur ken
Ġm an
Ġm ez
Ġm ahk
Ä° zmir
ĠÃ§ et
ĠM etin
ĠM eteoroloji
ĠM ansur
im di
Ġa dÄ±
ey ne
iÅŁ ehir
ti ÄŁini
ĠD eprem
Ã¼z de
Ġp er
Ġp ek
Ġp azar
ĠG emlik
Ġyap arak
Ġyap Ä±mÄ±
ĠP ut
Ġar a
Ġal Ä±mÄ±
ĠY Ä±ldÄ±z
ĠF ilm
ĠF enerbahÃ§e
av i
ĠaÃ§ Ä±
alar Ä±n
ĠgÃ¶r Ã¼ÅŁtÃ¼
Ä±s Ä±ndan
ĠyÄ±l Ä±
ĠyÄ±l dÄ±z
ĠbaÅŁ ar
Ġz anlÄ±
ĠR e
ĠyaÅŁ adÄ±
Ġan da
Ġan lam
Ġger i
ĠkiÅŁ iler
ĠÃĩ in
ara j
Ġkon uÅŁtu
ĠÃ§alÄ±ÅŁ anÄ±
ĠN ur
ĠN adira
Ġdi y
Ġbelir lenen
Ġbelir ten
ÄŁr etim
ĠÅŀ ah
Ġhak im
Ġkur t
ra g
ĠV er
Ġtop lum
ĠyÃ¶n et
Ġdep las
ers in
Ġyak alan
malar Ä±
lat form
Ġgi der
Ġev de
Ġyan Ä±nda
Ġat tÄ±
Ġce v
Ġsah asÄ±nda
Ġyol cu
ĠÃ¶ÄŁren c
ĠÃ¶ÄŁren cisi
Ġak tar
ĠKur ul
ĠÃ§ek en
Ġhav anÄ±n
Ġyaz ar
Ġyaz arÄ±
ĠhazÄ±r lanan
ĠdoÄŁ um
Ġalt Ä±na
Ġdav anÄ±n
ĠÃ¶rgÃ¼t Ã¼ne
Ġekip lerince
20 19
Ġgazet esi
Ġgazet ec
ĠKor uma
ĠÃ¼y eleri
Ġdol ayÄ±
Ġsan Ä±k
lanÄ± yor
Ã¼ven li
Ġiz in
ĠBil im
ĠBil ecik
Ġhes ap
ĠSer intÃ¼rk
ĠHak an
ĠgÃ¼Ã§ lÃ¼
ĠyapÄ±l acak
Ġede cek
Ġetkin lik
ĠÃ¼n lÃ¼
ĠolmadÄ± ÄŁÄ±nÄ±
ĠmÃ¼dah ale
ĠOt omotiv
anak kale
Ġhaft asÄ±nda
Ġkilo gram
Ġekonom ik
ĠKr edi
Ġtalim atÄ±yla
ĠBank asÄ±
Ġihr ac
Ġhaberimiz de
ĠÃ¼niversit e
Ġintih ar
Ġhen Ã¼z
ĠÃ§eÅŁ it
ĠSuÃ§ larla
ĠJohn son
kr ay
ĠsÃ¶n dÃ¼r
ĠAlbay rak
ĠÃ¼c ret
ĠkÄ±rsal Ä±nda
erma in
Ġmahk um
eyne p
ĠPut in
A R
G M
H DP
b r
b ac
c om
f i
g u
h e
h i
i j
i ir
i dan
j it
k Ä±r
m at
o in
o de
p r
r on
s Ä±n
s ik
s anÄ±
t Ã¶r
u g
Ġ us
an ya
an dÄ±ÄŁÄ±
an acak
er ji
ÄŁ Ä±ndan
Ġb Ã¼y
Ġb araj
ak ÅŁehir
Ġs ak
Ġs anÄ±
Ġs ig
Ġs efer
Ã¶ beti
ir daÄŁ
da j
et bol
et rol
ay Ä±s
as Ä±ndan
di ÄŁini
di mir
ek ret
Ġt er
Ġt aban
Ġt Ã¶ren
at han
am et
Ġh iss
ur fa
ĠA dasÄ±
or lu
em en
em ek
em iz
em esi
Ä° K
Ä° n
Ä° Ã§iÅŁleri
ĠT ak
ĠT RT
ĠÃ§ at
ĠS oy
ĠS ekret
ĠM HP
Ġil er
Ġa det
la dimir
ĠD Ã¼n
ĠE mek
ĠE YT
ĠÃ¶ de
ĠG aziantep
ĠH af
Ġyap Ä±yor
ĠP SG
Ġar asÄ±
Ġ2 9
Ã¼l endi
ac iz
Ġson daj
ĠÅŁ ah
ĠÅŁ of
om et
ĠbaÅŁ ta
ĠbaÅŁ landÄ±
ĠbaÅŁ lÄ±yor
eler de
Ġed erek
Ġed ilmesi
ĠO y
ĠÃ§Ä±k arak
ĠyaÅŁ Ä±nda
ĠyaÅŁ andÄ±
Ġr ahat
ĠkiÅŁ iyi
anlÄ± urfa
Ġbin anÄ±n
ĠsÃ¼r dÃ¼
ĠdÃ¼zen lenecek
Ġc anlÄ±
Ġ4 2
Ġkal ma
ĠaÃ§Ä±klam aya
lem ek
ra il
ĠV ladimir
ĠkarÅŁ Ä±lÄ±k
Ġ6 00
Ġsor um
Ġdur dur
Ġdur aÄŁÄ±nda
ekt ir
ĠU y
ĠilÃ§esinde ki
eti ci
ĠmÃ¼ cade
Ġkat Ä±lan
ĠbaÅŁk anlÄ±
ĠAr aÅŁtÄ±r
ĠdÃ¼ÅŁ Ã¼n
Ġgerek iyor
Ġedildi ÄŁine
ĠZ eynep
Ġser may
Ġser vis
ĠkarÅŁÄ± ya
ef orm
Ġkaz a
ĠBaÅŁ akÅŁehir
ĠÄ°l Ã§e
Ġik na
ĠkÃ¶ t
ĠOr han
Ġbek lenen
An talya
ĠÃ§alÄ±ÅŁmalar Ä±
Ġsaat lerinde
siz lik
ĠTek noloji
ĠyayÄ±n lanan
ĠEs per
AK P
ĠÅŁirk eti
Ġyet kil
ĠkonuÅŁ an
ĠtoplantÄ± sÄ±nda
Ġul us
tif ak
Ġkom ed
Ġkapat Ä±ldÄ±
ĠeleÅŁtir di
any asÄ±
Ġkurul uÅŁ
Ġceza ev
Ġmal z
Ġtale p
Ġorman lÄ±k
ĠyoÄŁun luk
aban cÄ±
ĠdÃ¼ÅŁÃ¼r Ã¼l
ĠÃ¶zgÃ¼r lÃ¼ÄŁÃ¼
Ġbas Ä±n
Ġham ile
Ġmem ur
ĠDur um
ĠKara deniz
ĠDer neÄŁi
ĠinÅŁ aat
Ġindir im
Ġelekt rik
ĠMal iye
Ġeyalet inde
Ġbirin cisi
GÃ¼n cel
errah paÅŁa
ĠÃľnlÃ¼ oÄŁlu
ĠProgram Ä±
ĠUlus lararasÄ±
Bor sa
irv esi
Ġvil ayet
ĠgÃ¶rÃ¼nt Ã¼lendi
ruk lu
Ġap art
Ġtaz min
ĠÅŀah in
kray na
Ġus ul
ĠÅŁof Ã¶r
1 6
A S
E k
K onya
M uÄŁla
P G
P en
d ak
d illi
e o
f Ä±
g ar
i ti
k Ã¼n
k tan
k Ã¶y
k iÅŁehir
l esi
l ulu
m it
m eni
m eyen
m esinin
m eyi
n u
s at
s Ã¼z
t or
t eki
y u
y at
y alÄ±
ar e
ar y
Ä±n an
en az
ÄŁ inde
Ġb eÅŁ
al n
Ġk Ã¼Ã§Ã¼k
ak al
Ġs in
Ġs av
Ġs uyu
Ġg iy
Ġg ece
el Ã§
Ġt ab
iy an
Ġi Ph
at ik
at Ã¼rk
Ġh Ã¼k
Ä±l acak
Ä±l mÄ±ÅŁ
ĠA Ã§
ĠA FAD
Ġd al
Ġm in
Ġm as
Ġm eÅŁ
Ġm ekt
Ġm ode
Ä° s
ĠT ab
ĠT erim
ĠÃ§ al
ĠS em
ĠS av
ĠS ilivri
ĠM ahal
le d
Ġbir inci
im oÄŁlu
im mat
Ġa ile
ĠE ÄŁitim
Ġp latform
ab et
ĠG Ã¶z
ĠH Ã¼kÃ¼m
ĠH izmet
Ġyap ar
Ġal Ä±yor
ce ÄŁi
oÄŁ az
Ä±r ken
ac Ä±
Ġf ay
Ġf or
ĠiÃ§ ki
ok at
ĠC h
ĠÅŁ ans
iler inin
len me
Ä±s Ä±nÄ±n
Ġbul du
ĠbaÅŁ Ä±na
Ġed il
Ġed ilmek
Ġed erken
ĠÃ¶n lem
Ġver gileri
Ġyar al
ru h
Ġ3 6
Ġay lÄ±k
Ġ5 1
Ġ5 2
ĠR esmi
ÄŁu st
Ã¼m Ã¼z
Ã¼m kÃ¼n
esinde ki
Ġr esmi
laÅŁ tÄ±r
iyor lar
ilm esine
ĠL ond
ĠdÃ¼zen siz
ĠdÃ¼zen lendi
ĠdÃ¼zen lediÄŁi
Ġc ilt
me d
Ġkad Ä±nÄ±n
ken in
ist e
Ġkal an
Ġkal dÄ±ÄŁÄ±
Ġkur du
Ġkur uÅŁ
ĠkarÅŁ Ä±sÄ±na
Ġuy arÄ±
Ġuy ruklu
endi k
ĠAk Ä±ÅŁ
ot ik
Ä±lÄ± yor
ĠAv cÄ±lar
Ġhay van
Ġetk ilen
Ġhakk Ä±nÄ±n
Ġhakk Ä±ndaki
Ġce p
Ġsah ne
Ġyol suzluk
Ġalan da
ĠdÃ¼ÅŁ mesi
Ġgerek li
ĠsaldÄ±r gan
leÅŁ miÅŁ
ĠZ irvesi
ĠkaÃ§ Ä±n
ri d
Ġcin ayeti
ĠYar gÄ±
ĠÃ¶ldÃ¼r Ã¼ldÃ¼
Ġli st
ĠterÃ¶rist in
ĠyÃ¼k lÃ¼
ĠMÃ¼dÃ¼r Ã¼
Ġad alet
ĠgÃ¼ven li
lendir me
Ġer oin
mam asÄ±
Ġkim liÄŁi
Ġkullan dÄ±ÄŁÄ±
Ġkaybetti ÄŁi
Ġbak an
Ġhem en
ĠÃ§Ä±kar dÄ±
Ġuygul an
Ġyet k
Ġkil omet
Ġem niyet
Ġgit mek
Ġhastan ede
ĠvatandaÅŁ lar
ĠgeliÅŁ tir
Ġko ordin
ĠaraÅŁtÄ±r ma
Ġisim li
Ġit tifak
ĠAt illa
Ġkom ÅŁ
ĠKan dilli
ĠgerÃ§ekleÅŁ ti
Ġperson eli
ĠÃĸzel likle
Ġj andarma
ĠFrans Ä±z
ĠDen izi
ĠOk tar
Ġcinayet inin
Ġkamyon et
sin iz
Ġfutbol cu
ĠBaÅŁbak an
Ġnok t
ĠgÃ¼nde me
ĠmÃ¼h immat
ĠRas imoÄŁlu
Ġtat il
Ġtraf ik
Ġpak et
ĠHarek atÄ±
ĠYap Ä±lan
Ġtehdi t
Ġbomb alÄ±
ĠÃ§Ã¶k me
ĠÄ°r landa
ĠMad rid
ĠdÃ¼k kan
ĠPort akal
Ġfestiv al
Ġpropaganda sÄ±nÄ±
bac h
ĠSekret er
ĠiPh one
ĠLond ra
. .
3 0
7 5
A r
A Åŀ
B ey
D iyarbakÄ±r
D Ä±ÅŁiÅŁleri
E O
E s
E YT
F F
G ermain
P D
S O
S ur
T BMM
a in
a ir
b iyet
d o
d on
d bach
f or
g Ã¶r
h endis
i den
i ce
k ten
k lerini
l ok
m esinde
m eli
m uyor
n oloj
o ÅŁ
q u
r um
s u
s Ä±na
s man
t ur
Ġ &
Ġ um
an Ä±k
in Ã§
ÅŁ e
en Ã§
Ġb ah
Ġb unun
Ġy anlÄ±
Ġy abancÄ±
Ġk ut
Ġk Ã¼ltÃ¼r
ak am
Ġs el
Ġs avunma
el in
iy iz
Ġv el
Ġv izyon
at if
Ġh atÄ±r
Ġh ikay
ler imiz
Ġd il
Ġd ile
Ġm Ã¼mkÃ¼n
ĠK am
ĠT at
ĠT im
ĠÃ§ avuÅŁ
ĠS arÄ±
ĠS istem
ĠS ig
ĠS ultan
ik let
ĠM Ã¶n
ĠM art
ĠM uÄŁla
ĠM Ä°T
Ġbir im
Ġbir inin
im in
la dbach
tÄ± ÄŁÄ±nÄ±
ĠÄ° k
ĠD Ã¶n
Ġp an
Ġp art
Ġe ÄŁitim
ĠG Ä±da
ĠH al
ĠH ol
Ġyap Ä±
Ġyap masÄ±
Ġyap Ä±ldÄ±ÄŁÄ±
Ġal Ä±m
ma dan
lan arak
ac Ä±lÄ±k
ĠY an
ĠY or
Ġf uh
Ġf rag
ĠF idan
ĠaÃ§ Ä±lmasÄ±
ĠÅŁ ar
ĠÅŁ ampiyon
iler den
us si
ĠyÄ±l a
ĠyÄ±l larda
ez ya
uk uk
Ġtar if
ĠO sman
Ã¼y e
edi yor
Ġ5 6
Ġz Ä±rhlÄ±
ĠR uh
Ġr akam
ĠkiÅŁ isel
ĠgeÃ§ it
os k
ilm iÅŁ
eh an
ĠL av
ĠsÃ¼r Ã¼len
ĠN ark
eÅŁ me
Ġmil letvek
Ġkad ros
Ġist endi
Ġist if
ĠyÃ¼z den
Ġkay y
Ġor anÄ±
Ġor ta
ĠAn ayasa
Ġel de
lem eye
ĠÅŀ ans
ĠV eter
Ġtop landÄ±
Ġkap Ä±
Ġoy na
Ġkat Ä±ldÄ±ÄŁÄ±
ĠBaÅŁk anlÄ±
mas Ä±ndan
ĠÃľ yesi
Ġyan dan
Ġetk ili
ĠgÃ¶ster en
Ä±yor du
ĠdÃ¶n er
ĠMÃ¼ hendis
ĠdÃ¼ÅŁ Ã¼nÃ¼
ĠÃ¶l dÃ¼
Ġgetir en
men in
ĠÃ§ek ti
art al
art esi
ĠÃ¼l kenin
Ġpolis i
ĠkaÃ§ an
han gi
ĠhazÄ±r ladÄ±
ĠdoÄŁ r
ĠdoÄŁ usuna
Ġaz alt
Ġalt Ä±ndaki
Ġkaz an
ĠsaÄŁ anak
Ġyas ak
Ġyas aÄŁÄ±
Ġli tre
ĠKon ya
ĠterÃ¶rist ten
Ġtarih leri
Ġkr izi
Ġmes el
ĠOr ta
ĠdÄ±ÅŁ Ä±nda
ĠKor kut
Ġkim dir
Ġher hangi
An ayasa
gen eral
ilah lÄ±
ET T
Ãľ n
Ġdol andÄ±r
uv ar
ĠÃ§arp tÄ±
ĠTr abzonspor
ĠsoruÅŁtur masÄ±
ĠTek irdaÄŁ
gan istan
ĠbaÅŁlat tÄ±
ĠBil al
ĠAd nan
Ġzor la
ĠCumhuriyet i
ĠdÃ¶nem inde
ĠkaldÄ±r Ä±lan
ĠkaldÄ±r Ä±ldÄ±
Ġtamam ladÄ±
ĠDem ir
okr asi
tif akÄ±
ĠgÃ¶steriler de
Ġeylem i
ch eng
Ġkor k
Ġihl ali
Ġhan eye
ĠDen iz
izm eti
Ġmak am
Ġbeledi y
Ġann esi
ĠGÃ¶ Ã§
ĠUz manÄ±
Ġsokak ta
Ġdetay lar
ĠaÃ§Ä±l Ä±ÅŁ
Ġdok un
Ġtas la
ĠGÃ¶k Ã§ek
ĠKal kan
ĠHav a
ĠÃ§aÄŁr Ä±sÄ±
ĠSim ay
ĠHat ay
ĠÃĩalÄ±ÅŁ ma
Ġbal istik
ĠBaÅŁkonsolos luÄŁu
ĠÃ§arptÄ±r Ä±ldÄ±
Ġlis e
Ġolum suz
ĠÃ§if t
ĠÃ§Ã¶z Ã¼m
ĠSah il
ĠMur at
ĠÅŁekl inde
Ġitfa iye
ĠyaÄŁ mur
ĠÄ°t tifakÄ±
Ġitir af
Ġdeplas manda
Ġihrac at
ĠsÃ¶ndÃ¼r Ã¼ldÃ¼
ĠbaÅŁkanlÄ± ÄŁÄ±nda
Ġkomed yen
Ġusul sÃ¼z
ĠSem ih
ĠSav aÅŁÄ±
ÄŁust os
ĠMÃ¶n cheng
Ġfuh uÅŁ
ussi a
ĠNark otik
Ġmilletvek il
ĠVeter iner
ĠMÃ¶ncheng ladbach
7 0
F enerbahÃ§e
K uzey
M F
P KK
b arÄ±yla
d y
e gen
f ederasyonu
g isi
h a
h am
i ÄŁ
k ap
k ol
k Ã§a
m Ã¼ÅŁ
n ek
p ol
r y
r en
r ken
s ini
s ev
v ik
z e
z et
Ġ le
in c
ÅŁ k
en en
ÄŁ Ä±nÄ±n
Ġb un
Ġb eni
Ġb ilm
Ġb unu
Ġb ank
Ġb lok
Ġy aln
Ġk Ã¶r
Ġk orum
de d
ak ter
ak fÄ±
Ġs ivil
ir aat
el im
ay en
ay Ä±sÄ±yla
di k
ek s
on a
Ġt av
Ġo f
iy eli
Ġv uru
ĠB as
am idi
Ġh izmeti
ur k
ur o
li b
ĠA da
ĠA ile
Ġd Ã¶
Ġd ir
Ġd anÄ±ÅŁ
Ġm ik
Ä° M
ĠK ol
ĠK up
ĠK artal
ĠT I
ĠÃ§ ap
ĠS oz
ĠM Ã¼z
ĠM ic
ĠM id
Ġil de
Ġbir kaÃ§
Ġol ursa
la z
iÅŁ isel
iÅŁ are
ĠÄ° Ã§
ĠÄ° li
ĠÄ° talya
ti ÄŁimiz
az lÄ±
ĠE lif
ĠÃ¶ len
ĠÃ¶ dÃ¼l
ĠG i
ĠG ri
ĠG Ã¼nÃ¼
ĠP azar
ĠP omp
Ġar aya
Ġal Ä±nÄ±
oÄŁ u
ac Ä±k
ĠY urt
ĠY Ã¼zde
lu ÄŁ
Ã¼k etici
ĠF er
av e
Ġson u
ĠaÃ§ tÄ±ÄŁÄ±
ĠC am
ĠÅŁ imdi
ĠgÃ¶r Ã¼len
aÄŁ Ä±n
ev i
Ġkar akter
aki stan
eler inde
uk atÄ±
ĠÃ¶n Ã¼ne
ĠgÃ¶ tÃ¼r
Ġver gi
Ġver irken
Ġyar alÄ±
Ġyar dÄ±mcÄ±sÄ±
ĠO perasyon
ĠO lay
dir ne
ro v
Ã¼y Ã¼ÅŁ
ru b
Ġ3 00
edi ÄŁini
ĠgÃ¼n Ã¼nde
ĠgÃ¼n lÃ¼k
Ã¼m e
Ġan lar
ĠgeÃ§ miÅŁ
ĠÃĩ avuÅŁ
ĠÃĩ anakkale
ĠÃĩ orlu
Ġkon ut
ĠBak anlÄ±
te dir
mak ta
ĠsÃ¼r en
ĠsÃ¼r dÃ¼ÄŁÃ¼
ĠiÅŁ sizlik
ĠdÃ¼zen ledi
Ġc es
Ġc enaz
Ġolan larÄ±n
Ġkal p
Ġbil et
ĠAn cak
ĠV atandaÅŁ
ĠV akÄ±
ĠV akfÄ±
Ġ6 9
Ġkul Ã¼p
ĠU krayna
Ġgi diyor
eti ciler
oy o
ĠÃľ r
ĠyapÄ±lan dÄ±r
Ġyan g
Ġhas tal
Ġgir ecek
ĠI MF
atÄ± cÄ±
Ġtes isine
ĠBel en
tir me
ĠZ el
Ġpolis in
Ġyaz dÄ±
Ġyaz Ä±larÄ±
Ġtak v
ĠdoÄŁ al
vek ili
Ġek ran
Ġdurum unun
ĠÃ¼lk ede
ĠÃ¼lk esinin
Ġyas ama
Ġdo st
ĠKon federasyonu
ley man
Ġduy du
Ġekip lerinin
dem ir
ĠgÃ¶rÃ¼ÅŁ meye
liÄŁ ine
liÄŁ iyle
Ġetkis ine
Ġetkis iyle
ĠMÃ¼dÃ¼r lÃ¼ÄŁ
Ġad li
ĠBaÅŁkan vekili
abil ecek
Ġkarar Ä±nÄ±n
bir liÄŁi
ĠkÃ¶ pek
kan dal
Ġdest eÄŁ
Ġdest eÄŁi
Ġbek liyor
Ġtutuk lanan
tr at
Ġer iÅŁ
Ġer ken
Ġer iÅŁim
madÄ± ÄŁÄ±nÄ±
Ġkullan Ä±l
Ġkullan Ä±lan
Ġmedya da
Ġdol ayÄ±sÄ±yla
ĠÄ°ngil iz
Ġdolar lÄ±k
Ġden iz
Ġbak Ä±m
ĠbaÅŁlat Ä±ldÄ±
tÄ±k larÄ±
ĠuÃ§ aÄŁÄ±
ĠyayÄ±n landÄ±
ĠEs ki
ĠEs kiÅŁehir
ĠtartÄ±ÅŁ masÄ±
Ġkes in
Ġkes im
Ġsilah la
orm al
ĠseÃ§im inde
ĠgerÃ§ekleÅŁtir ilen
ĠTop u
sÄ±z lÄ±k
ĠÄ°st ihbarat
ĠÄ°st iÅŁare
Ġfilm i
Ġoyn anacak
Ġkend ilerini
ĠAt atÃ¼rk
ĠanlaÅŁ ma
Ġotom otiv
Ġetkin liÄŁinde
ĠdeÄŁerlendir en
ĠBor is
ĠBor ussia
ĠSÃ¼ leyman
Ġhat t
ĠTar Ä±k
ĠyayÄ±m lanan
Ġkent inde
ĠSa adet
Ġdevr ilmesi
ĠFet h
ĠFet ullahÃ§Ä±
ĠbÃ¼yÃ¼klÃ¼ÄŁ Ã¼nde
Ġbeklen iyor
ĠsÄ±nÄ±r Ä±ndaki
ĠmÃ¼dÃ¼r Ã¼
Ġkendis ine
ĠboÅŁalt Ä±ldÄ±
Ġyitir di
Ġuzak laÅŁ
Ġtehlik eli
ĠbÄ±Ã§ak layarak
Al t
ĠKÄ± yat
ĠÃ¼retim i
Ġsanat Ã§Ä±
Ġhey ec
ĠSin an
ĠMillet ler
Ġtemsil cisi
ĠBer at
ĠTemel li
Ġsab ah
ĠdÃ¶r t
ĠHay van
ĠHastan esi
Ġyalan ladÄ±
Ġsavun du
ĠÅŁark Ä±cÄ±
Ġiht iy
Ġkriz ine
Ġmu ayen
sta gram
ĠIn stagram
Ġsebeb iyle
we et
ĠRe al
Ġdiy erek
ĠÃ§eÅŁit li
iir t
Ġsig ara
Ä°n gil
ĠkÃ¶t Ã¼ye
Ġulus lararasÄ±
ĠdÃ¼ÅŁÃ¼rÃ¼l mesi
ĠAÃ§ Ä±k
Ġmekt u
PD Y
Sur iye
ĠLav rov
Ġistif a
Ġdokun ul
Ġyaln Ä±z
Ġvuru larak
amidi ye
ĠSoz cu
ĠPomp eo
ĠVakÄ± f
Ġhastal Ä±k
1 7
4 3
A k
A pp
B aÅŁk
C h
D Ã¼n
E B
E r
E AÅŀ
G S
I S
S u
S por
U R
Z iraat
b il
c k
c ilik
d rem
e ÄŁer
f ik
f az
g Ã¼venli
h al
h at
h ing
i i
k un
k eri
l k
l ayÄ±
l og
m iz
m ut
m iyor
m uÅŁtu
n daki
s y
s er
s im
t Ä±na
t aki
t ili
t hane
y asÄ±
y esinde
z i
Ġ anÄ±
Ġ ruh
an der
an taj
Ã¼ st
Ã¼ per
in iz
en gin
ÄŁ inden
Ġb es
Ġb at
Ġb aÅŁkanÄ±
Ġb aÄŁÄ±
Ġb ot
Ġb iÃ§
Ġb eÄŁ
Ġb ebek
al isyon
Ġk u
Ġk Ä±l
Ġk op
Ġk eÅŁ
Ġk uvvet
Ġk Ã¼resel
de si
ak k
ak ar
Ġs esi
Ġs aÃ§
Ġs atÄ±cÄ±
Ã¶ yle
Ã¶ bet
Ġg ali
da ÅŁ
et ro
as hing
ek im
aÅŁ in
Ġt ic
Ġt rans
dÄ± ÄŁÄ±nÄ±
Ġi p
Ġv ideo
at an
ĠB M
ĠB r
ĠB ask
ĠB alÄ±kesir
am sun
am ze
ĠA ir
ĠA mer
ĠA ÄŁustos
Ġd os
Ġd Ã¶k
Ġm en
Ġm ek
Ġm ask
Ġm ens
Ġm ahal
Ã¼r ci
em i
Ä° S
ĠK en
ĠK amp
ĠK Ã¼Ã§Ã¼k
ĠT od
ĠS aray
ĠM eli
ĠM YK
Ġol maz
Ġol acaÄŁÄ±nÄ±
Ġol sun
Ġa j
Ġa ÄŁr
ey le
ey siz
ĠÄ° dar
ĠD in
ĠD aha
ĠD avut
ĠE ge
ĠE SP
ĠE drem
is yen
Ġp etrol
ab ilmek
ĠG al
ĠG az
ĠG amze
ĠH indistan
ĠP ek
ĠP at
Ġar tÄ±
Ġar anan
Ġar ayarak
ce ÄŁ
it ik
lan acak
ĠY er
ĠY ak
Ġf orm
ĠF eder
Ġson unda
ĠC in
alar la
eÃ§ im
Ġet raf
len diÄŁi
Ä±s Ä±r
us unun
Ġkar Ä±ÅŁ
lam asÄ±
Ġoldu kÃ§a
om as
ĠbaÅŁ Ä±nda
ĠbaÅŁ Ä±ndan
Ġgel ir
ĠaÃ§Ä±k ladÄ±ÄŁÄ±
eler iyle
eler inden
ĠgÃ¶ m
Ġver ilerine
Ġ3 7
edi pol
Ġay Ä±r
ĠÃ§Ä±k Ä±yor
ĠÃ§Ä±k maya
Ġz at
Ġz engin
Ã¼m Ã¼ÅŁ
Ġbel g
Ġan Ä±ldÄ±
Ġr aki
Ġr ej
ilen en
ĠkiÅŁ iye
ĠkiÅŁ ilerin
Ġen dek
Ġen erji
eli ÄŁine
iyor um
Ã¼t te
ade m
ĠsÃ¼r ede
ĠsÃ¼r ekli
ĠiÅŁ g
ĠÃ§alÄ±ÅŁ tÄ±ÄŁÄ±
Ġc uma
Ġyer li
ĠN et
eÅŁ il
me de
me den
ans Ä±z
ter s
Ġkay Ä±p
ĠPar tili
Ġdi yor
Ġdi yen
Ġ4 4
Ġor anÄ±nÄ±n
ĠilÃ§ esine
ĠAn a
ĠkarÅŁ Ä±sÄ±nda
Ġuy gun
elik li
aÄŁÄ± thane
ekt rik
ĠAk it
Ġilg inÃ§
Ġ201 6
Ġdeprem ler
Ġtut an
Ġat anan
Ä±yor uz
Ġ9 0
etim e
ĠÃĸz kan
Ġoperasyon larda
ĠAr ap
Ġtes is
Ġtes lim
ĠJ e
ĠJ ap
ĠÃ¶l dÃ¼ÄŁÃ¼
Ġgerek tiÄŁini
ĠsaldÄ±r g
Ġedildi ÄŁi
ĠmaÃ§ Ä±n
Ġtek noloj
ĠseÃ§ il
Ġort asÄ±nda
Ġyaz Ä±sÄ±
ĠsÃ¶yle diÄŁi
Ġkaz andÄ±
ĠW ander
ĠW ashing
ĠÃ¼r eme
Ġsay Ä±sÄ±nÄ±n
ĠgÃ¶rÃ¼ÅŁ mesi
Ġad Ä±na
Ġhal indeki
acaÄŁÄ± z
Ġyok tur
Ġvar dÄ±
Ġayr Ä±l
Ġayr Ä±ldÄ±
Ġayr Ä±ntÄ±lar
dÃ¼ÄŁ Ã¼nÃ¼
Ġtem iz
Ġmerkez i
ĠsoruÅŁtur masÄ±na
Ġam aÃ§
Ġarac Ä±
Ġarac Ä±na
Ġ15 0
Ġsonr asÄ±nda
ĠTem sil
ĠÄ°s v
Ġkol ay
Ġkol on
ĠKar ÅŁÄ±
Ġzor un
Ġbilg iler
ĠseÃ§im lerinde
ĠkÄ±s mÄ±
ĠHak larÄ±
ĠHak urk
Ġav ukatÄ±
ĠBÃ¶ yle
Ġtamam en
Ġsey ir
ĠTur izm
ĠakÅŁam dan
Ġkuzey inde
Ġkend ini
Ġproj e
ĠsÄ± ÄŁÄ±n
ĠWol ters
ĠgerÃ§ekleÅŁ en
ĠGazet eci
ĠgiriÅŁ im
ÄŁÄ±n ca
Ġmal iyet
ĠbaÅŁvuru larÄ±
ĠBay ram
Ġkamu oy
Ġkredi si
nak lar
od os
Ġuyar Ä±sÄ±nda
ĠBaÅŁsavc Ä±lÄ±
ĠBÃ¶lg esi
ĠteÅŁ kil
ĠKuvvet ler
Ġsorun larÄ±
ĠyÃ¼ksel iÅŁ
ĠKomut anÄ±
ĠÃ¶zgÃ¼r lÃ¼ÄŁ
Ġotomob il
Ġtedav isi
ĠÃ§ocu ÄŁun
abz on
Ġart tÄ±
Ġnok ta
ĠYÃ¶netim i
Ġolma dÄ±ÄŁÄ±
ĠsÃ¼rÃ¼ cÃ¼
ĠBar Ä±ÅŁ
ĠbÄ±Ã§ak lÄ±
ĠAf ganistan
ĠKay naklar
ĠfÄ±r lat
lÄ±klarÄ± mÄ±zÄ±
ĠkullanÄ± cÄ±
Ġberaber e
ĠSin em
ĠyaptÄ±r dÄ±klarÄ±
Ġsit esinde
Ġgez egen
Ġvur gul
ĠgÃ¶rÃ¼l Ã¼yor
ĠtartÄ±ÅŁmalar Ä±yla
Ã¼b Ã¼
ĠdÃ¶r d
ĠKÃ¶ se
ĠTh omas
eceÄŁ iz
SK Ä°
ĠBiz im
ĠKul Ã¼bÃ¼
ĠPr ens
Ġner ede
Ġesn af
Ġbit er
Ġkans er
Ġgecik tirme
ĠPen Ã§e
Ġfin ans
Ġneler dir
Ġherkes in
Ġma aÅŁ
ĠÄ°d lib
ĠVer ileri
Ġsorum lu
lulu ÄŁu
Ġgiy en
ĠMahal lesi
Ġyapar Ä±z
Ġkilomet re
for man
qu in
Ġvizyon a
ĠTim es
Ġfrag manÄ±
ĠMÃ¼hendis leri
Ãľn lÃ¼
kap ark
ĠdÃ¶ v
ĠKup asÄ±
ĠTI R
ĠFeth iye
ĠVakÄ±f bank
IS T
Ã¼rci stan
ĠMeli h
ĠDavut oÄŁlu
ĠEdrem it
Ġendek si
Ã¼tte fik
ĠWander ers
ĠWashing ton
ĠsÄ±ÄŁÄ±n ma
1 0
5 00
8 0
8 4
9 0
9 9
A P
A d
B alÄ±kesir
E P
G K
G azet
H azine
K ar
K YK
K UR
M HP
M ersin
O N
O y
P SG
S ilivri
S Ã¼per
T L
T ek
V ideo
Y aya
Y unanistan
b an
b us
b aÅŁÄ±
b ilir
c ar
c Ä±lÄ±k
d Ã¼k
e w
f es
f at
g Ã¼
g on
h el
i ÄŁi
i ci
k ur
l o
l iler
l unu
m on
m eleri
m esiyle
o u
o li
o st
o la
r al
s ak
t im
t ad
v ar
y ken
Ġ Ã¼s
Ġ uÄŁ
Ä± ya
Ã¼ c
ar uz
er g
er iz
ÅŁ et
Ä±n t
Ä±n ca
en k
en er
ÄŁ una
Ã§ uk
Ġb una
Ġb undan
Ġy or
Ġy Ã¶r
Ġy edi
Ġk Ã¼l
Ġk elim
de s
ak os
Ġs arÄ±
Ġs kandal
Ġs log
Ã¶ ÄŁretim
ir an
ir al
Ġg Ã¼r
Ġg rub
el ler
as ter
as apor
on g
Ġt im
Ġt ip
Ġt ank
es ter
un larÄ±
un daki
Ġi dar
ĠB ol
ĠB Ã¼l
am in
am uk
am ayan
Ġh Ä±z
ur lu
ĠA lan
ĠA maz
Ġm Ã¼l
Ġm ut
Ġm Ã¼lt
ul uk
ul masÄ±
em an
em ur
em be
Ã¼n yesinde
Ġve fat
Ä° R
st eÅŁ
ĠK ir
ĠK ap
ĠK Ä±z
ĠT es
ĠT eÅŁ
ĠT okat
ĠT EO
ĠT FF
ĠT oyo
ĠÃ§ ab
ĠS e
ĠS ey
ĠS iirt
ik ar
ap a
ĠM ac
ĠM avi
Ġil ave
Ġbir ini
Ġol asÄ±
ey iz
la ci
ĠÄ° z
ĠÄ° ki
az a
az Ä±
az iran
ĠD EAÅŀ
ĠD eÄŁer
is iyle
ab ah
ĠG Ã¼len
ĠG Ã¼rcistan
ĠH azÄ±r
ĠH azine
ĠH amidiye
ĠP amuk
Ġar am
Ġar az
Ġar ama
Ġar tÄ±k
Ġal anÄ±
Ġal arak
Ġal acaÄŁÄ±nÄ±
Ġal kol
ma dÄ±ÄŁÄ±
Ä±na v
Ä±r Ä±
lan ma
lan mÄ±ÅŁ
ĠY aÅŁ
ĠY Ã¼r
ĠY ol
ĠY emen
Ġf Ã¼z
ĠiÃ§ ine
ĠF ah
ĠF ederasyonu
ĠaÃ§ Ä±sÄ±ndan
ĠC em
ĠC errahpaÅŁa
ĠÅŁ ok
ĠÅŁ ehir
ĠgÃ¶r dÃ¼ÄŁÃ¼
ĠgÃ¶r Ã¼yor
Ġn amaz
Ġet tikleri
ev izyon
Ġkar t
uz ur
ĠyÄ±l da
ĠyÄ±l Ä±nÄ±n
ĠaÃ§Ä±k larÄ±ndaki
Ä±lan lar
Ġed ilecek
ĠÃ¶n Ã¼mÃ¼z
ili p
aÃ§ ak
ĠO cak
ĠO GM
Ġ3 3
Ġ3 5
Ġay n
ĠgÃ¼n ey
ĠgÃ¼n leri
Ġ5 00
ĠR odos
ĠyaÅŁ a
Ã¼m Ã¼ze
Ġan lay
Ġr es
Ġr om
Ġr eform
Åŀ ampiyon
Åŀ KUR
Ġger ide
man lar
os iklet
iyor uz
uÅŁ ak
ĠL im
ĠL iste
mak tan
ĠsÃ¼r eci
ĠsÃ¼r Ã¼yor
ĠiÅŁ aret
ĠdÃ¼zen leme
ĠEr k
Ġc umhur
Ġyer inde
Ġyer leÅŁtir
ĠN ob
ĠN Ã¶beti
me ce
Ġkay Ä±t
Ġkay ded
Ġdi yal
Ġdi jit
Ġor du
ĠaÃ§Ä±klam alar
ĠaÃ§Ä±klam asÄ±nda
Ġbil gi
ĠAn kapark
Ġel eme
ĠÅŀ irk
Ġkur al
Ġkur ulu
ĠV eli
Ġ6 5
ĠGenel kur
ĠÃ¼zer indeki
ale f
ĠyÃ¶n Ã¼ndeki
ĠAk doÄŁan
eb bet
ot osiklet
malar da
malar Ä±nÄ±
malar Ä±na
ĠmÃ¼ ebbet
ca eli
Ġ201 7
Ġkat kÄ±
Ġkat led
Ġev in
Ġtut ulan
nde ki
Ġdah i
Ġgir eceÄŁi
ĠgÃ¶ster erek
ede ki
Ġes eri
Ġes rar
Ã§ek mece
ĠgÃ¶z ler
ĠbÃ¶lg ede
ĠbÃ¶lg esine
Ġ9 43
ĠdÃ¶n Ã¼ÅŁ
Ġmilyon larca
ĠÃĸz b
ĠÃĸz tÃ¼rk
ĠÃĸz gÃ¼r
ĠÃĸz demir
yal ama
ĠdÃ¼n yaya
ĠdÃ¼ÅŁ en
ama dÄ±
leÅŁ k
leÅŁ ik
ĠseÃ§ ildi
ĠseÃ§ men
Ġhav alim
ĠhazÄ±r lÄ±k
Ġ8 0
Ġkaz asÄ±nda
Ġkaz andÄ±r
ĠsaÄŁ lam
Ġdav et
Ġbelirt ilen
Ġbelirt ileri
ĠÃ¶rgÃ¼t Ã¼nÃ¼n
Ġyas asÄ±
Ġpar mak
ĠÃ¶ldÃ¼r Ã¼len
oc k
ĠkadÄ±n lar
ĠsÃ¶z leriyle
ĠBu gÃ¼n
Ġtarih inin
liÄŁ e
liÄŁ inin
Ġkr itik
ĠAy v
Ġik amet
Ġmes le
Ġhal de
ĠdÄ±ÅŁ Ä±na
ĠbugÃ¼n kÃ¼
tr en
mam Ä±ÅŁ
Ġkim se
Ġtah liy
ĠÃ§alÄ±ÅŁmalar Ä±nda
Ġyok sun
Ġvar dÄ±r
Ġoyun cusu
may acak
Ġden em
Ġfiyat larÄ±na
ĠdeÄŁil dir
Ġlira dan
ĠyÃ¼r Ã¼yÃ¼ÅŁ
ĠuÃ§ aÄŁÄ±n
ĠpaylaÅŁ tÄ±
Ġmet re
ĠÄ°s p
ĠAd il
ĠÃ§ocuk larÄ±
ĠÃĸn c
Ġem ek
Ġkol luk
Ġzor unda
Ġbilg ilere
ĠdÃ¶nem de
Ġail esi
ĠÃ¶nc esi
ĠgÃ¼Ã§ lendir
ĠgerÃ§ekleÅŁtir di
ĠMar mara
ĠbÄ±rak Ä±ldÄ±
ĠyanÄ± tÄ±
ĠkÄ±r mÄ±zÄ±
Ġmuh al
ĠTop lantÄ±
Ġko ÅŁ
Ġmerak la
Ġbab asÄ±
Ġiti barÄ±yla
Ġim kan
ĠEt kin
ĠgÃ¼ndem i
ĠgÃ¼ndem inde
ĠanlaÅŁ mazlÄ±k
ĠaÅŁ Ä±rÄ±
ilir ken
ĠGÃ¼ven li
ĠHas an
Ġ12 9
Ġprogram Ä±
Ġmahkem e
Ġmahkem ece
ĠarkadaÅŁ Ä±
ĠMeclis i
ĠGÃ¼n gÃ¶r
ĠdÃ¼nya da
Ġsistem inin
Ġhan gi
Ġilan a
fer ansÄ±
Ġhat ta
ĠYal ova
ĠOt obÃ¼s
ĠsÃ¼rdÃ¼r Ã¼len
Ġinsan larÄ±
Ġincel eme
Ġuyar Ä±sÄ±
lilik te
Ġyen ildi
ĠteÅŁ vik
Ġkonu da
ĠBakan lÄ±k
Ġprotesto larda
ĠKo Ã§
ĠyÃ¶netim ler
ĠÃ§ocu ÄŁu
Ġdetay larÄ±
Ġsonuc una
ÄŁun uz
ĠsÃ¼rÃ¼ cÃ¼sÃ¼
Ġyitir en
ĠAb d
ĠyaptÄ±k larÄ±
ĠinÅŁ a
Ġdiz i
Ġoda sÄ±nda
ĠAs keri
Ġmev sim
ĠKal esi
ĠaÄŁ ab
ĠiÅŁÃ§ iler
Ġihr aÃ§
Ġimz a
ĠRas athan
Ġorgan iz
Ġorgan ize
Ġbenz et
ĠÅŁikayet Ã§i
TÃľ Ä°K
ĠKÃ¶ pr
ĠMa x
ĠHalk bank
ĠsuÃ§lam asÄ±yla
Ġazal acak
ĠKong re
eg or
Ġbiz im
ĠBey oÄŁlu
Tr abzon
Ġkans eri
Ġses lendir
ĠiÅŁlet me
Ġbelirlen emeyen
ĠsÃ¶zleÅŁ me
elen dir
ĠBek o
ĠBur ak
ĠbaÅŁlÄ±k lÄ±
Ġistem iyle
ĠsÄ±cak lÄ±klarÄ±
ĠmÃ¼dahal esi
Bil im
Ġob ez
Ġhar it
ĠÃ§et eye
Ġper forman
Ġyakalan an
Ġgider ek
Ġcev ap
ĠÃ¶ÄŁrenc ileri
br Ä±s
ij er
sanÄ± z
ĠsanÄ± ÄŁÄ±n
Ġhiss ed
ĠTak Ä±mÄ±
ĠÃ§at Ä±ÅŁ
ĠSoy lu
ĠÅŁah Ä±s
ĠmÃ¼cade l
ĠAraÅŁtÄ±r ma
Ġtazmin atÄ±
Ġmin ar
ĠmeÅŁ ru
Ġmode l
ĠTab ii
ĠHÃ¼kÃ¼m et
ĠHizmet ler
ĠYargÄ± tay
Es ki
Ġum ut
ĠyanlÄ± ÅŁ
ĠSistem i
ĠYan gÄ±n
Ġoyna dÄ±ÄŁÄ±
ĠdoÄŁr ul
ĠusulsÃ¼z lÃ¼k
ĠdanÄ±ÅŁ manÄ±
ĠMid illi
Ġcenaz e
Ä°ngil tere
Ġmektu bu
Ch ef
DÃ¼n yanÄ±n
ck er
Ġgali biyet
ĠBask etbol
ĠAir bus
Ġmens up
ĠJe an
Oy uncu
Ġslog anÄ±
ĠgÃ¼r Ã¼lt
aster Chef
ĠBÃ¼l ent
ĠAmaz on
ĠTEO G
ĠÃ¶nÃ¼mÃ¼z deki
Ġdijit al
ĠGenelkur may
Ġhavalim an
ĠRasathan esi
' ,
1 8
2 5
2 6
6 0
? '
A D
A Y
A f
A ile
C la
D K
E y
F oto
G eÃ§
H A
H at
H alk
H indistan
K P
K ay
K Ä±lÄ±Ã§
K iÅŁisel
M ar
M uh
M eteoroloji
O r
S B
S a
S er
S en
T ar
T icaret
T witter
T Ã¼ketici
V olkswagen
a dan
b aÅŁ
b ur
b inden
b lem
b ilecek
c in
c Ã¼s
c unun
c ulu
d um
d Ã¶n
d Ã¼m
d urdu
d Ã¼lÃ¼
g at
g eÃ§
g azi
h az
h aciz
i per
j ek
k lar
k iy
k or
l al
l asÄ±
l ini
m el
m esinden
n eleri
n avut
p ar
p ir
r ek
r es
r ika
r eni
r ist
s Ã¼
s oy
t ak
t ek
t asÄ±
t iler
t uk
t ing
u de
v i
y er
y as
y kÃ¼
Ġ iy
Ġ un
Ä± ma
Ã¼ le
er t
in ek
Ä±n ar
ÄŁ Ã¼
ÄŁ Ã¼nÃ¼
Ã§ iler
Ã§ Ä±sÄ±
Ġb ey
Ġb eb
Ġb oÄŁaz
Ġb Ã¼nyesinde
al si
al go
Ġy ur
Ġy emek
Ġy ola
Ġk aÅŁ
Ġk uy
ak er
ak il
ak lÄ±
Ġs t
Ġs em
Ġs ap
Ġs Ã¼t
Ġs endik
Ġs Ä±nav
Ġg izli
et on
et leri
ay ar
ay Ä±ÅŁ
ay Ä±z
as tik
lar daki
ek abet
Ġt on
Ġt eb
Ġt Ã¼f
Ġo dak
iy ah
un cker
Ġi ÅŁte
Ġv Ã¼
Ġv arÄ±
at a
at ur
at istik
ĠB e
ĠB atÄ±
ĠB iden
ĠB IST
am an
am am
am ayÄ±n
Ġh Ã¼c
Ġh uzur
Ġd irektÃ¶rÃ¼
Ġm is
Ġm ini
Ġm ali
em eleri
Ä° D
Ä° ran
st r
st en
ĠK at
ĠK it
ĠK av
ĠK endi
ĠT H
ĠT el
ĠT aÅŁ
ĠT ah
ĠT av
ĠT aÅŁÄ±
ĠÃ§ iÄŁ
ĠS ar
ĠS eri
ĠS eza
ik e
ik te
ik lal
ap aÄŁ
ĠM ah
ĠM ev
ĠM us
ĠM osk
ĠM edipol
ĠM Ã¼ttefik
ĠM asterChef
le er
Ġil a
Ġil et
Ġde mir
im e
im en
Ġol acaÄŁÄ±
Ġol uyor
Ġol uÅŁtu
Ġol abilir
Ġol muyor
Ġa f
Ġa cÄ±
Ġa cil
ey ecek
tÄ± m
ĠÄ° h
ĠÄ° ETT
anÄ± m
ĠD ay
ĠD iÅŁ
ĠD ol
ĠE c
is an
is ayar
Ġp las
Ġp lak
Ġp omp
Ġp alsi
Ġp apaÄŁ
ab rik
um artesi
Ġe ÄŁ
ĠG el
ĠG ara
ĠG erek
ĠG Ã¼zel
ĠG enÃ§
ĠG Ã¼mÃ¼ÅŁ
lÄ± ÄŁÄ±na
lÄ± ÄŁÄ±nda
lÄ± yÄ±z
ĠH em
ĠH iÃ§
ĠH id
ĠH ekim
ah u
ah ya
ĠP ot
ĠP ast
Ġar aba
ma il
ce des
it esi
it eye
ya cak
oÄŁ uk
larÄ± m
Ä±ÅŁ tÄ±
ĠY unan
ĠY erli
ĠY PG
Ġf al
Ġf ik
Ġf iz
Ġf iyatÄ±
Ġf atur
Ã¼k leer
ĠF u
av illa
Ġson una
ok ak
ĠC uma
ĠÅŁ ef
ĠÅŁ Ã¶yle
alar Ä±ndan
iler de
iler ek
eÃ§ lenme
Ġet ik
ev re
ĠbaÅŁ ladÄ±ÄŁÄ±
Ġgel indi
ĠaÃ§Ä±k lanan
ez i
lik te
uk ur
uy an
ĠgÃ¶ k
Ġver ileri
ĠO yalama
ta gon
Ġ3 4
Ġbulun arak
Ġbulun uyor
edi ÄŁi
Ġay Ä±na
ĠgÃ¼n e
ĠÃ§Ä±k Ä±ÅŁÄ±
ĠR os
ĠR ektÃ¶r
let iÅŁim
ĠyaÅŁ Ä±yor
ĠÃĸ ÄŁretim
ĠÃĸ dÃ¼lÃ¼
Ġbel gesi
Ġan larÄ±
Ġr ad
Ġr ez
Ġr Ã¼t
Ġr ed
op i
Åŀ anlÄ±urfa
Åŀ Ä°D
Ġger Ã§e
man lÄ±k
ĠgeÃ§ iÅŁ
ĠgeÃ§ erli
laÅŁ ma
os u
ĠÃĩ ar
ĠÃĩ ok
Ã¼ÅŁ vet
Ġbin asÄ±nda
eli dir
ilm esini
ĠL ev
ĠsÃ¼r erken
ĠiÅŁ e
ĠEr soy
Ġyer de
ĠN ev
ans iyon
Ġmil li
Ġkay gÄ±
Ġin s
Ġin an
Ġdi ÅŁ
Ġor an
Ġkal eme
ĠaÃ§Ä±klam alarÄ±
ĠaÃ§Ä±klam ayla
der s
ece ÄŁine
Ġel eb
ĠÅŀ ehir
ĠÅŀ anlÄ±urfa
Ġkur ulan
ĠV e
Ġ6 1
Ġuy um
ark Ä±cÄ±
ĠÃ¼zer ini
alan dÄ±r
ale fet
ĠyÃ¶n tem
ne ÄŁe
Ġkap as
Ġis yan
Ġis mi
ĠEk onom
rak tÃ¶r
Ġyak Ä±t
Ġyak aladÄ±
eb ral
Ġetti ÄŁini
eti c
Ġhaf Ä±z
alÄ± ÄŁÄ±
Ġkat il
Ġkat egor
Ġ7 5
Ġ7 50
Ġhaber ler
ĠkiÅŁi den
Ġpro blem
Ġhakk Ä±ndan
Ġat an
Ġiddi alarÄ±
Ġiddi alarÄ±na
ĠAl p
ĠAl Ã§Ä±
ĠI ÅŀÄ°D
mek tedir
Ġot ob
Ġot urdu
ĠbÃ¶lg eye
ĠbÃ¶lg elerine
Ġyol dan
Ġ10 3
Ġoperasyon la
Ġoperasyon unda
ĠAr in
Ġtes isi
ĠBel gesi
ĠJ uncker
Ġak Ä±l
ĠKur um
ĠÃ§ek ildi
met ti
ĠmaÃ§ Ä±
Ġser g
ĠSur iyeli
Ġl astik
Ġtak s
iyat ro
Ġifade leri
Ġifade sini
ĠBir leÅŁmiÅŁ
ri ÄŁe
ĠhazÄ±r lanÄ±yor
ĠsÃ¶yle yen
Ġkaz ada
Ġkaz anan
Ġkendi miz
ĠsaÄŁ lanan
ĠsaÄŁ lÄ±ÄŁÄ±nÄ±
Ġek lendi
Ġek onomi
Ġek sik
Ġdo lara
ĠÃ¶ldÃ¼r dÃ¼
raf il
Ġkaybet tik
ĠkadÄ±n larÄ±n
ĠkadÄ±n lara
ank aya
ĠgÃ¶rÃ¼ÅŁ meler
ĠgÃ¶rÃ¼ÅŁ menin
Ġtarih inde
Ġtarih lerinde
ĠAy r
Ġad Ä±nÄ±
ĠBaÅŁkan larÄ±
Ġik ram
Ġkarar Ä±nÄ±
Ġkarar lÄ±yÄ±z
ĠgÃ¶rev i
ĠgÃ¶rev den
ĠOr tay
ĠOr general
Ä±mÄ± yla
ĠdÄ±ÅŁ arÄ±
Ġolay Ä±n
Ġolay larÄ±
Ġkim i
Ġder ledi
ĠÃ¼y elerinin
ĠyaptÄ± ÄŁÄ±nÄ±
ĠÃ§alÄ±ÅŁmalar a
ĠÃ§alÄ±ÅŁmalar Ä±nÄ±
ĠÃ§alÄ±ÅŁmalar Ä±na
ÄŁimiz i
Ġtem el
Ġdol aÅŁ
Ġada mÄ±
Ġsan iye
Ġam b
ĠhÃ¼kÃ¼m eti
Ġarac a
ĠuÃ§ uÅŁ
Ġiz ley
Ġiz lemeye
ĠSer g
Ġkes ildi
ĠÃ§Ä±kar Ä±ldÄ±ÄŁÄ±
Ġfark Ä±nda
ĠÄ°s rail
ĠÄ°s mail
ĠÄ°s rafil
ĠSan at
ĠÅŁek er
ĠdÃ¶nem ine
Ġgit tiÄŁi
Ġail eler
Ġail ede
Ġail eyiz
ĠÃ¶nc eliÄŁine
ĠtoplantÄ± sÄ±
Ġasker in
Ġav ro
ĠvatandaÅŁ larÄ±ndan
ĠMar s
ĠgeliÅŁ meler
ĠEm re
ĠtakÄ±m Ä±nÄ±
Ġtamam landÄ±
Ġko alisyon
ĠÄ°st atistik
ĠÄ°st iklal
Ġbab alar
Ġbab asÄ±nÄ±
ĠsÄ±k Ä±ntÄ±
alim anÄ±
Ġsen ary
Ġisim ler
ĠMahkem e
Ġbur ada
Ġkend ine
tif lere
Ġtoplam da
ĠKan un
Ġ12 5
ĠPo st
Ġsun du
Ġsun duÄŁu
ĠGazet esi
ĠbÃ¶lÃ¼m Ã¼nÃ¼n
any ahu
Ġtur da
ĠyardÄ±m cÄ±
ĠgerekÃ§ esi
Ġj inek
Ġkor kut
ĠkÄ±z larÄ±
Ġkamp Ä±nda
Ġhizmet e
Ġistis mara
Ġistedi ÄŁi
ĠÅŀampiyon asÄ±
ĠsÄ±nÄ±f ta
Ġci haz
bet te
Ġkoy du
Ã¼lÃ¼ ÄŁ
Ġanlat tÄ±
Ġuyar dÄ±
ĠJo a
ĠulaÅŁ tÄ±
ens kiy
ĠoÄŁ lunu
ĠÃ¶lÃ¼m Ã¼ne
ĠGÃ¶ st
ĠUz un
ĠeylÃ¼l de
ĠyÃ¼ksel di
Ġprotesto lar
ĠyÃ¶netim i
ĠÄ°lk imen
Ġotomob ile
Ġsez onu
ĠSel Ã§uk
Ġuygulam asÄ±
Ġdok uz
ĠGeÃ§ en
ĠGeÃ§ idi
ĠGeÃ§ tiÄŁimiz
ĠsÃ¼rÃ¼ cÃ¼s
ĠmÃ¼dÃ¼r lÃ¼ÄŁÃ¼
ĠkatÄ±l Ä±m
Ġteklif i
Ġkendis ini
eter lilik
Ġtas ar
Ġtalim at
ĠBank sy
ĠGÃ¶k han
Ä±mÄ±z Ä±
ĠduruÅŁ masÄ±
oloj ik
Ġmesaj Ä±
abilir siniz
Al manya
ĠyÄ±k Ä±m
ĠKay seri
ĠMer cedes
ĠEÅŁ eysiz
ĠHav alimanÄ±
ĠfÄ±r tÄ±na
Ġgeril edi
Ġelekt riÄŁe
ĠmÃ¼h endis
Ġrisk li
ĠtÃ¼r lÃ¼
ĠmÃ¼z aker
ĠMes ut
ĠkardeÅŁ ler
ĠotobÃ¼s Ã¼nde
Ġlir aya
Ġlir alÄ±k
Ġistismar da
Ġdem okrasi
ĠÅŁart lÄ±
Ġsoru larÄ±nÄ±
liy esi
Ġsar s
Ġalacak larÄ±
Ġetm ekten
eceÄŁ im
Ġhalinde yken
Ġavukat lÄ±k
Ġkav ga
Ġdin leyen
ĠSev ilen
ĠDi ÄŁer
ĠdÃ¶nÃ¼m Ã¼
ĠdÃ¶nÃ¼m Ã¼nde
Ġiht im
ĠsatÄ±ÅŁ a
Ġgem isi
Ġgecik me
ĠtaÅŁ Ä±n
Ġism inin
Ġseviy esinin
Ġbar Ä±ÅŁ
ĠSal dÄ±r
ĠaÅŁam asÄ±nÄ±n
Par is
Ġob jek
Ġmez ar
ĠbaÅŁar Ä±lÄ±
Ġaktar dÄ±
ĠBilim leri
ĠOtomotiv de
ĠKredi si
ĠÃ¼cret li
Ġsak in
ayÄ±s al
Ġter ci
Ġtaban ca
Ġadet le
Ġrahat sÄ±z
Ġdurdur ulan
ĠUy sal
Ġsermay e
Ġyetkil ileri
AS A
Pen Ã§e
Ġsin em
ĠhÃ¼k metti
Ġdal g
Ä°s rail
Ġfor ma
Ġedilmek te
Ġyetk ili
Ġkoordin eli
don ezya
ĠDÃ¶n mez
ĠYor k
ĠaÃ§Ä±lmasÄ± yla
ĠÅŁar tÄ±
Ġtarif i
Ġkadros una
Ġkayy um
ĠdÃ¼ÅŁÃ¼nÃ¼ yorum
Ġbelediy eye
Ġtasla ÄŁÄ±
sev er
Ġle z
ĠMÃ¼z esi
ĠÃľr etime
ĠyapÄ±landÄ±r ma
Ġhatt Ä±nda
Ġihtiy aÃ§
ĠAÃ§Ä±k lam
Ġdokunul mazlÄ±k
Su udi
ĠbaÄŁÄ± m
ĠbiÃ§ im
ĠkÄ±l Ä±nan
Ġkuvvet li
Ġdos y
Ġmahal le
ĠKamp anyasÄ±
ĠKÃ¼Ã§Ã¼k Ã§ekmece
ĠPek can
ceÄŁ iz
Ġzat en
ĠiÅŁg al
ĠNet anyahu
ĠBÃ¶yle ce
ĠteÅŁkil at
Ġnokta da
Gazet eci
ĠToyo ta
Ġayn Ä±sÄ±nÄ±
Åŀampiyon lar
Ġdiyal og
ĠkoÅŁ ul
ĠanlaÅŁmazlÄ±k lar
ĠaÄŁab eyi
Ġmensup larÄ±nÄ±n
ĠgÃ¼rÃ¼lt Ã¼lÃ¼
Cla ude
Hat ay
Kay seri
KÄ±lÄ±Ã§ daroÄŁlu
Sa adet
dÃ¶n Ã¼m
klar eli
ĠtÃ¼f ek
ĠvarÄ± yorum
ĠTaÅŁÄ± t
ĠSeza i
ĠMah mut
ĠMosk ova
Ġolmuyor sa
Ġplas tik
ĠHid algo
ĠHekim liÄŁi
ĠPast avilla
ĠrÃ¼t b
Ġeleb aÅŁÄ±
ĠOrtay lÄ±
Ġobjek tiflere
1 2
1 5
4 4
8 3
A y
A FAD
B ak
B ank
C u
C errahpaÅŁa
D A
D V
D en
D em
D evlet
E M
E ge
E ner
E dirne
F et
G Ã¼venli
H er
H aber
K am
K Ä°
K Ä±r
K Ã¼ltÃ¼r
L KP
M A
M Ä°T
N ew
O k
S Ä°
S osyal
T V
T erÃ¶r
U V
U lu
Y D
Y al
Y Ä±l
b at
d un
g az
g esinde
g eli
g ari
g Ã¶l
k al
k si
k oÃ§
l d
l Ä±nda
l ili
l ob
m Ä±nÄ±
n uz
n ca
o eller
p ut
r as
r om
s us
s App
t o
t ul
t ey
t ah
t aÃ§
t uÄŁr
u el
v in
y ap
y urt
y Ä±ldÄ±z
z a
Ġ Ä±ÅŁ
Ġ Ä±s
Ġ asÄ±l
an d
an lar
an jit
Ã¼ ler
Ã¼ cÃ¼
ar lar
ar rem
ar Ä±ndaki
er n
ÅŁ Ä±k
en c
en iÅŁ
ÄŁ um
Ã§ u
Ã§ ilik
Ã§ Ä±lÄ±k
Ã§ eÅŁme
Ġb ay
Ġb eri
Ġb eton
al el
al tÄ±
al Ä±m
Ġy at
Ġy uk
Ġk en
Ġk ey
Ġk ah
Ġk Ä±ÅŁ
Ġk us
Ġk up
Ġk Ã¼f
Ġk uÅŁak
de v
Ġs iz
Ġs Ä±z
Ġs unu
Ġs oy
Ġs end
Ġs ilin
Ġs iyan
Ġs trat
Ġg iÅŁ
Ġg Ã¼z
el ebek
et iyle
ay acak
lar sa
Ġt ed
Ġt anÄ±k
Ġt iyatro
Ġo bÃ¼s
dÄ± k
es iz
iy esi
iy ad
un ch
Ġi b
Ġv at
Ġv az
Ġv ah
at or
ĠB B
ĠB at
ĠB it
ĠB unda
am ak
Ġh ep
Ġh ukuk
Ä±l maz
Ä±l masÄ±nÄ±
ler indeki
ĠA c
ĠA m
ĠA dÄ±
ĠA cil
Ġd ini
or ta
or gi
or ld
Ġm us
Ġm eme
Ġm aruz
Ã¼r t
Ã¼r lÃ¼ÄŁ
em iyor
Ã¼n kÃ¼
Ã¼n gesinde
ĠK Ä±s
ĠK aÃ§ak
ĠK elebek
ĠK Ã¼rt
ĠT O
ĠT an
ĠT Ãľ
ĠT uc
ĠT ug
ĠT weet
ĠÃ§ Ã¶
ĠÃ§ ey
ĠÃ§ oÄŁ
ĠS t
ĠS en
ĠS ay
ĠS Ã¼t
ĠS alÄ±
ĠS ucu
ĠS tar
ĠS ch
ĠS ivil
ĠS eÃ§im
ĠS ayÄ±sal
ĠS put
ik an
ik at
ik ast
ĠM or
ĠM ez
ĠM Ã¼s
ĠM eg
ĠM ersin
ĠM ayÄ±s
ĠM etro
ĠM emur
ĠM LKP
le ye
Ġde k
Ġde fa
Ġol sa
Ġol abil
Ġol abileceÄŁini
Ġol masÄ±ndan
Ġa fet
ey n
ey erek
ÄŁÄ± z
iÅŁ ik
ĠÄ° b
anÄ± r
ti ÄŁinde
az in
ĠD ik
ĠD om
ĠD air
ĠE nde
ĠE uro
is ar
is esi
is inden
Ã¼z gar
Ġp r
Ġp eyn
ab ilmesi
ĠÃ¶ den
ĠÃ¶ yle
ĠÃ¶ dem
ĠG Ã¼l
ĠG ot
ĠH an
ĠH ukuk
ĠH ong
ĠH aziran
aÅŁk Ä±n
ah ar
Ġyap maya
Ġyap Ä±lmasÄ±
ĠP akistan
Ġar ayan
Ġar asÄ±na
Ġar tar
Ġar alÄ±k
Ġal ev
Ġ2 50
lan o
lan dÄ±ÄŁÄ±
lan masÄ±
ĠY as
ĠY aya
ĠY eÅŁil
ĠY EP
ĠY aman
Ġf ak
Ġf ez
Ġf laÅŁ
Ġf akat
lu ÄŁun
ĠiÃ§ ir
ĠiÃ§ me
ĠF in
ĠF il
ĠF ec
ĠF otoÄŁraf
ĠF onu
ok ulu
ĠÅŁ er
ĠÅŁ eyi
Ġda ÄŁ
Ġda ÄŁÄ±
Ġda yan
alar ak
ĠgÃ¶r dÃ¼
Ġn es
Ġn um
Ġn Ã¶beti
Ġn ormal
Ġn Ã¶bet
yon larca
aÄŁ lar
aÄŁ Ä±na
len iyor
ev ize
yor uz
Ġkar Ä±n
Ġkar ara
ec r
ĠyÄ±l lar
ĠyÄ±l dÃ¶nÃ¼m
ĠbaÅŁ rol
Ġgel eceÄŁi
uk u
Ġed in
Ġed ilerek
ĠÃ¶n de
ĠgÃ¶ be
Ġver ilmesi
Ġ' '
Ġyar Ä±m
Ġyar dÄ±mc
ĠO per
ro y
Ġ3 50
Ġ3 31
Ġay ar
Ġay akta
Ġay kÄ±r
Ġ5 5
ĠÃ§Ä±k Ä±ÅŁ
ĠÃ§Ä±k masÄ±
Ġz eb
Ġz inc
ĠR um
ĠR apor
ĠR amaz
ĠR eform
ĠyaÅŁ Ä±
ĠyaÅŁ an
ĠyaÅŁ anÄ±yor
ĠyaÅŁ andÄ±ÄŁÄ±
eki stan
ĠÃĸ te
ĠÃĸ ykÃ¼
Ġan ma
Ġr ol
Ġr efer
Ġr evize
op o
Åŀ arkÄ±cÄ±
man n
ĠgeÃ§ meye
ĠgeÃ§ id
ĠÃĩ eÅŁme
ĠÃĩ ukur
ĠÃĩ ankaya
Ġen geli
Ġbin alarÄ±
Ġkon um
Ġkon ser
Ġkon tey
ilm e
ilm eye
ĠL e
ĠL unch
ĠL isesi
ĠsÃ¼r Ã¼k
ĠsÃ¼r ecek
ĠsÃ¼r Ã¼ldÃ¼
ĠÃ§alÄ±ÅŁ masÄ±
ĠÃ§alÄ±ÅŁ tÄ±r
ĠÃ§alÄ±ÅŁ Ä±yor
ĠEr ba
ĠEr meni
Ġyer ini
Ġyer inin
Ġyer inden
Ġyer lerine
Ġyer leÅŁk
ĠN az
ĠN ijer
Ġist ihbarat
rem lin
Ġkay det
ĠPar k
Ġin sanÄ±
Ġbelir siz
Ġ4 6
Ġ4 9
Ġkal k
Ġkal sÄ±n
Ġkal binden
ĠaÃ§Ä±klam asÄ±na
ĠAn ne
ĠAn neleri
Ġel eman
Ġel bette
ĠÅŀ en
ĠÅŀ ent
ĠÅŀ Ã¼ph
Ġkur ma
Ġkur ban
ĠÃ¼z Ã¼m
Ġ6 3
Ġuy gu
Ġsor usu
Ġsor usunun
Ġdedi ÄŁi
Ġdev i
Ġtop lu
ĠyÃ¶n Ã¼nde
Ġdur durdu
ne dy
Ġkap alÄ±
Ġoy unu
Ġyak Ä±ndan
Ġyak laÅŁ
ĠAk taÅŁ
eb bÃ¼s
eb ilmek
ot or
ot ten
ĠHaber tÃ¼rk
ed inin
Ġgi de
ca o
Ġ201 3
Ġ201 5
Ġ7 4
Ġhaber e
ĠAv aÅŁin
Ġev inin
Ġev lilik
ĠBaÅŁk ent
imiz i
ĠÃľ Ã§
Ġyan i
Ġyan Ä±na
Ġhay al
ĠgÃ¶st eri
Ġhas ta
Ġpo z
Ġat tÄ±ÄŁÄ±
Ġat layarak
ĠAl man
ĠgÃ¶ster ilerin
ĠgÃ¶ster isine
ĠI I
ĠI ÅŁÄ±k
Ġes as
ĠMil yonlarca
Ġsah tek
ĠbÃ¶lg enin
ĠbÃ¶lg elere
ĠMÃ¼ steÅŁ
Ġyol unda
Ġyol culu
Ġmilyon a
ĠAr navut
re den
Ġtes ti
ĠdÃ¼ÅŁ Ã¼ÅŁ
Ġak tiv
Ġgetir di
ĠsaldÄ±r Ä±sÄ±na
Ġyay gÄ±n
ĠÃ¶r nek
Ġedildi ÄŁini
leÅŁ en
ĠÄ°n ce
Ġzam anlÄ±
Ġzam anda
Ġzam mÄ±
ĠZ ap
ĠZ eki
ĠZ Ä±rhlÄ±
ĠZ ikar
Ġhav acÄ±lÄ±k
Ġyaz Ä±mÄ±
Ġyaz Ä±sÄ±nda
Ġgeldi ÄŁini
ĠhazÄ±r lÄ±ÄŁÄ±
ĠhazÄ±r ladÄ±ÄŁÄ±
Ġih bar
Ġ8 4
Ġ8 00
Ġuz ay
Ġdurum da
Ġdurum unda
ĠÃ¼lk em
ĠW orld
ĠKon feransÄ±
raf ikte
Ġsay gÄ±
Ġsay Ä±sÄ±nÄ±
olo g
lay acak
ĠkadÄ±n larda
ĠsÃ¶z leri
ĠsÃ¶z cÃ¼sÃ¼
Ġmed yaya
ĠgÃ¶rÃ¼ÅŁ mesine
20 20
liÄŁ indeki
ran ma
ĠAy nÄ±
ĠAy ÅŁe
ĠTÃ¼rk Ã§e
Ġok ulu
Ġhal a
ĠOr gan
ĠOr tad
iÃ§ re
Ġsat Ä±ÅŁÄ±
Ġsev gil
Ġer di
Ġkim s
Ġkim liÄŁini
Ġder in
Ġder neÄŁe
Ġkullan Ä±ldÄ±
Ġkullan Ä±ldÄ±ÄŁÄ±
ĠÃ¼y e
Ġyok tu
Ġtem alÄ±
Ġdol u
Ġdol dur
ĠPro j
Ġden etim
ĠÃ§arp Ä±yordu
Ġfiyat Ä±nÄ±
ĠgeÃ§ir en
ĠgeÃ§ir ilen
Ġbak maz
Ġada m
Ġmer m
ĠyÃ¼r Ã¼rlÃ¼ÄŁ
lanÄ± rken
ret tin
ĠgeÃ§ti ÄŁi
ĠyayÄ±n lan
ĠÃ¶nemli dir
ĠSer best
Ġyarg Ä±
ĠtartÄ±ÅŁ tÄ±ÄŁÄ±
Ġkes eriz
lendi ÄŁini
ĠÃ§Ä±kar Ä±lan
Ġuygul anan
Ġyet iÅŁ
ĠÄ°s lam
ĠboÅŁ an
Ġkil it
ĠÃ§ocuk larÄ±mÄ±z
ĠkonuÅŁ masÄ±
ĠkonuÅŁ mada
oz gat
ÅŁam ba
Ġbilg iye
Ġbilg isayar
uc uz
ĠHak k
ĠkaldÄ±r Ä±ldÄ±ÄŁÄ±
ĠtoplantÄ± sÄ±na
ĠgerÃ§ekleÅŁtir en
ĠgerÃ§ekleÅŁtir ilecek
ciler inden
Ä±p ranma
Ġav antaj
ĠÅŁÃ¼pheli den
ust in
ust ur
ĠvatandaÅŁ larÄ±n
ĠMar din
Ġdestek li
ĠbÄ±rak tÄ±
erb er
ĠkÄ±r Ä±
ĠkÄ±r Ä±k
Ġmuh af
Ġmuh bir
ĠyapÄ±l Ä±r
Ġokul un
Ġbab a
Ġbab asÄ±nÄ±n
Ġsey r
Ġsey reden
ĠTur an
Ġboy u
Ġsen atÃ¶r
ĠaraÅŁtÄ±r Ä±lÄ±yor
Ġede ceÄŁini
ag ehan
ag azin
Ġkuzey doÄŁ
ĠgÃ¼ndem de
ĠgÃ¼ndem ine
Ġproj esi
ĠaÅŁ aÄŁÄ±
ĠsÄ± Ã§
Ġtel evizyon
Ġprogram Ä±nda
ĠgerÃ§ekleÅŁ ecek
ĠVal isine
Ġkapat Ä±lan
ĠgiriÅŁ imi
Ġtur ist
ĠdeÄŁiÅŁik liÄŁi
Ġj Ã¼r
Ġkor un
ĠyÃ¼rÃ¼t en
ĠyatÄ±rÄ±m cÄ±
ĠyansÄ± yan
ĠkÄ±z Ä±
Ġkamp anyasÄ±
Ġmak ale
ĠTar sus
eyin ce
anÄ±ÅŁ ma
ĠyayÄ±m ladÄ±
Ġanlat an
Ġanlat Ä±yor
Ġinsan lÄ±k
Ġyen isi
ĠteÅŁ ebbÃ¼s
Ġfutbol cusu
ĠiÅŁlem i
ĠUz manlar
ĠyanÄ±t ladÄ±
rah im
ĠSaÄŁ lÄ±ÄŁÄ±
ĠDoÄŁ an
Ġpu anÄ±
Ġyaralan an
ĠÃ¼Ã§ Ã¼ncÃ¼
okrat ik
ĠsektÃ¶r Ã¼mÃ¼ze
Ġtaki bi
ĠSel im
Ġart arak
ĠdeÄŁiÅŁtir ilmesi
ĠgÃ¼zel lik
Ġdok tor
Ġmad di
ĠEl ektrik
landÄ±r dÄ±ÄŁÄ±
omb iya
Ġrapor unda
Ġfir malar
Ä±mÄ±z da
tep e
Ġdiz isi
Ġkurum sal
ĠduruÅŁ maya
Ġhast asÄ±na
Ġikti d
ĠpaylaÅŁÄ±m Ä±ndan
Ġtehlik esi
Ġtehlik eye
Ġmev ki
Ġmev cut
ĠKÄ± dem
ĠKÄ±r Ä±m
ĠKÄ±r aÃ§
ĠMer lano
Ġpiyas alar
ĠfÄ±r sat
ĠyarÄ±ÅŁ masÄ±
ĠsÃ¼re dir
Ġpersonel ini
ĠÃ§aÄŁr Ä±sÄ±nda
of f
ĠmÃ¼z ik
ĠMuh am
Ġedilm iÅŁ
ĠÃ¶ÄŁrenciler inin
Ġimz aladÄ±
Ġ0 7
ĠuÄŁr adÄ±
ĠuÄŁr adÄ±ÄŁÄ±
ĠbÃ¼tÃ¼n lÃ¼ÄŁÃ¼
ĠÃ§evr esinde
ĠSim eri
Ġbirin cilerinden
ĠkaÃ§Ä±r ma
ĠkaÃ§Ä±r Ä±ldÄ±ÄŁÄ±nÄ±
ĠbaÅŁvur usu
ĠbaÅŁvur abilmek
Ġharekat Ä±nda
Ġharekat larÄ±yla
Ġsab it
Ġpak eti
ĠHay at
ĠsÃ¼rec in
ĠsÃ¼rec inin
ĠsuÃ§lam alarÄ±nÄ±
Ġsevk iyatÄ±
ĠHastan eye
Ġincelem eler
Ġkav g
Ġolum lu
Ġner eye
Ġyarat tÄ±
ĠÅŁÃ¼phel isi
bey r
bey li
medi ÄŁini
ĠBal cÄ±
ĠBal ina
ĠGÃ¶r Ã¼ÅŁ
ĠPen sil
Ġfin al
ĠÃ¼ret ilen
ĠÃ¼rÃ¼n leri
ĠÅŁekl indeki
ĠsÃ¶ylem iÅŁ
Ġiktidar Ä±n
En flasyon
tem oeller
ĠHar ry
ĠPer vin
Ġnit eli
Ġnit elendir
Ġsorgul ama
Ġekib ine
Ġtaleb iyle
ĠÅŁiddet li
Par alel
ĠkÄ± yÄ±
Ġspor cu
Ġmez arlÄ±k
ĠyÄ±ldÄ±z dan
ĠkiÅŁiler de
ĠkiÅŁiler ce
ĠNur i
Ġkurt ul
ron ik
ug h
ĠbÃ¼y Ã¼me
Ġbaraj Ä±nÄ±n
Ġtaban c
Ġcezaev ine
Ġtazmin at
Ek onomi
Pen tagon
Ġplatform u
Ġfay d
ĠCh rist
Ġyaral Ä±nÄ±n
Ġyaral ayan
Ġuygulan masÄ±na
ĠkomÅŁ u
ĠSekreter inden
Bey oÄŁlu
Ġbah s
Ġsel fi
ĠhatÄ±r lat
Ġpan ik
ĠÅŁampiyon u
ĠRuh ani
ĠkaldÄ±rÄ±ldÄ± ÄŁÄ±na
Ġbank a
Ġblok e
Ġtav uk
ĠBas el
ĠAda m
ĠÃ§ap Ä±nda
laz iz
ĠÄ°li ÅŁk
ĠGi orgi
ĠYurt lar
Ġduydu ÄŁunuz
ĠMÃ¼dÃ¼rlÃ¼ÄŁ Ã¼n
hat sApp
Ã¼st e
Ġtic ari
Ġtrans fer
ĠAmer ika
Ġmek an
Ġmask eli
ĠKen nedy
ĠaÄŁr Ä±sÄ±
ĠÄ°dar esi
ĠDin ner
ĠYak laÅŁÄ±k
ĠFeder asyon
ĠCin ayet
ĠgÃ¶m Ã¼l
ĠJap onya
ĠsaldÄ±rg anÄ±n
ĠTemsil cisi
ĠÄ°sv iÃ§re
Ġzorun luluÄŁu
ĠBayram paÅŁa
ĠBaÅŁsavcÄ±lÄ± ÄŁÄ±nca
ĠÃ¶zgÃ¼rlÃ¼ÄŁ Ã¼nÃ¼n
Ġfinans man
ĠdÃ¶v iz
ĠsÄ±ÄŁÄ±nma cÄ±
ON DA
ĠyÃ¶r Ã¼ngesinde
asapor t
Ġtim s
ester ol
Ġidar i
ĠAlan ya
ĠmÃ¼l akat
ĠKir eÃ§lenme
ĠKap alÄ±
ĠTeÅŁ kil
ĠMac ron
ĠHazÄ±r lÄ±klarÄ±mÄ±zÄ±
ĠFah rettin
ĠErk ek
ĠNob el
alef etin
ĠÃĸzb ekistan
ĠAyv acÄ±k
tren Ã¶r
ĠÃĸnc elik
Ġmuhal if
ĠGÃ¼ngÃ¶r mÃ¼ÅŁ
Ġhissed ildi
ĠsloganÄ± yla
Ġhavaliman Ä±na
Ey lÃ¼l
tak Ä±m
amayÄ±n ca
ĠhÃ¼c re
ĠTH Y
ĠDay anÄ±ÅŁma
ĠeÄŁ len
ĠGerek tiÄŁinde
Ġfiz ik
Ġetik et
ĠRos e
ĠÃĩar ÅŁamba
ĠLev ent
ĠNev in
ĠAyr Ä±ntÄ±lar
Ġizley ic
ĠSerg ey
Ġjinek olog
Ġkorkut an
Ġterci h
Ġlez zet
ĠAÃ§Ä±klam ada
ĠbiÃ§im de
Bak an
Ener ji
lob al
tuÄŁr ul
ĠkÃ¼f Ã¼r
Ġsend rom
Ġsiyan Ã¼r
Ġvaz geÃ§
Ġvah ÅŁ
ĠKaÃ§ak Ã§Ä±lÄ±k
ĠTug ay
ĠSput nik
ĠEnde ksi
ĠGot temoeller
Ġartar ken
Ġfez lek
ĠFec ri
ĠgÃ¶be ÄŁimizi
ĠaykÄ±r Ä±
ĠRamaz an
Ġrefer ans
ĠgeÃ§id inde
Ġkontey ner
Ġuygu larsa
otten ham
ĠMÃ¼steÅŁ ar
ĠOrgan ize
ĠOrtad oÄŁu
ĠyÃ¼rÃ¼rlÃ¼ÄŁ e
2 1
2 7
6 7
7 3
A t
A fet
B A
D T
D ec
E K
E N
E l
F rans
H en
H akk
I F
K Ä±
K ol
K ad
K aÄŁÄ±thane
M al
M ark
M agazin
N ATO
O B
O D
O X
P ro
S an
S aÄŁ
S amsun
S iper
T SK
V an
V atandaÅŁ
Y Ã¼ksek
a il
a we
b en
b ez
c Ä±nÄ±n
c ra
d s
d rum
d osk
e i
e ji
f one
g Ã¼zel
h o
h mer
i er
i da
k a
k el
k es
k ele
l eki
l os
l iyet
l ilerin
l uluk
m al
m Ä±yor
m ama
m Ã¼yor
m emesi
n Ã¼
n am
n ec
o j
o lar
o ter
p et
p ik
p rem
p lin
r esi
r it
r elik
r anÄ±n
s k
s ar
s ine
s Ä±ndaki
s iyet
s iyon
s kÃ¼
s ultan
s ilahlÄ±
t tÄ±
t ta
u e
u awe
v anÄ±n
y aÅŁ
y se
z an
Ġ ir
Ġ ro
Ġ ucuz
ar d
ar ken
ar Ä±sÄ±
ar ip
ar eti
er atif
in asyon
ÅŁ an
ÅŁ en
ÅŁ embe
en or
il ya
il eli
il eceÄŁi
il leme
il ebilir
ÄŁ in
ÄŁ inin
ÄŁ uz
ÄŁ Ä±ndaki
ÄŁ iniz
Ã§ is
Ã§ ileri
Ã§ ata
Ġb uz
Ġb om
Ġb alÄ±k
Ġb eden
Ġb alk
Ġb ahÃ§
Ġb ildiÄŁi
Ġb erber
al Ä±n
al aj
al cao
Ġy am
Ġy uvar
Ġk er
Ġk Ã¼r
Ġk um
Ġk ade
Ġk ep
Ġk oz
Ġk avuÅŁ
Ġk Ä±t
de siz
de prem
ak en
ak la
Ġs uy
ir lerin
ir dek
Ġg ay
Ġg az
Ġg iz
Ġg ec
Ġg rubu
Ġg Ä±da
Ġg lobal
da ma
el t
el iyat
el Ã§i
et ik
et teki
ay ri
ay acaÄŁÄ±nÄ±
as lan
as su
di m
di p
ek ili
ek sel
on unda
on nec
Ġt a
Ġt icaret
Ġt Ã¼tÃ¼n
Ġt anÄ±ÅŁ
Ġt weet
Ġt ansiyon
Ġt raktÃ¶r
Ġt enor
Ġo per
dÄ± man
es an
es ince
iy er
iy el
iy esinin
un Ã§
un uz
Ġi de
Ġi ÅŁtir
Ġi mar
Ġv ak
Ġv urdu
ĠB un
ĠB una
ĠB Ã¼tÃ¼n
ĠB ina
am onu
am eniÅŁ
Ġh Ä±r
Ġh ain
ur landÄ±
ur sal
ur uma
ler ken
ĠA j
ĠA z
ĠA ma
ĠA ki
ĠA Åŀ
ĠA ÄŁr
ĠA tal
ĠA ÅŁk
Ġd ak
Ġd ers
Ġd arp
or un
Ġm ir
Ġm ah
Ġm Ã¼k
Ġm Ã¼s
Ġm eclis
em iÅŁ
em enin
em eyince
Ã¼n Ã¼z
Ã¼n ih
Ã¼n cÃ¼sÃ¼
Ä° ÅŁ
Ä° talya
Ä° HA
st akil
ĠK u
ĠK af
ĠK Ã¼t
ĠK oc
ĠK uv
ĠK oz
ĠK Ã¼resel
ĠK aÄŁÄ±thane
ĠK DV
ĠK ONDA
ĠT am
ĠT us
ĠT Ä±p
ĠT ottenham
ĠÃ§ Ä±
ĠÃ§ ar
ĠÃ§ eki
ĠÃ§ oÄŁun
ĠÃ§ ant
ĠS il
ĠS am
ĠS ez
ĠS avaÅŁ
ĠS iyaset
ĠS ayÄ±n
ĠS tre
ĠS endik
ĠS ilahlÄ±
ĠS trat
ĠS amsun
ĠS quin
ĠS GK
ĠS abah
ĠS okak
ĠS UV
ĠS assu
ap ei
ĠM uz
ĠM ut
ĠM aÃ§
ĠM ali
ĠM Ä±sÄ±r
ĠM ike
ĠM amak
ĠM Ã¼nih
ĠM apei
le v
Ġde f
Ġde de
Ġde mek
Ġbir ey
Ġbir liÄŁi
im ya
Ġol mas
Ġol maya
Ġol up
Ġol mayacak
Ġa c
Ġa dÄ±ndan
ey ting
la f
Ã¶r eni
iÅŁ i
iÅŁ li
iÅŁ lerinden
tÄ± p
ĠÄ° kinci
ĠÄ° ÅŀKUR
ĠÄ° letiÅŁim
anÄ± t
ti ci
ti cut
az artesi
ĠD Ä±ÅŁ
ĠD av
ĠD aÄŁ
ĠD isi
ĠD iv
ĠD irektÃ¶r
ĠD idi
ĠD oÃ§
ĠD alam
ĠD uvar
inde y
ĠE ÄŁer
ĠE dirne
is e
Ġp eÅŁ
Ġp sik
Ġp enc
ab rika
ĠÃ¶ v
ĠÃ¶ tÃ¼r
Ġe z
ĠG er
ĠG Ã¼nde
ĠG IF
Ä±nÄ± r
Ä±nÄ± z
lÄ± ÄŁa
lÄ± ÄŁÄ±nÄ±n
ĠH ikay
ĠH isar
ĠH off
Ġyap Ä±m
Ġyap Ä±sÄ±
Ġyap acaÄŁÄ±nÄ±
ĠP M
ĠP ak
ĠP iyan
ĠP YD
Ġar d
Ġar z
Ġar Ä±yor
Ġal acaÄŁÄ±
Ġal may
Ġal amayÄ±nca
it ch
it elikli
oÄŁ uz
Ä±r lÄ±
ac a
ĠY a
ĠY ay
ĠY usu
ĠY ayÄ±n
ĠY eterlilik
Ġf el
ĠiÃ§ en
ĠF alcao
af fer
Ġson suz
Ġson landÄ±r
ĠaÃ§ an
ok er
ok ul
ĠC ook
ĠC errah
ĠÅŁ iÅŁ
Ġda y
iler le
iler inden
ĠgÃ¶r m
ĠgÃ¶r me
ĠgÃ¶r Ã¼ldÃ¼
Ġn ak
Ġn iÅŁ
Ġn iyet
Ġn isan
Ġn Ã¼kleer
Ġn etic
stan a
Ä±s Ä±z
ev e
ev inde
us unu
us undaki
yor sa
lÃ¼ man
ad desi
lam ent
lam asÄ±na
lam Ä±ÅŁtÄ±
Ġbul mak
Ġoldu klarÄ±nÄ±
ec iler
Ä±m Ä±n
Ġgel diÄŁi
ez ilya
lik ten
uk luÄŁu
Ġed ilirken
dÄ±r Ä±m
Ġver iyor
Ġver ilerini
Ġver mesinin
Ġyar Ä±
Ġyar Ä±ndan
Ġyar Ä±sÄ±nda
Ġyar Ä±sÄ±ndan
ĠO br
ĠO GS
ĠO bez
ĠO ÄŁuz
Ġbulun urken
Ġay Ä±ndan
Ġay Ä±nÄ±n
ĠgÃ¼n ler
ĠgÃ¼n dÃ¼r
lÄ±k lar
lÄ±k la
lÄ±k tan
Ġ5 3
Ġ5 8
ĠÃ§Ä±k tÄ±ÄŁÄ±
ĠÃ§Ä±k arÄ±
Ġz ih
Ġz ehir
ĠR ob
ĠR yan
ĠyaÅŁ Ä±nÄ±
ĠyaÅŁ adÄ±ÄŁÄ±
ĠÃĸ lÃ¼m
ĠÃĸ dÃ¼l
Ġan em
Ġr enk
Ġr Ã¼ÅŁvet
op oz
op eratif
Åŀ u
ĠkiÅŁ ilik
ĠgeÃ§ ici
ĠÃĩ ak
ĠÃĩ ek
ĠÃĩ apa
Ġen dÃ¼
Ġbin aya
Ġbin ada
Ã¼t ok
ilm edi
ilm esinin
eh it
ĠL os
te ÅŁ
ĠdÃ¼z ey
Ġ20 30
ĠiÅŁ i
ĠÃ§alÄ±ÅŁ masÄ±yla
ĠÃ§alÄ±ÅŁ tÄ±ÄŁÄ±nÄ±
ĠEr gen
ĠEr taÅŁ
ĠEr tuÄŁrul
Ġyer e
ĠN ec
ĠN ASA
ĠN agehan
Ã¼s Ã¼nÃ¼
eÅŁ et
Ġkad Ä±nÄ±
Ġist er
Ġolan lar
ĠyÃ¼z Ã¼ne
Ġkay dÄ±
Ġin di
Ġin faz
Ġbelir ledi
Ġbelir lemek
ĠÄ°stanbul lu
Ġkal Ä±p
ĠaÃ§Ä±klam alara
Ġbil im
ĠilÃ§ e
ĠAn gel
lem elerden
ĠÅŀ am
ĠÅŀ imdi
ĠÅŀ iÅŁli
Ġkur mak
Ġkur alÄ±
ĠV arlÄ±k
ĠV oda
ĠkarÅŁ Ä±lan
Ġ6 50
Ġsor du
Ġsor unu
Ġsor dum
Ġbulundu klarÄ±
Ġtaraf tar
Ġtop ladÄ±
aÄŁÄ± r
ĠyÃ¶n de
ĠyÃ¶n etmen
endi ÄŁi
ne gÃ¶l
Ġkap Ä±larÄ±
Ġoy unun
ekt aÅŁ
lÃ¼ÄŁ Ã¼ne
Ġis hal
rak lÄ±
ĠU ÄŁ
ers iz
ĠAk Ã§ak
ĠAk adem
malar Ä±nÄ±n
ĠmÃ¼ stakil
ĠiliÅŁ ki
oy u
Ġkat lÄ±
Ġkat Ä±ndaki
Ġ7 1
Ġ7 00
Ġhaber lerini
ĠAv ukat
Ġev e
Ġev lat
Ġev lere
imiz e
imiz in
imiz de
ĠÃľ skÃ¼
Ġyan kÄ±
Ġetk iliyor
ĠgÃ¼ c
Ġtut tu
Ġtut arÄ±ndaki
ĠalÄ±n dÄ±ÄŁÄ±
ĠalÄ±n masÄ±
Ġhakk Ä±
ĠAl lah
ĠgÃ¶ster iyor
ĠgÃ¶ster diÄŁi
ĠgÃ¶ster iyi
Ġsal g
Ġsal gÄ±n
ayÄ± p
Ġsah n
alt Ä±ndan
Ġkayb ol
ĠbÃ¶lg eden
ĠbÃ¶lg elerinde
Ġ9 5
etir se
ĠdÃ¶n Ã¼ÅŁtÃ¼
Ġyol u
Ġyol la
ĠÃ¶ÄŁren ilen
ĠÃĸz il
ĠÃĸz pet
Ġoperasyon larÄ±
Ġalan Ä±nda
Ġalan larÄ±
ĠdÃ¼n y
ĠdÃ¼ÅŁ Ã¼k
ĠdÃ¼ÅŁ man
ĠdÃ¼ÅŁ manÄ±
ĠbÃ¼yÃ¼k elÃ§
ĠJ on
Ã¼p sultan
Ġgerek ir
Ġgerek Ã§e
Ġak Ä±mÄ±
ĠLi ce
Ġgetir me
ĠsaldÄ±r dÄ±
Ġyay Ä±nda
ĠÃ¶r Ã¼m
ĠÃ§ek im
ĠÃ§ek iyor
ĠÃ§ek irdek
if f
ĠmaÃ§ Ä±nÄ±n
ĠÄ°n faz
ĠZ inc
ĠZ ileli
iv as
art Ä±n
Ġser t
Ġser gil
ĠseÃ§ ilmek
Ġhayat a
Ġhayat Ä±na
ic ili
Ġort alama
Ġpolis lerin
Ġyaz an
Ġyaz dÄ±ÄŁÄ±
Ġtak Ä±lanlar
maz sa
maz lÄ±ÄŁÄ±
Ġdakika da
ob il
ĠBir isi
ri ot
ĠhazÄ±r lÄ±klarÄ±
Ġaz alarak
Ġalt Ä±nÄ±
ĠsÃ¶yle y
Ġ8 5
Ġuz manÄ±
ĠÃ¶z et
Ġek r
Ġdav eti
Ġbelirt iliyor
Ġdurum un
ĠÃ¶rgÃ¼t Ã¼n
ĠÃ¶rgÃ¼t lerine
ĠÃ¼lk esi
ĠÃ¼lk eye
ĠÃ¼lk elerinin
Ġpar aÅŁ
ĠÃ¶ldÃ¼r meye
ĠÃ¶ldÃ¼r dÃ¼m
ĠW al
ĠW hatsApp
Ġli mon
ĠÃ¼r etirse
Ġsay Ä±m
Ġekip lerinden
ĠÄ°l ber
Ġtarih li
ran t
Ãĸ z
ĠAy han
Ġad res
ĠdeÄŁiÅŁ im
Ġik iye
Ġbo drum
ĠkÃ¶ ÅŁ
Ġok uyan
ĠOr du
ĠOr man
ov ic
ĠgÃ¼ven liÄŁini
bar dÄ±man
Ġgazet esinin
Ġsat an
ĠKom ite
ĠKom itesi
Ġolay Ä±na
cel ona
mÄ±z Ä±lÄ±
Ġer eceÄŁi
Ġkapsam lÄ±
ĠBÃ¼yÃ¼k elÃ§
ĠBÃ¼yÃ¼k elÃ§i
Ġder nek
Ġkullan ma
Ġkullan mak
Ġkullan Ä±lmasÄ±
Ġhap se
ĠeÅŁ it
ĠeÅŁ inin
ĠsaldÄ±rÄ± ya
Ãľ st
Ġayr Ä±ntÄ±
ver t
ĠsÄ±r a
Ġtem in
Ġkaybetti ÄŁini
may e
may la
Ġden et
Ġden ey
ĠÃ§arp arak
Ġfiyat lar
Ġbaz da
Ġbaz Ä±nda
Ġada yÄ±
Ġmerkez ine
ĠsoruÅŁtur masÄ±nÄ±
Ġam iral
Ġam eliyat
Ġarac Ä±lÄ±ÄŁÄ±
ĠbaÅŁlat Ä±ldÄ±ÄŁÄ±nÄ±
tÄ±k tan
ĠuÃ§ uruma
ĠyayÄ±n ladÄ±ÄŁÄ±
Ġiz ledi
ĠSer ebral
ĠEs er
ĠEs ed
ĠtartÄ±ÅŁ ma
Ġolmak tan
ĠÄ°s koÃ§
Ġtesp iti
ĠAd liyesi
ĠÃ§ocuk larÄ±nÄ±n
ĠSan ders
lÄ±ÄŁÄ± yla
Ġem lak
Ġkol esterol
ĠKar ab
Ġbilg isi
ĠdÃ¶nem i
ĠseÃ§im lerin
Ġail esinin
Ġail elerine
ĠÃ¶nc esinde
ĠÃ¶nc Ã¼lÃ¼ÄŁ
ĠkaldÄ±r Ä±lmasÄ±
ĠtoplantÄ± da
ĠtoplantÄ± daki
ĠgÃ¼Ã§ leri
ĠgÃ¼Ã§ lerinin
ĠgÃ¼Ã§ lÃ¼k
ĠgÃ¼Ã§ lendirme
Ġasker lerin
Ġdikkat e
Ġdikkat i
ĠBÃ¶ hmer
ĠEn erji
ĠgeliÅŁ me
ĠgeliÅŁ meleri
Ġdestek lemelerden
ĠbÄ±rak Ä±ldÄ±ÄŁÄ±
Ġmuh ab
Ġmuh alefet
ĠTop lu
ĠTop lam
ĠTop rak
ĠTop lum
ĠEm ine
ĠtakÄ±m dan
Ġko d
Ġko ca
Ġokul da
Ġokul larÄ±n
ĠsÄ±k Ä±
ledi ÄŁini
Ġon a
Ġboy nuz
Ġsen eki
ulan lar
ĠÄ°ÅŁ let
ĠDem et
ĠaraÅŁtÄ±r masÄ±
Ġisteyen ler
Ġben im
Ġede b
Ġede ceÄŁi
Ġ17 7
ĠgÃ¶rÃ¼n ce
Ġoyn anan
Ġoyn andÄ±
ĠÅŁirket in
ĠÅŁirket inin
ĠÅŁirket lerinden
ĠAt let
ĠanlaÅŁ malÄ±
Ġtoplam a
ĠgÃ¶steriler den
Ġeylem ine
Ġhesab Ä±
Ġhesab Ä±nÄ±
Cumhur baÅŁkanlÄ±ÄŁÄ±
Ġkom edi
Ġsu ikast
ĠKan unu
ĠHas san
Av ukat
baÅŁk an
ĠPo litik
ĠaraÃ§ ta
ĠaraÃ§ tan
ĠiÃ§er en
Ġaday lar
Ġaday larÄ±
ĠarkadaÅŁ Ä±nÄ±
ĠarkadaÅŁ larÄ±na
ĠÅŁey dir
Ġkapat tÄ±
ĠgiriÅŁ inde
any ol
ing o
Ġtur izm
ĠolmadÄ± k
ĠolmadÄ± ÄŁÄ±na
ĠÃ¶ner isi
ĠÃ¶ner isine
ĠyardÄ±m dan
Ġkurul du
Ġkurul tay
Ġdevlet in
ĠdeÄŁerlendir mesini
ĠdeÄŁerlendir mesinde
Ġitibar iyle
Ġj andar
andÄ±r Ä±cÄ±
Ġyurt taÅŁ
Ġsistem i
Ġ16 0
ĠyatÄ±rÄ±m larÄ±
van ya
Ġbor cu
ĠyansÄ± yacak
Ġkamp any
Ġhan gileri
ĠDen izli
Ġistedi ÄŁini
Ġkamyon lar
ĠBay ern
Ġmak tul
ĠTar ih
ĠyayÄ±m landÄ±
Ġparti sinin
ĠkarÅŁÄ±laÅŁ mada
meler e
meler den
Ãĩ in
Ãĩ anakkale
Ġkoy duÄŁu
ast amonu
ĠmaÄŁ az
ĠmaÄŁ dur
ĠYÄ±l dÄ±rÄ±m
evr im
Ġziyaret ini
ĠsÃ¼rdÃ¼r Ã¼yor
Ġyen ilen
ĠteÅŁ h
ĠoÄŁ ul
ĠÃ¶lÃ¼m Ã¼nÃ¼n
ĠÃ¶lÃ¼m Ã¼yle
Ġkonu larÄ±nda
ĠbaÅŁkan larÄ±
ĠdÃ¼ÅŁÃ¼r Ã¼ldÃ¼
ĠyÃ¼ksel en
Ġber aat
ĠKo caeli
Ġenflasyon un
ĠmÃ¼cadele de
ĠbÃ¶lgesinde ki
Ġekonom isi
Ġotomob ilde
Ġotomob ilin
ĠgÃ¶nder ildi
SG K
Ġtep k
lim p
ĠSel man
ĠaÃ§Ä±l acak
Ġnok tal
ĠdeÄŁiÅŁtir me
Ġuygulam asÄ±na
ĠAh ameniÅŁ
Ġmem uru
Ġpat ladÄ±
Ġpat layÄ±
Ġpat lamasÄ±
landÄ±r Ä±lacak
Ġrapor u
Ġrapor unu
Ġistiyor um
ĠsÃ¶y lÃ¼
ĠkatÄ±l madÄ±
Ġteklif ine
ĠÃ¼st Ã¼nde
ĠboÅŁalt Ä±lan
ĠSanayi ci
Ġas gari
ĠBar celona
Ġfir ar
ĠduruÅŁ ma
ĠpaylaÅŁÄ±m da
ĠyÄ±k Ä±l
ĠtanÄ± tÄ±p
ĠBen im
ĠKÄ± brÄ±s
ĠKay mak
ĠKÄ±r klareli
Ġgeril imi
ĠkullanÄ± m
ĠÃ¶ldÃ¼rÃ¼l dÃ¼ÄŁÃ¼
ĠÃ¶ldÃ¼rÃ¼l mesine
ĠÃ¶ldÃ¼rÃ¼l mesinin
Ġrisk ini
Ġkan un
Ġseb ep
atÃ¶r Ã¼
ĠmÃ¼z isyen
ĠMes lek
ĠMes leki
ĠMuh arrem
ĠyapacaÄŁÄ± z
ĠartÄ±ÅŁ Ä±
ĠkardeÅŁ lerimiz
ĠÃ¶ÄŁrenciler e
ĠÃ§ekiliÅŁ i
Ġlir anÄ±n
Ġeyalet inin
Ġderece den
Ġbirbir ine
ĠÅŁart larÄ±nÄ±
ĠkaÃ§Ä±r Ä±lan
Ġkamer alarÄ±na
Ġbenz er
ĠÅŁikayet iyle
Ġsar Ä±m
ĠTh e
ĠMa den
abÄ± ta
Ġetkil eyen
ĠÃ§arptÄ±r Ä±lan
Ġlis ans
Ġerkek ler
Ä±lÄ±r ken
ĠÃ§iz g
ĠÃ§Ã¶k tÃ¼
ĠÄ°r anlÄ±
ĠÅŁark Ä±
ĠÃĩocuk larÄ±
Ġesn ek
Ġesn asÄ±nda
Ġboz ukluÄŁu
Ġkitap ta
Tr ump
Tr abzonspor
bey azlÄ±
Ġyarar lan
ĠOn gun
ĠOn ursal
Ġism ini
Ġseviy esine
ĠgÃ¶rÃ¼ntÃ¼ ler
ĠgÃ¶rÃ¼ntÃ¼ leri
Ġitfa iyesinin
En donezya
ĠBek ir
Ġma den
ĠEv in
ĠHar b
ĠPer ÅŁembe
ĠbaÅŁlÄ±k tan
Ġsorgul an
ĠborÃ§ larÄ±nÄ±n
Ġbask etbol
Ġkir alÄ±k
ĠBul dan
ĠMetin a
ĠMetin er
ĠaÃ§Ä± ÄŁÄ±
ĠaÃ§Ä± dan
Ġanlam Ä±
Ġcev abÄ±
ĠKurul unun
ĠKurul unca
ĠsanÄ± ÄŁa
Ġiler leyen
ĠDÃ¼n yanÄ±n
ĠEmek li
ĠEmek lilikte
ĠHaf tasÄ±
ĠOy uncu
ĠkarÅŁÄ±lÄ±k lÄ±
ĠkuruluÅŁ u
Ġmalz eme
Ġmalz emesi
Ġapart man
Ġapart manda
ĠÅŁofÃ¶r Ã¼
Ġsav ant
Ġtab let
ĠÃ§al Ä±n
ĠGÃ¶z Ã¼tok
ĠkuruÅŁ luk
ĠkaÃ§Ä±n malarÄ±nÄ±
Ġittifak Ä±n
ĠkomÅŁ usu
Ġnokt asÄ±nda
ĠYapÄ±lan masÄ±
Ġfestival de
Bey az
Ġkut ladÄ±ÄŁÄ±
Ġhikay esini
ĠKam u
ĠÄ°k ti
ĠRuh sar
Ġkayy Ä±m
Ġorta dan
ĠBaÅŁkanlÄ± ÄŁÄ±ndan
Ġmesel esi
ĠdolandÄ±r dÄ±
Ġkork u
Ġtasla ÄŁÄ±nda
Ġmilletvekil leri
Ġbun larÄ±n
ĠkÃ¶r lÃ¼ÄŁÃ¼
eks ika
eks iyon
ĠÃ¶len lerin
luÄŁ unda
ĠCam isi
ĠBakanlÄ± ÄŁÄ±ndan
Ġyang Ä±nda
ĠZel enskiy
Ġduydu klarÄ±nÄ±
ĠdesteÄŁ iyle
ĠeriÅŁ imi
ĠkullanÄ±l amaz
Ġdeniz altÄ±ndan
ĠuÃ§aÄŁÄ± mÄ±zÄ±
Alt Ä±n
Ġheyec anÄ±
ĠHayvan larÄ±
Ġmuayen ehan
Ak deniz
BaÅŁk an
kun Ã§
akar ya
ĠsatÄ±cÄ± larÄ±na
ĠBr ezilya
Ġmen opoz
ĠGal eri
ĠPat riot
ĠartÄ± yor
ĠYer el
ĠkarÄ±ÅŁ tÄ±ÄŁÄ±
Ġbelg esel
Ġrej im
ĠseÃ§il sin
Ġkolon larÄ±n
ĠfÄ±rlat Ä±lan
Ġvurgul adÄ±
ĠdÃ¶rd Ã¼ncÃ¼
ĠdÃ¶rd Ã¼ncÃ¼sÃ¼
Ad nan
ĠuÄŁ urlandÄ±
Ä±nt Ä±lÄ±
Ġyor ar
ĠmÃ¼lt eci
laci vert
ilip ak
Ġanlay Ä±ÅŁÄ±
Ġrom an
Ġyoksun luÄŁu
ĠÄ°sp anya
ĠToplantÄ± sÄ±
ĠAbd ullah
Ġseslendir di
AY M
par ator
Ġbey az
Ġgizli ce
Ġmis illeme
ĠKit ap
ĠKendi si
ĠSar ayÄ±
ĠMev lÃ¼
ĠEc em
Ġpomp a
ĠGÃ¼mÃ¼ÅŁ hane
ĠPot ter
Ġfal Ã§ata
Ġrad y
ĠkaygÄ± larÄ±nÄ±n
Ġins anÄ±n
Ġoran Ä±nda
ĠakÄ±l lÄ±
Ġikram iye
ĠdÄ±ÅŁarÄ± ya
Ġamb alaj
ĠJoa quin
ĠSaldÄ±r Ä±da
Ġdosy alarÄ±
Cu beyr
Den izli
Fet ullahÃ§Ä±
Kam u
ras ya
Ġyuk arÄ±sÄ±
Ġkey if
ĠgiÅŁ elerin
ĠAdÄ± gÃ¼zel
ĠKÄ±s a
ĠTuc hel
ĠTweet Dec
ĠÃ§Ã¶ p
ĠMÃ¼s lÃ¼man
ÄŁÄ±z daki
ĠÄ°b rahim
ĠDom ingo
ĠaralÄ±k sÄ±z
ĠOper asÄ±
Ġzeb ra
ĠReform u
ĠErba a
ĠErmeni stan
ĠÅŀen ol
otor inin
Ġsahtek arlÄ±k
ĠArnavut kÃ¶y
ĠÃ¼lkem izi
ĠHakk ari
ĠkÄ±rÄ± ÄŁÄ±
Ġmuhaf aza
ĠjÃ¼r i
ĠMuham med
ĠPensil vanya
ĠmezarlÄ±k ta
Ġtabanc ayla
Ġselfi e
ĠÄ°liÅŁk iler
ĠGiorgi o
ĠMÃ¼dÃ¼rlÃ¼ÄŁÃ¼n ce
Ġtims ah
ĠTeÅŁkil atÄ±
trenÃ¶r Ã¼
ĠeÄŁlen ce
DT Ãĸ
Frans a
Kad Ä±n
SaÄŁ lÄ±k
dosk opi
uawe i
Ġir ade
Ã§is iyiz
Ġbom bardÄ±man
Ġyam aÃ§
Ġyuvar landÄ±
ĠkÄ±t alar
onnec ticut
ĠAki f
ĠAÄŁr Ä±
ĠAtal ay
ĠTus k
ĠStre et
ĠSquin zi
ĠSassu olo
ĠMuz affer
ĠDÄ±ÅŁ iÅŁlerinden
ĠDisi plin
ĠDiv anÄ±
ĠDidi m
ĠDalam an
Ġpenc er
ĠÃ¶tÃ¼r Ã¼
ĠHoff man
ĠPiyan go
ĠYusu f
ĠObez ite
ĠRob ert
ĠAngel es
ĠVoda fone
ĠAkÃ§ak ale
ĠÃľskÃ¼ dar
ĠÃĸzpet ek
ĠBÃ¶hmer mann
ĠToplum la
ĠAhameniÅŁ ler
ĠpatlayÄ± cÄ±
parator luÄŁu
ĠTweetDec k
' '
0 2
1 1
2 2
2 4
4 0
4 5
4 6
5 2
6 4
6 6
7 1
8 9
9 4
A M
A N
A na
B T
B aÅŁ
B Ä°R
C emal
C ilt
D eprem
E F
E S
F E
G emlik
G aziantep
H K
H i
H iÃ§
I K
I N
I ÅŁ
K o
K r
K on
K ER
K Ã¼resel
K oÃ§
L i
M an
M eclis
M iss
M ehmet
M AS
M otorinin
O M
O t
P S
P Ä°
R S
R us
R ekabet
R KÄ°
S J
S S
S eÃ§im
S abah
T ur
T okat
T FF
T rafikte
U sta
U krayna
Y ar
Y aÅŁ
Y ozgat
Z el
a i
b as
b on
b ine
b ini
b Ã¼m
b arÄ±
b ahar
b Ã¼ste
c ir
c asÄ±
c Ã¼k
c eye
c imiz
c aÄŁÄ±nÄ±
c ks
d inde
d alÄ±k
d ova
e ÄŁini
e opo
f ak
f Ä±r
f af
f eri
g ur
g or
g anÄ±
g ah
g ili
h alat
h lak
h liyet
i an
i eb
i ÄŁe
j Ä±
k e
k u
k et
k as
k Ã¼z
k ad
k tik
k ov
k ansÄ±z
l il
l om
l Ä±lÄ±k
l esel
l kÃ¼
l ilere
m Ã¼r
m Ä±nÄ±n
m elik
m arÄ±
m eyin
n az
n aÄŁÄ±
n atif
o dir
o yla
o lis
o der
o din
p e
p ost
p lom
r in
r im
r ab
r ac
r ok
r iyet
r iyat
s lan
s aÄŁ
s ip
s akta
s emi
t el
t mak
t arÄ±
t gen
t iyar
t he
u ar
u li
v el
v ey
v eÃ§
v eni
v arÄ±
v uru
v isine
w ap
y k
y l
y Ä±m
y oz
y umu
y amin
z Ä±
z ele
Ġ %
Ġ u
Ġ |
Ġ aÅŁk
Ġ lam
Ġ 00
Ġ laz
Ġ laf
Ä± d
Ä± dÄ±r
Ä± can
Ä± cÄ±lÄ±k
an g
an im
an larÄ±
an ci
an dev
an trenÃ¶rÃ¼
Ã¼ ÄŁ
Ã¼ dÃ¼ÄŁÃ¼
ar sa
ar anjit
er v
er de
er gi
er re
in o
in ac
in dir
in izi
ÅŁ ak
ÅŁ kin
Ä±n Ã§
Ä±n ma
Ä±n dÄ±r
Ä±n dalÄ±k
en a
en ci
en me
il esi
il av
il emeyen
ÄŁ im
Ã§ isi
Ã§ iliÄŁi
Ã§ ekten
Ġb iy
Ġb Ã¼r
Ġb is
Ġb inin
Ġb ez
Ġb ilen
Ġb asÄ±na
Ġb ize
Ġb eyin
Ġb eter
al a
al ma
al dÄ±ÄŁÄ±
al lah
Ġy um
Ġy iye
Ġy eÅŁil
Ġy Ä±pranma
Ġk asÄ±
Ġk esi
Ġk ok
Ġk Ä±lan
Ġk rem
Ġk Ä±lÄ±
Ġk aÅŁÄ±
Ġk ov
Ġk andÄ±r
de b
de ks
ak is
ak alÄ±
Ġs o
Ġs am
Ġs ur
Ġs os
Ġs ark
Ġs alÄ±
Ġs ef
Ġs ic
Ġs irk
Ġs ize
Ġs avc
Ġs taj
Ġs pek
Ġs wap
Ã¶ por
Ã¶ semi
ir le
Ġg Ä±d
el le
et esi
et meni
ay ir
ay dÄ±
as s
as us
as onu
as inac
lar dÄ±
lar ken
di y
di ven
ek er
ek in
ek om
ek te
ek izli
on es
on daki
on ot
on dur
Ġt an
Ġt Ä±k
Ġt Ã¼n
Ġt erk
Ġt anÄ±n
Ġt uru
Ġt aciz
Ġt ecr
dÄ± klarÄ±nÄ±
es yon
es tici
iy ken
un o
Ġi cra
Ġv al
Ġv ek
Ġv is
Ġv it
Ġv eli
Ġv ade
at acak
at mayan
at the
ĠB o
ĠB ildi
ĠB eÅŁ
ĠB unu
ĠB unun
ĠB undan
ĠB ing
ĠB olu
ĠB od
ĠB ilmedi
ĠB ieb
am da
am Ä±ÅŁ
am anÄ±n
am iral
Ġh im
Ġh az
Ġh is
Ġh ali
Ġh oÅŁ
ur da
Ä±l ayÄ±
Ä±l masÄ±na
Ä±l sÄ±n
ler a
ler birliÄŁi
li e
li z
ĠA N
ĠA ra
ĠA pp
ĠA med
ĠA ida
ĠA stana
ĠA teÅŁ
ĠA ilesi
Ġd ilen
Ġd irektÃ¶r
Ġd Ã¼ÄŁ
or n
or an
Ġm or
Ġm avi
Ġm Ä±sÄ±r
Ġm otosiklet
Ã¼r riyet
ul larÄ±n
ul duÄŁu
ul muÅŁ
ul roy
em ez
em eye
em ize
Ä±k an
Ã¼n tÃ¼
Ä° L
Ä° N
Ä° YÄ°
Ä° ETT
Ä° ÅŀKUR
ĠK ab
ĠK um
ĠK Ã¼l
ĠK uÅŁ
ĠK eÅŁ
ĠK ent
ĠK arp
ĠK Ã¶k
ĠK end
ĠK alk
ĠK AR
ĠK iÅŁisel
ĠK remlin
ĠK astamonu
ĠK PS
ĠT a
ĠT er
ĠT ok
ĠT ut
ĠT ip
ĠT eb
ĠT una
ĠT ahk
ĠT uÄŁ
ĠT Ã¼ketici
ĠT DK
ĠÃ§ iv
ĠÃ§ ete
ĠÃ§ ektir
ĠS P
ĠS um
ĠS por
ĠS adece
ĠS efer
ĠS mit
ĠS lo
ĠS oÄŁuk
ĠS Ä°HA
ik im
ik met
ĠM u
ĠM en
ĠM ol
ĠM Ã¼ÅŁ
ĠM iÃ§
ĠM ete
ĠM otosiklet
ĠM eksika
ĠM ulroy
le bi
Ġde dir
Ġbir er
Ġbir az
Ġbir den
Ġbir isinin
Ġbir liÄŁiyle
Ġbir takÄ±m
Ġbir ikim
Ġol aya
Ġol ayÄ±
Ġol mam
Ġol masÄ±nÄ±
Ġol unca
Ġol mamasÄ±
Ġa b
Ġa ilen
Ġa hlak
ey h
ÄŁÄ± mÄ±zÄ±
iÅŁ er
tÄ± larak
ĠÄ° tal
ĠÄ° TO
ĠÄ° SKÄ°
ĠÄ° negÃ¶l
anÄ± mÄ±
ti si
ĠD u
ĠD Ã¼z
ĠD os
ĠD alÄ±ÅŁ
ĠD AK
ĠD eÄŁ
ĠD ilipak
ĠD estici
ĠE mir
ĠE ruh
ĠE fes
ĠE deb
iz ler
Ã¼z lÃ¼
Ġp iÅŁ
Ġp ot
Ġp lanÄ±
ab ak
ab alÄ±k
um an
ĠÃ¶ kÃ¼z
ĠÃ¶ yk
Ġe g
Ġe dip
Ġe hliyet
ĠG S
ĠG r
ĠG ro
ĠG Ã¼lt
ĠG ret
ĠG Ã¼Ã§
ĠG ant
ĠG ermain
ĠG elin
ol at
ol ga
lÄ± larÄ±n
lÄ± Ã§eÅŁme
ĠH T
ĠH il
ĠH un
ĠH ey
ĠH acÄ±
ĠH uawei
ĠH ikmet
ah t
iye de
Ġyap Ä±sÄ±nda
ĠP rem
ĠP iyas
ĠP erson
ĠP etrol
ĠP elin
ĠP aÅŁin
ĠP laci
ĠP Ä±nar
ĠP asaport
ĠP ho
ĠP ilav
ĠP olat
Ġar ab
Ġar ada
Ġar asÄ±ndan
Ġar ayÄ±ÅŁ
Ġar atmayan
Ġal tÄ±
Ġal ter
Ġal ama
Ġal mÄ±ÅŁ
Ġal dat
Ġal mÄ±ÅŁtÄ±
Ġal abilmek
Ġal bÃ¼m
Ġal akalÄ±
it o
it li
it lerle
Ã¼l dÃ¼ÄŁÃ¼
Ã¼l Ã¼yor
lan amadÄ±
Ä±ÅŁ la
Ä±ÅŁ ta
Ã¼rk en
Ã¼rk uÅŁ
ĠY en
ĠY urdu
ĠY aÅŁa
ĠY ener
Ġf on
Ġf akÃ¼lt
Ġf elÃ§
Ġf reni
Ġf abrik
Ġf abrika
Ġf aranjit
lu b
lu s
lu ÄŁunu
ĠiÃ§ i
ĠiÃ§ meyen
ĠF ir
ĠF ik
ĠF ran
ĠF orum
ĠF reni
ĠF abrik
af larÄ±n
af aka
ĠaÃ§ Ä±yor
ok tor
ĠC I
ĠC ar
ĠC ey
ĠC ez
ĠC ih
ĠC EO
ĠC onnecticut
ĠÅŁ erb
ĠÅŁ iir
ĠÅŁ antaj
ĠÅŁ aÅŁkÄ±n
Ġda mar
Ġda yalÄ±
ĠgÃ¶r mek
Ġn et
Ġn am
Ġn ih
Ġn ot
Ġn Ã¼f
Ġn oter
aÄŁ Ä±layÄ±
Ġet mesi
Ġet meye
len mesi
ev ir
ev ine
Ã¶n tgen
ad ovic
Ġkar tÄ±
Ġkar iyer
lam ak
ut ers
Ġbul masÄ±
Ġbul uÅŁtur
Ġbul uÅŁtu
Ġoldu klarÄ±
om iya
om ise
ĠyÄ±l dan
ĠyÄ±l Ä±na
ĠbaÅŁ lan
ĠbaÅŁ Ä±ndaki
ĠbaÅŁ arÄ±
ĠbaÅŁ saÄŁ
Ġgel m
Ġgel ip
Ġgel mesi
Ġgel din
Ġgel irken
Ġgel meden
ĠaÃ§Ä±k lanacak
ez yalÄ±
eler le
lik leri
ĠÃ¶n eri
ĠÃ¶n Ã¼ndeki
ili ÄŁinden
Ġver ecek
Ġver erek
Ġver miÅŁ
Ġver ilerin
Ġver eceÄŁi
Ġver ilmesine
Ġver eceÄŁim
Ġtar ama
ĠO l
ĠO ut
ĠO kan
ĠO limp
dir ova
dir imin
Ġ3 2
Ġ3 9
Ġay ak
Ġay da
Ġay larda
Ġay larÄ±nda
ĠgÃ¼n d
ĠgÃ¼n eÅŁ
ĠgÃ¼n Ã¼nden
ĠÃ§Ä±k art
ĠÃ§Ä±k may
Ġz an
Ġz abÄ±ta
ĠR u
ĠR y
ĠR ek
ĠyaÅŁ larda
ĠÃĸ ÄŁr
Ġbel den
Ġan Ä±nda
Ġan lama
Ġan iden
Ġan ket
Ġr ek
Ġr ah
Ġr af
Ġr Ã¼zgar
Ġr eyting
Ġr Ã¶por
op ark
Ġger iye
ĠkiÅŁ ileri
ĠgeÃ§ er
ĠgeÃ§ mek
ĠgeÃ§ emeyince
os undan
anlÄ± larÄ±n
anlÄ± sÄ±
eni x
ĠÃĩ Ã¶
ĠÃĩ ocu
ĠÃĩ evre
ĠÃĩ Ã¼nkÃ¼
ĠÃĩ aÄŁlar
ĠÃĩ etesi
Ġen ter
Ġen doskopi
Ġen deks
Ġbin den
Ġbin asÄ±na
Ġbin asÄ±nÄ±n
Ġbin alarda
Ġbin alarÄ±nÄ±n
Ġbin alarÄ±n
Ġkon umu
Ġkon uyla
Ġkon uldu
eh lik
eh ra
ĠL a
ĠL Ã¼b
te g
Ġ20 25
ĠsÃ¼r eÃ§
ĠsÃ¼r elerini
eye bilecek
ĠiÅŁ ini
ĠiÅŁ leri
ĠiÅŁ lenen
ĠiÅŁ birliÄŁi
ĠiÅŁ yer
Ä±ldÄ± ÄŁÄ±nda
uÃ§ akos
Ġne fes
ĠÃ§alÄ±ÅŁ Ä±r
ĠÃ§alÄ±ÅŁ acak
ĠÃ§alÄ±ÅŁ anÄ±n
ĠÃ§alÄ±ÅŁ Ä±rken
Ġc imi
Ġc ansÄ±z
Ġc umartesi
Ġyer i
Ġyer ler
Ġyer lerinde
ĠN ic
ĠN TV
ĠN eÅŁet
ĠN odir
ĠN uno
eÅŁ e
eÅŁ im
eÅŁ imi
Ġkad er
Ġkad arÄ±yla
Ġist en
Ġist ik
Ġist ih
Ġist erken
Ġist enen
Ġist eyebilecek
tan in
tan Ä±n
ĠyÃ¼z Ã¼
ĠyÃ¼z lerce
Ġkay naÄŁÄ±
ist lerin
Ġin erek
Ġdi plom
Ġdi sip
Ġor ganÄ±
Ġkal eci
Ġkal Ä±ntÄ±lar
ĠaÃ§Ä±klam asÄ±ndaki
ĠaÃ§Ä±klam asÄ±nÄ±
ĠaÃ§Ä±klam alarÄ±na
der i
ĠilÃ§ esinden
Ġel inde
lem esiyle
ĠdeÄŁ eri
ĠÅŀ ehit
ĠÅŀ eker
Ġhak lÄ±
Ġhak larÄ±
Ġhak larÄ±nda
Ġhak ikat
Ġkur u
cÄ± ya
ra ÄŁÄ±mÄ±zÄ±
ĠV ali
ĠV adi
ĠV AR
ĠV ekili
ĠkarÅŁ Ä±n
Ġuy may
Ġsor unun
Ġsor usuna
Ġsor usunu
Ġdedi ÄŁini
ada sÄ±
Ġdev ret
Ġbulundu ÄŁunu
alan mÄ±ÅŁ
ih tiyar
Ġtaraf lar
Ġtop l
Ġtop r
ĠyÃ¶n eticiler
endi m
dÃ¼ laziz
Ġdur urken
landÄ± ÄŁÄ±na
Ġkul ak
Ġkap s
Ġkap Ä±sÄ±
Ġkap anÄ±ÅŁ
ĠterÃ¶r le
ekt ronik
lÃ¼ÄŁ Ã¼nÃ¼
lÃ¼ÄŁ Ã¼nden
Ġis kele
ĠU n
ĠU r
ĠU Ã§
ĠAk Ä±n
ĠAk alÄ±n
ot unuz
ot akis
Ä±lÄ± ÄŁa
lat tÄ±m
Ġgi diÅŁ
eti cisi
ĠmÃ¼ ÅŁt
Ġhaf riyat
ĠÃ¶ÄŁr etim
sa ac
Ġ201 4
Ġkat li
Ġ7 20
ĠAv cÄ±
ĠAv rasya
Ġev i
Ġev den
Ġev lerinde
Ġev vel
ĠBaÅŁk a
ram v
ven ya
ĠÃľ st
ĠÃľ lk
ĠÃľ lkÃ¼
Ġyan ayÄ±z
Ġhay v
Ġhay atÄ±
Ġetk isi
Ġdeprem le
Ġdeprem den
Ġtut um
Ġtut arÄ±
Ġtut uyor
Ġtut uldu
Ġtut tuk
Ġhas ara
Ġhas adÄ±
Ġhas ret
Ġpo ÅŁet
ĠalÄ±n mazsa
Ġgir diÄŁi
Ġgir erek
Ġat Ä±k
Ġat lat
Ġat mam
Ġat Ã¶l
Ġiddi asÄ±
Ġiddi asÄ±na
Ġiddi alarÄ±nÄ±n
Ġiddi alarla
Ġneden e
ĠI saac
Ġes t
Ġsah aya
Ġilk okul
ĠgÃ¶z den
ĠgÃ¶z lÃ¼
ĠgÃ¶z Ã¼nÃ¼
ĠbÃ¶lg esi
ĠbÃ¶lg esel
Ġ9 7
Ġ9 8
Ġ9 90
ĠdÃ¶n dÃ¼
ĠdÃ¶n enin
ĠdÃ¶n dÃ¼ÄŁÃ¼
Ġyol uyla
ĠÃ¶ÄŁren en
ĠÃ¶ÄŁren ince
Ġ10 1
Ġ10 4
ĠÃĸz g
ĠÃĸz k
ĠÃĸz can
ĠÃĸz oÄŁuz
ĠbaÅŁk anlÄ±ÄŁÄ±
Ġoperasyon u
Ġoperasyon larÄ±n
Ġoperasyon larÄ±nda
ĠAr da
ĠAr ter
ĠAr alÄ±k
ĠAr tÄ±k
ĠAr slan
ĠAr Ä±can
ĠAr Ä±nÃ§
Ġalan lar
Ġalan Ä±na
Ġalan larÄ±nda
ten kel
ĠBel h
ĠBel Ã§
ĠBel ki
ĠJ an
ĠJ oker
Ġak an
Ġak adem
ĠKur naz
Ġgetir ilmesi
Ġif tir
Ġif las
ĠsaldÄ±r Ä±nÄ±n
Ã§Ä± lar
ĠÃ§ek ilen
ĠÃ§ek mek
ĠÃ§ek tiÄŁi
ĠÃ§ek ebilmek
ĠmaÃ§ la
leÅŁ mesi
ĠÄ°n dirimin
Ġzam anÄ±
ĠZ am
ĠZ ehra
Ġtek rar
Ġser visine
ĠseÃ§ ilen
ĠseÃ§ ilmesi
ĠseÃ§ ilmesinin
ĠSur fa
Ġl oj
Ġl Ã¶semi
Ġhayat i
ĠsuÃ§ tan
ĠCumhurbaÅŁkanÄ± mÄ±z
Ġpolis e
Ġpolis leri
Ġpolis lerini
Ġpolis lere
Ġyaz Ä±lÄ±r
Ġtak la
Ġtak Ä±ldÄ±
Ġtak si
Ġifade si
Ġcez alandÄ±r
ĠBir leÅŁik
ĠhazÄ±r lan
ĠhazÄ±r lÄ±klarÄ±mÄ±zÄ±
ÅŁte pe
Ġih tar
Ġih barÄ±
ali oÄŁlu
Ġalt Ä±nÄ±n
Ġ8 1
Ġ8 3
Ġuz laÅŁ
Ġuz anan
ĠsaÄŁ a
ĠsaÄŁ lÄ±ÄŁÄ±
ĠsaÄŁ landÄ±ÄŁÄ±na
ĠÃ¶z en
Ġek lem
ĠYar Ä±n
Ġdav aya
Ġdav asÄ±nda
Ġdurum una
ĠÃ¼lk eler
ĠÃ¼lk eden
Ġyas alarÄ±
ĠBaÅŁ vuru
ĠBaÅŁ antrenÃ¶rÃ¼
Ġpar ma
ĠÃ¶ldÃ¼r me
ĠÃ¼r eticisi
ĠKon ak
ĠÃľn sal
Ġsay f
Ġsay Ä±n
Ġsay gÄ±n
ley ecek
ley na
ley erek
Ġduy an
ĠsÃ¶z de
ĠsÃ¶z lerine
ĠsÃ¶z lÃ¼ÄŁÃ¼ne
ĠBeledi y
Ġmed y
Ġmed yasÄ±
ĠÄ°l Ã§
ĠgÃ¶rÃ¼ÅŁ mek
ĠgÃ¶rÃ¼ÅŁ Ã¼nÃ¼
ĠgÃ¶rÃ¼ÅŁ meyi
ĠgÃ¶rÃ¼ÅŁ mesinde
ĠterÃ¶rist lerden
Ġask Ä±ya
ĠyÃ¼k Ã¼
liÄŁ in
Ġverdi kleri
Ãĸ K
Ãĸ DP
ĠAy ten
ĠAy rÄ±
ĠAy kaÃ§
Ġad liy
ĠdeÄŁiÅŁ ti
Ġik ili
Ġik isinin
Ġik iÅŁer
Ġmes l
Ġmes af
Ġmes ele
ĠTÃ¼rk oÄŁlu
abil eceÄŁ
abil eceÄŁine
ĠÅŁÃ¼ph esi
Ġkarar Ä±n
ĠkÃ¶ ÅŁe
Ġhal ine
Ġhal let
ĠgÃ¶rev li
ĠgÃ¶rev ini
ĠOr omiya
bu cks
Ġdest inasyon
Ġdest eÄŁini
ĠgÃ¼ven liÄŁinin
iÃ§ i
ĠÃ¼ vey
Ġsat tÄ±klarÄ±
ĠbugÃ¼n e
Ġtutuk lanarak
Ġtutuk lanÄ±rken
Ġsev ilen
Ġsev iyede
ĠKor k
ĠKor amiral
Ġolay la
Ġolay dan
mÄ±z a
tr onot
Ġer gen
ĠEy Ã¼psultan
Ġbildir im
Ġkapsam da
Ġkim lik
Ġder g
Ġder ken
Ġder sten
An adolu
ĠÃ¼y eli
ĠsÄ±nÄ± fa
ĠsÄ±nÄ± rÄ±
ĠeÅŁ ini
ĠeÅŁ lik
ĠeÅŁ liÄŁinde
ĠsaldÄ±rÄ± larÄ±
ĠsaldÄ±rÄ± larÄ±nda
Ġbirlik lere
ĠyaptÄ± lar
tay ken
Ãľ lk
Ġvar lÄ±ÄŁÄ±nÄ±
ver en
ĠsÄ±r alarÄ±nda
Ġsaat ini
Ġsaat lik
Ġtem p
Ġtem muz
Ġdol muÅŁ
Ġoyun unu
Ġden emesi
ĠÃ§arp Ä±ÅŁ
ĠÃ§arp tÄ±ÄŁÄ±
ĠÃ§arp Ä±p
Ġfiyat Ä±nda
ĠgeÃ§ir erek
Ġbak la
Ġbak Ä±cÄ±
Ġbak Ä±lÄ±r
Ġbaz en
Ġyapan lara
ĠaldÄ± ÄŁÄ±nÄ±
ĠaldÄ± klarÄ±nÄ±
ĠdeÄŁil se
Ġsan dÄ±k
Ġmer mi
Ġmerkez indeki
ĠsoruÅŁtur mada
ĠsoruÅŁtur manÄ±n
ĠsoruÅŁtur malarda
ĠyÃ¼r Ã¼me
ĠyÃ¼r Ã¼dÃ¼ÄŁÃ¼
ĠTek lif
Ġhava dan
Ä±lÄ±k tan
ĠbaÅŁlat tÄ±ÄŁÄ±
ĠbaÅŁlat mayÄ±
id on
end y
Ġiz i
Ġiz liyor
Ġiz ni
ĠBil gin
ĠSer dar
ĠEs pir
ĠtartÄ±ÅŁ masÄ±yla
Ġkes int
Ġsonr aki
ĠÃ§Ä±kar dÄ±ÄŁÄ±
ĠÃ§Ä±kar Ä±ldÄ±
ĠÃ§Ä±kar tÄ±larak
ĠpaylaÅŁ Ä±mÄ±
ĠKÄ±lÄ±Ã§ aslan
Ġyet kin
Ġyet erli
Ġyet ersiz
ĠaÄŁÄ±r laÅŁtÄ±r
ĠaÄŁÄ±r layacak
ĠboÅŁ alan
ĠboÅŁ aldÄ±ÄŁÄ±
ĠSan to
ĠkonuÅŁ ma
ĠkonuÅŁ masÄ±nda
ĠkonuÅŁ mayla
ĠdeÄŁer lere
Ġem ri
Ġkol larÄ±na
ĠKar ar
Ġzor luk
Ġbilg ileri
Ġbilg isine
Ġbilg isini
ĠseÃ§im leri
Ġlider inin
ĠhÃ¼kÃ¼met in
ĠkÄ±s mÄ±nÄ±
Ġail elere
ĠHak em
ĠkaldÄ±r ma
ĠkaldÄ±r masÄ±
ĠtoplantÄ± ya
Ġzaman a
ĠgerÃ§ekleÅŁtir diÄŁi
Ġasker e
Ġasker den
Ġasker leri
Ġasker lerini
Ġsiyas al
Ġgen cin
ĠsonuÃ§ larÄ±nÄ±
ĠyaralandÄ± ÄŁÄ±nÄ±
dur rah
ĠvatandaÅŁ Ä±
ĠvatandaÅŁ Ä±n
ĠAli ÅŁan
ĠEn gin
ĠgeliÅŁ en
ĠÃ¶zel likle
ĠÃ¶zel liÄŁini
Ġdestek lemek
ĠbÄ±rak tÄ±ÄŁÄ±
ĠbÄ±rak Ä±p
erb ay
ĠkÄ±r Ä±lsÄ±n
Ġmuh taÃ§
Ġmuh arip
ĠTop uz
ĠyaÅŁam aya
ĠAlt un
ĠtakÄ±m Ä±nÄ±n
Ġ11 2
Ġ11 8
Ġ19 3
Ġ19 7
gÄ± Ã§
Ġbab aya
ĠbaÄŁ daÅŁ
ĠsÄ±k Ä±ÅŁ
ĠsÄ±k Ä±ntÄ±lÄ±
dat o
din g
din ilen
Ġon u
Ġon un
ĠÄ°ÅŁ birliÄŁi
ĠDem okrasi
ĠaraÅŁtÄ±r malar
ĠaraÅŁtÄ±r Ä±yor
Ġfilm in
Ġfilm leri
Ġisim lerin
Ġisim lere
Ġede ceÄŁiz
Ġdair enin
Ġoyn at
Ġoyn ayacak
ag ue
Ġkuzey ine
Ġkend ilerine
Ġim kansÄ±z
Ġit hal
Ġit halat
ĠanlaÅŁ mazlÄ±ÄŁÄ±
Ġproj elerde
Ġeylem e
Ġhesab Ä±nda
Cumhur iyet
ĠaÅŁ aÄŁÄ±layÄ±
ĠKan g
ĠKan al
ĠHas sen
Ġ14 4
Ġprogram da
Av cÄ±lar
baÅŁk anÄ±nÄ±n
Ġetkin liÄŁindeki
Ġaday larÄ±ndan
eÄŁ in
Ġsun mak
Ġsun ulan
Ġsun uldu
Ġmahkem eye
Ġmahkem elerinin
ĠarkadaÅŁ larÄ±nÄ±n
Ġverildi ÄŁini
ĠVal isi
ĠbÃ¶lÃ¼m Ã¼nde
ĠeleÅŁtir en
ĠeleÅŁtir erek
ĠeleÅŁtir ilere
ĠÃ¶ner iye
ĠÃ¶ner iler
ĠdÃ¼nya evine
ĠdeÄŁerlendir di
Ġj eopo
Ġyurt tan
Ġsistem in
Ġsistem leri
ĠtaÅŁÄ± dÄ±ÄŁÄ±
ĠDon k
cek ler
sun uz
ĠyansÄ± t
ĠBor s
Ġhan eyi
Ġhizmet leri
Ġhizmet lerinde
ĠOk tay
ĠOk yan
Ġistis marÄ±
Ġcinayet in
Ġcinayet inde
Ġcinayet ten
Ġkamyon u
Ġkamyon ete
ĠsÄ±nÄ±f Ä±nda
ĠsÄ±nÄ±f tayken
bay Ä±ldÄ±
fer ans
Ġkit le
Ġkit abÄ±
Ġkit lesel
ĠBay kan
ĠBay raklÄ±
Ġhat asÄ±
Ġmak ar
Ġmak as
ĠTar aflarÄ±n
ĠyayÄ±m lanarak
Ġparti si
ĠkarÅŁÄ±laÅŁ tÄ±
ĠkarÅŁÄ±laÅŁ acak
ĠkarÅŁÄ±laÅŁ maya
Ãĩ apa
ĠyoÄŁun luÄŁu
ĠyoÄŁun luÄŁun
Ġkent te
Ġkent lerinde
Ġann elerin
Ġann elerinin
Ġann elerine
Ġanlat arak
ĠsÃ¼rdÃ¼r dÃ¼
ĠsÃ¼rdÃ¼r meye
ĠsÃ¼rdÃ¼r Ã¼le
Ġinsan lara
Ġdevr iye
Ġdevr ini
Ġdevr ildi
Ġdevr eye
ĠsaÄŁlÄ±k lÄ±
ĠBÃ¶lg esel
ĠulaÅŁ abileceÄŁini
ĠBab el
ĠmÄ± yÄ±m
Ġplan lanan
Ġplan lama
Ġfutbol cunun
ĠFet ullah
ĠFet tah
Ġbilin meyen
ĠÅŀu bat
Ġsorun larÄ±na
Ġhaft asÄ±
Ġotur an
ĠbaÅŁkan lÄ±k
ĠKo ordin
ĠKo dirova
ĠÃ§aÄŁ rÄ±
Ġ18 0
Ġfa iz
Ġenflasyon da
ĠÃ¶zgÃ¼r lÃ¼k
Ġduyur usu
ĠÄ°lk okulu
Ġtelef onu
ĠgÃ¶nder ilen
Ġbas it
ĠsektÃ¶r Ã¼nde
Ġham le
ĠÃ§ocu ÄŁa
Ġart tÄ±r
ĠfotoÄŁraf Ä±
ĠfotoÄŁraf larÄ±
ĠgÃ¶sterdi ÄŁini
ĠdoÄŁru dan
Ġbeklen t
Ġbeklen diÄŁi
ĠsÄ±nÄ±r Ä±na
Ġuygulam alar
Ġuygulam asÄ±nÄ±n
Ġdar bet
Ġmem nun
Ġolma dan
ĠDur uÅŁ
ĠDur dur
ĠEl ektronik
Ġpat lat
Ġpat enci
ĠÅŁu b
ĠÅŁeh ri
ĠsÃ¶y leniyor
ĠkatÄ±l Ä±mÄ±yla
Ġgirdi ÄŁini
Ġteklif inin
Ġkendis inden
ĠboÅŁalt Ä±lmasÄ±
fet ti
Ġas lÄ±nda
Ġas tronot
Ġtas lak
ĠBar ones
ĠAb dÃ¼laziz
ĠAb durrah
ĠyaptÄ±k larÄ±nÄ±
Ġfir masÄ±nÄ±n
Ġfir malarÄ±
ĠFat ma
ĠÅŁik ayeti
ĠyÄ±ldÄ±r Ä±m
Ġkurum lar
Ġkurum larÄ±
ĠduruÅŁ u
Ġhast alÄ±
Ġhast alÄ±ÄŁÄ±
Ġuzak tan
ĠparÃ§ a
ĠparÃ§ asÄ±
ĠparÃ§ alar
ĠparÃ§ alara
ĠparÃ§ acÄ±k
ĠKons ey
Ġmesaj lar
ĠyÄ±k Ä±lacak
ĠtanÄ± m
Ġoda sÄ±na
Ġoda sÄ±ndaki
ĠAs liye
Ġmark alarÄ±nÄ±n
ĠMer ak
ĠaÄŁ z
ĠaÄŁ aÃ§
ĠaÄŁ lattÄ±m
Ġpiyas aya
Ġpiyas asÄ±nda
ĠHav anÄ±n
ĠyarÄ±ÅŁ ma
ĠyarÄ±ÅŁ masÄ±nda
Ġgeril imin
Ġindir imi
ĠUlu sal
ĠmÃ¼h Ã¼r
ĠateÅŁ e
Ġsanat Ã§Ä±sÄ±
ĠTurk iye
Ġpersonel le
Ġkontrol den
19 99
Bir leÅŁmiÅŁ
Ġkan al
Ġkan aat
atÃ¶r lÃ¼ÄŁÃ¼nÃ¼
Ġhey et
Ġhey eti
ĠmÃ¼z iÄŁi
ĠMal uku
ĠMes aj
ĠMuh sin
ĠyaptÄ±r Ä±m
ĠartÄ±ÅŁ la
Ġ21 1
ĠkardeÅŁ inin
Ġedilm eye
Ġedilm esine
Ġedilm elidir
Ġzarar Ä±nÄ±
ĠkaldÄ± ÄŁÄ±nÄ±
Ġlir ayÄ±
Ġeyalet indeki
ĠyÃ¼ksek likten
Ġimz alama
Ġistismar Ä±na
Ġpuan dan
ĠuÄŁr ayarak
Ġgol leri
Ġgez en
Ġgez mek
Ġvur ulan
ĠÃ§evr ildi
Ġbirbir inden
Ġbirbir lerinin
Ġbirbir lerine
ĠHat tÄ±
ĠHat ice
ĠartÄ±r acaÄŁÄ±
Ġorgan larÄ±
ĠyakÄ±n larÄ±
Ġhaberimiz in
Ġortak larÄ±yla
Ġortak lÄ±ÄŁÄ±nda
Ġkamer a
ĠAydÄ±n lar
Ġhalk a
ĠayrÄ± ca
ĠtartÄ±ÅŁmalar Ä±nÄ±
ĠtartÄ±ÅŁmalar Ä±na
Ġbenz eri
ĠÃ¼niversit eye
ĠmaÄŁlu biyet
GÃ¼n ey
Ġtraf iÄŁi
Ġtraf iÄŁe
ĠadÄ±m lar
ĠadÄ±m larÄ±
Ġpark Ä±
Ġpark lara
ĠHarek at
ĠsÃ¼rec iyle
Ġcam iler
ĠBaÅŁkonsolos luÄŁunda
Ġetkil eÅŁim
Ġsahi bini
Ġserin lemesiyle
ĠsuÃ§lam alarÄ±
Ġazal tÄ±
ĠKong resi
Ġavukat larÄ±
Ġtehdi di
Ġtehdi dinde
Ġincelem elerde
Ġfaaliyet lerine
Ġsezon unda
Ġsezon unun
Ġbomb ayÄ±
Ġsavun manÄ±n
ĠAÄŁÄ±r dÄ±r
ĠKaz a
ĠKaz an
ĠKaz ada
ĠKaz akistan
ĠKaz lÄ±Ã§eÅŁme
ĠÃ§iz gi
ĠDi dem
ĠDi ana
ĠPr omise
Ġveri ci
Ġyarat tÄ±ÄŁÄ±
ĠÅŁÃ¼phel inin
Ġboz mak
Ġtahmin ini
ĠÅŁehit lere
adi s
adi kal
ni e
Ġbit iÅŁik
Ġyorum unda
Ġkas lar
Ġkas ten
Ġgem i
ĠÃ§if ti
ĠSah ne
ĠGÃ¶r ev
ĠGÃ¶r Ã¼ntÃ¼
Ġyapacak larÄ±nÄ±
ĠCan tÃ¼rk
Ġyarar lanan
Ġyarar landÄ±rÄ±lacak
ĠOn u
Ġengel li
Ġengel lemek
Ġengel lendiÄŁi
Ġmillet ine
Ġtoprak larÄ±nda
Ġtoprak larÄ±ndan
Ġism iyle
Ġpolitik asÄ±nÄ±
ĠProgram da
Ġmadde lik
TÃ¼rk Ã§e
ĠBur uk
ĠdÃ¼k k
ĠSal man
ĠSal ih
ĠMark le
ĠÄ°d rar
umuz u
ĠPort ekizli
Ġnit elikli
Ġettir en
Ġettir di
ĠendiÅŁ e
ĠdÃ¼zenlem eyle
Ġcan landÄ±r
Ġkurtar Ä±ldÄ±
Ġkurtar acak
Ġsorgul anÄ±r
ĠÃ¶ÄŁretmen e
ĠiliÅŁk iye
Ġdahil inde
ĠIn ter
Ġekib ini
ĠkÃ¶y Ã¼
ĠkÃ¶y Ã¼ndeki
ĠaÅŁam asÄ±nda
ĠborÃ§ larÄ±
ĠborÃ§ larÄ±nÄ±
ĠborÃ§ lanma
Ġtaleb inde
Ġsebeb i
Bil al
ber g
ĠkÄ± y
ĠtÃ¼k et
ĠtÃ¼k eticiler
Ġitir az
ĠBin anÄ±n
ĠBin yamin
ĠBul gar
Ġhar can
ĠVer gisi
Ġtoplum sal
ĠyÃ¶net meli
Ġyakalan masÄ±
Ġyazar larÄ±
Ġgazetec iyi
ĠBilim ler
ĠgÃ¼Ã§lÃ¼ dÃ¼r
Ġetkinlik ler
ĠsÃ¶ndÃ¼r Ã¼len
he im
hi gan
kÄ±r mÄ±zÄ±lÄ±
ĠbÃ¼y Ã¼m
Ġbaraj Ä±na
ĠtÃ¶ren ine
emiz in
Ä°K A
Ġiler liyor
ĠÃ¶de y
ĠÃ¶de diÄŁi
ĠHaf tanin
ĠyapÄ±yor uz
ĠyaÅŁÄ±nda dÄ±r
ĠUy gul
ĠAraÅŁtÄ±r malarÄ±
Ġsermay esi
Ġsermay eli
Ġkaza dan
Ġulus al
Ġcezaev inden
Ġmalz emeleri
ĠbasÄ±n Ä±nda
ĠbasÄ±n Ä±na
ĠDurum un
Ġvilayet inde
Ġvilayet lerinde
Ġvilayet lerde
Ġapart manÄ±n
Ek im
PG Ä°S
ary akÄ±
ĠbeÅŁ inci
Ġsin yal
Ġsav cÄ±
Ġmin ik
Ġmas al
Ġmas raf
ĠmeÅŁ gul
Ä°s p
Ġyapar ken
Ġedil emeyen
ĠÃ¶nlem eler
Ġ51 0
ĠuyarÄ± da
ĠuyarÄ± larda
Ġetkilen iyor
Ġsahne de
ĠkaÃ§Ä±n Ä±lmaz
Ġlist esinde
Ġlist ede
Ġadalet in
Ġuygulan maya
Ġyetk isi
Ġkilomet relik
Ġkoordin asyon
Ġpaket ini
ĠkÃ¼ltÃ¼r el
Ġvel ilerin
Ġdil edi
ĠKam yon
ĠSarÄ± yÄ±ldÄ±z
ĠSig ara
ĠSig ort
ĠSig orta
ĠSultan gazi
ĠSultan beyli
iklet e
Ġbirim inde
ĠÄ°k lim
Ġpan car
Ġpart iler
ĠHal en
ĠHal uk
ĠHol ding
ĠyapÄ± larak
ĠalÄ±m Ä±na
ĠÅŁar abÄ±
ĠOsman iye
Ġrakam larÄ±
Ġoyna dÄ±klarÄ±
ĠBaÅŁkanlÄ± ÄŁÄ±na
Ġazalt mak
Ġmesel a
ĠKorkut eli
ĠtamamladÄ± ktan
ĠDemir can
Ġmilletvekil ine
ha el
iÄŁ dem
sev en
Ġbilm iyoruz
Ġkorum a
Ġkorum ak
Ġdir ekt
Ġmik tar
ĠKol ombiya
ĠKol asinac
ĠMic higan
ĠMic hael
ĠÄ°li ÅŁkin
ĠalÄ±nÄ± p
ĠalÄ±nÄ± rken
ĠYurt seven
ĠFer zan
Ġvergi den
ĠOperasyon da
ĠÃĩavuÅŁ oÄŁlu
ĠBakanlÄ± ÄŁÄ±nca
Ġces edi
Ġces edinin
ĠVatandaÅŁ Ä±n
ĠkulÃ¼p lerinden
Ġyang Ä±nÄ±n
Ġtakv imi
Ġtakv iyesi
ĠdesteÄŁ inden
ĠeriÅŁ ilebilir
ĠkullanÄ±l maz
Alt unizade
Ġihtiy acÄ±
Ġmuayen esi
ĠyalnÄ±z ca
ĠhastalÄ±k larÄ±
BaÅŁk ent
Er doÄŁan
kun k
ĠanÄ± larÄ±
Ġruh sat
Ġbes in
Ġbes lenme
Ġbat tÄ±
Ġbot la
ĠbeÄŁ eni
ĠbeÄŁ endiÄŁi
Ġku lis
ĠkeÅŁ fi
ĠkeÅŁ fetti
ĠsaÃ§ Ä±
Ġtic areti
Ġtrans feri
ĠAmer ikan
ĠKen an
Ġaj ansÄ±
ĠÄ°dar i
Ġform atÄ±
Ġform Ã¼lÃ¼
ĠFeder al
ĠgÃ¶m Ã¼lÃ¼
ĠayÄ±r mak
Ġraki p
Ġraki bi
Ġtesis leri
ĠJap on
ĠsaldÄ±rg anlÄ±
Ġteknoloj isini
Ġtemiz lik
ĠTemsil ciler
ĠÄ°sv eÃ§
Ġzorun lu
ĠgiriÅŁim inden
Ġmaliyet inin
Ġkamuoy u
ĠmaaÅŁ Ä±na
ĠmaaÅŁ larÄ±nÄ±
Kar deÅŁ
dÃ¼k ten
ĠÃ¼s sÃ¼
Ä±nt Ä±lÄ±k
ĠkÃ¼l leri
ĠkÃ¼l Ã§e
Ġkelim esinin
ĠSe ul
ĠDeÄŁer lendirme
Ġaram alarda
Ġalkol lÃ¼
ĠÅŁok u
ĠgÃ¶rÃ¼yor uz
Ġnamaz Ä±
Ġkart post
Ġres im
ĠLim anÄ±
Ġcumhur baÅŁkanÄ±nÄ±n
ĠkayÄ±t larÄ±nÄ±
Ġkayded ildi
ĠÅŀirk etin
ĠVeli aht
Ġkatled ilen
ĠseÃ§men inin
ĠhazÄ±rlÄ±k larÄ±nÄ±
ĠkazandÄ±r an
Ġmesle ÄŁi
Ġmesle ÄŁe
Ġtahliy esine
ĠÄ°sp anyol
Ġimkan larÄ±yla
ĠAbd ul
Ġorganiz asyon
Ġbenzet mesi
ĠKÃ¶pr Ã¼sÃ¼
Ġharit asÄ±nÄ±n
Ġperforman sÄ±
ĠmÃ¼cadel esinde
Ġminar esi
ĠdoÄŁrul adÄ±
GeÃ§ en
GeÃ§ tiÄŁimiz
Mar din
Muh alefetin
kor dato
yas por
Ġiy iye
Ġbeb eÄŁi
Ġbeb eÄŁin
ĠboÄŁaz Ä±nÄ±
ĠkaÅŁ larÄ±
Ġkuy usuna
Ġst at
Ġsendik a
Ġteb liÄŁ
Ġteb liÄŁiyle
ĠvÃ¼ cu
ĠvÃ¼ cut
ĠBe ÅŁtepe
Ġhuzur unda
Ġmini bÃ¼s
Ġmini bÃ¼ste
ĠKat ma
ĠKav aÄŁÄ±
ĠTel ekom
ĠTah ran
ĠTav as
ĠSeri e
ĠMus lera
Ġilet iÅŁim
ĠÄ°h san
ĠDol andÄ±rÄ±cÄ±
ĠpapaÄŁ an
ĠGÃ¼zel yurt
ĠGenÃ§ lerbirliÄŁi
ĠHiÃ§ bir
ĠÅŁef faf
ĠRektÃ¶r Ã¼
Ġinan Ã§
ĠVe dat
alandÄ±r arak
Ġkapas iteye
ĠEkonom ik
Ġkategor isinde
Ġserg ilenen
Ġtaks iye
Ġderledi k
ĠfarkÄ±nda yÄ±z
ĠGÃ¶st er
ĠsÃ¼rÃ¼cÃ¼s Ã¼nÃ¼n
ĠsÃ¼rÃ¼cÃ¼s Ã¼yle
ĠyÄ±kÄ±m Ä±na
ĠmÃ¼hendis liÄŁi
ĠmÃ¼zaker e
Ġdemokrasi den
Ġsars Ä±ldÄ±
Ġihtim al
Ġsakin leri
Ġdalg alandÄ±rarak
ĠÅŁartÄ± yla
ĠbaÄŁÄ±m sÄ±z
Ġmahalle de
SÄ° AD
Ulu sal
lili ÄŁini
uel a
yap Ä±
ĠÄ±ÅŁ Ä±k
ĠÄ±s rar
ĠasÄ±l lÄ±
Ã¼ler ek
Ã§u lar
Ġbay raÄŁÄ±mÄ±zÄ±
Ġkah v
Ġkus urlu
Ġkup on
ĠkuÅŁak lar
Ġstrat ej
ĠgÃ¼z eli
Ġted bir
ĠBB C
ĠBit lis
ĠAm bon
ĠTan rÄ±
ĠÃ§ey rek
ĠStar bucks
ĠSch iff
ĠMor oÄŁlu
ĠMeg han
ĠMetro bÃ¼s
leye ceÄŁini
Ġpr atik
Ġpeyn ir
Ġfak tÃ¶r
ĠÅŁer itlerle
ĠdaÄŁ Ä±l
ĠdaÄŁÄ± tmak
Ġnes lini
Ġnum ar
ĠyÄ±llar dÄ±r
ĠÃĩukur ca
Ġkonum unda
ĠyerleÅŁk esindeki
ĠNaz mi
ĠNijer yalÄ±
Ġkaydet ti
Ġeleman larÄ±
ĠÅŀent op
ĠÅŀÃ¼ph el
ĠyaklaÅŁ Ä±m
Ġpoz isyon
Ġyolculu ÄŁuna
ĠdÃ¼ÅŁÃ¼ÅŁ e
Ġaktiv iteye
Ġuzay da
Ġsevgil isi
Ġkims enin
Ġdoldur mamÄ±ÅŁ
ĠProj esi
Ġmuhbir in
Ġseyr ediyor
ĠkuzeydoÄŁ usunda
Ġdoktor lar
Ġkurumsal laÅŁ
Ġiktid ara
Ġpiyasalar daki
ĠHayat Ä±n
Ġkavg aya
ĠGÃ¶rÃ¼ÅŁ mede
ĠkÄ±yÄ± larÄ±nda
Ġfayd alarÄ±
Ġbahs ediyor
ĠhatÄ±rlat arak
Ġmekan larÄ±na
Ġlezzet li
Ġsendrom u
ĠsiyanÃ¼r lÃ¼
ĠvahÅŁ i
Ġfezlek e
El ektrik
Hen ley
Hakk ari
KÄ± brÄ±s
Mal ezya
Pro f
Ġbalk onunda
Ġker tenkel
aken de
ayri ihtiyar
ĠBina dan
Ġmir as
Ġmah rum
ĠmÃ¼k elle
ĠKuv ezi
ĠKoz an
ĠTam tÃ¼rk
ĠSendik asÄ±
Ġolmas Ä±n
ĠDirektÃ¶r lÃ¼ÄŁÃ¼nden
ĠPM I
ĠPak eti
Ġsonsuz a
ĠCerrah i
ĠniÅŁ anlÄ±sÄ±
ĠObr adovic
Ġzehir li
Ġanem isi
ĠendÃ¼ str
ĠkarÅŁÄ±lan dÄ±ÄŁÄ±
Ġsalg Ä±nÄ±
ĠbÃ¼yÃ¼kelÃ§ ilik
ĠJon athan
ĠsÃ¶yley erek
Ġekr anlÄ±
ĠparaÅŁ Ã¼t
ĠWal l
ĠayrÄ±ntÄ± larÄ±
Ġdenet Ã§iliÄŁi
ĠgÃ¼Ã§lÃ¼k le
Avukat lÄ±k
Ġjandar maya
ĠyurttaÅŁ Ä±n
ĠmaÄŁaz alarÄ±
ĠteÅŁh is
Ġnoktal adÄ±
ĠyÄ±kÄ±l ma
ĠsarÄ±m sakta
Ġmuayenehan esinde
Ġrejim inin
Ġbeyaz lat
ĠMevlÃ¼ t
Ġrady o
Hi be
Ko caeli
Tur izm
Yar gÄ±
YaÅŁ am
kad ir
Ġlam Ä±
Ġlaz Ä±m
anim ark
andev u
erre f
Ġbis iklete
Ġyiye cekler
Ġkok ain
ĠkaÅŁÄ± ÄŁÄ±
Ġsark Ä±ntÄ±lÄ±k
Ġsef eri
Ġsirk ten
Ġsavc Ä±lÄ±ÄŁa
Ġspek Ã¼l
asus luk
ĠtÃ¼n el
atthe w
ĠBildi ÄŁim
ĠBing Ã¶l
ĠBod rum
ĠBilmedi ÄŁiniz
ĠBieb er
Ġhis se
ĠApp le
ĠKum uÃ§akos
ĠKarp az
ĠKalk Ä±nma
ĠKPS SP
ĠTip i
ĠTahk im
ĠSmit h
ĠSlo venya
ĠMol dova
ĠMÃ¼ÅŁ erref
ĠMiÃ§ otakis
Ġolmam Ä±z
Ġailen in
ĠÄ°tal yan
ĠDos yaya
ĠDAK Ä°KA
ĠEmir likleri
ĠÃ¶kÃ¼z den
Ġehliyet siz
ĠGÃ¼lt ekin
ĠGret a
ĠGant z
ĠPrem ier
ĠPaÅŁin yan
ĠPlaci do
ĠPho enix
ĠPilav dan
Ġalter natif
Ġalama dÄ±klarÄ±
ĠYener oÄŁlu
ĠForum u
ĠCez ayir
ĠÅŁaÅŁkÄ±n lÄ±k
ĠbaÅŁsaÄŁ lÄ±ÄŁÄ±
Ġgeldin iz
ĠrÃ¶por taj
Ġenter esan
ĠLÃ¼b nan
ĠNodir a
Ġisteyebilecek leri
ĠVadi si
Ġuymay arak
otunuz u
Ġatmam akla
Ġilkokul a
ĠSurfa ce
Ġloj istik
Ġihtar Ä±na
ĠAyrÄ± ca
abileceÄŁ iniz
ĠEspir ito
ĠaÄŁÄ±rlaÅŁtÄ±r Ä±lmÄ±ÅŁ
ĠaÅŁaÄŁÄ±layÄ± cÄ±
Ġjeopo litik
ĠsÃ¼rdÃ¼rÃ¼le bilir
ĠFettah oÄŁlu
ĠAbdurrah man
ĠBulgar istan
Ġkartpost al
ĠDolandÄ±rÄ±cÄ± lar
ayriihtiyar i
. (
. `
2 3
2 8
3 2
5 3
5 7
5 8
6 2
6 8
7 50
8 8
8 84
9 5
9 00
A H
A L
A T
A m
A mer
A ÅŁÄ±
A EB
A Ä°S
B R
B er
B al
B ek
B ur
B iz
B it
B aÄŁ
B atÄ±
B olu
B oÄŁaz
B IST
B erg
B azÄ±
B rit
B artÄ±n
C K
C eza
C ona
C umartesi
C anlÄ±larÄ±n
D ar
D Ã¼z
D anÄ±ÅŁ
D aÄŁa
D oÄŁu
E C
E Y
E mek
E PGÄ°S
F ar
F utbol
F Ä±rat
F adi
F DK
F OX
F itch
G er
G el
G Ã¶r
G az
G Ãľ
G Ã¶k
G enÃ§
G Ã¼mÃ¼ÅŁ
H M
H R
H al
H as
H ol
H af
H us
H ani
H amidiye
H ong
H Ã¼rriyet
I FA
K ir
K or
K ul
K im
K az
K om
K uy
K Ã¼t
K ayy
K aÃ§ak
K remlin
K CK
L ER
L EB
L ock
M M
M il
M ur
M erkez
M ali
M Ãľ
M eteor
M eral
M avi
M etro
M edipol
M emur
M SB
M PÄ°
N azi
N ormal
N ijer
N ASA
N itelikli
O lay
O kan
O GM
O lasÄ±
P ers
P Ä±nar
P EK
P olis
P FDK
R I
R e
S t
S in
S ah
S us
S aÃ§
S uÃ§
S tar
S aray
S istem
S adece
S ultan
S ilahlÄ±
S iirt
S AD
S ayÄ±ÅŁ
S iyah
S okak
S Ä±nÄ±r
S ivas
S akarya
T C
T at
T em
T BM
T BB
T SS
U SK
V ergi
Y ap
Y emen
Y abancÄ±
Y PG
Y AP
Y Ä±pranma
Y ÃĸK
a x
a an
a ad
a os
b o
b Ã¶
b ek
b esi
b bi
b oz
b oÄŁaz
b oÅŁ
c es
c Ä±k
c Ã¼l
c inin
c uk
c ili
c hur
c unu
c Ä±sÄ±
c aÄŁÄ±
c ot
c ileri
c ilerin
c ektir
c uluk
c Cona
d or
d anÄ±
d Ã¼s
d unun
d rar
e u
e or
e dav
e one
e go
e IN
f e
f u
f on
f li
f ez
f uk
f alt
f san
f akta
g ay
g Ä±na
g ut
g Ä±z
g os
g ayÄ±
g Ã¶z
g esini
g ge
g Ã¶ren
g Ã¼yle
h as
h ey
h ol
h ale
h ley
h iÃ§
h bet
h lama
h aba
h ou
h ÅŁet
i e
i o
i ber
i oran
j e
j k
j de
j uela
k Ã¼r
k ti
k iye
k iler
k ot
k oz
k oloji
k erb
k lif
k arasÄ±
k uyu
k imya
l s
l es
l eli
l asÄ±nda
l ileri
l ock
l cÃ¼k
m p
m u
m inde
m larÄ±
m os
m eh
m ran
m ga
m Ä±yordu
m Ä±yoruz
m imizde
m paratorluÄŁu
n y
n al
n el
n esi
o le
o dan
o ol
o ya
o larÄ±
o od
p ur
p ler
p ool
r Ä±n
r asyon
r eti
r iste
s is
s Ä±r
s lu
s av
s Ä±ndan
s iyle
s alÄ±
s ef
s lerde
s Ã¼ne
s olos
s iyorlar
s aydÄ±
s pur
t s
t il
t anÄ±
t av
t aya
t eli
t Ã¼s
t usunda
t aban
t ansiyon
t unÃ§
t ehlik
u b
u an
u du
u larÄ±nÄ±
v a
v anlÄ±
v ideo
w n
w w
w ar
w ond
w ood
y ak
y Ä±l
y um
y eni
y unda
y eti
y sa
y aka
y ayÄ±z
y eterlilik
y lie
y Lock
z o
z u
z er
z in
z il
z on
z ur
z af
z likle
z bur
Ġ <
Ġ aya
Ġ lat
Ġ aÅŁÄ±
Ġ ast
Ġ Ä±ÅŁÄ±
Ä± bbi
an di
an am
an ce
an oÄŁlu
an larÄ±nÄ±
Ã¼ ÄŁÃ¼nÃ¼
ar o
ar an
ar ik
ar Ä±z
ar elik
ar ÅŁÄ±
ar do
ar ren
ar sanÄ±z
er en
er Ã§
er em
er ede
er lerine
er lek
er lerle
er lilik
in en
in le
in du
in ut
in sel
in cisi
in dama
in wood
ÅŁ ar
ÅŁ aat
ÅŁ ener
ÅŁ eller
Ä±n ay
Ä±n lama
Ä±n lanmÄ±ÅŁ
en ler
en si
en gen
en net
en ner
en yurt
il ki
il leri
il Ã§e
il lere
ÄŁ le
ÄŁ lÄ±k
ÄŁ Ã¼s
ÄŁ undan
ÄŁ fer
ÄŁ umuz
ÄŁ Ã¼nÃ¼z
Ã§ al
Ã§ el
Ã§ asÄ±
Ã§ inin
Ã§ eli
Ã§ ede
Ã§ Ä±lÄ±ÄŁÄ±
Ã§ ilerini
Ã§ eyle
Ã§ arÅŁÄ±
Ġb ine
Ġb oÄŁ
Ġb ut
Ġb Ã¼t
Ġb acak
Ġb any
Ġb aÄŁÄ±ÅŁ
Ġb ayi
Ġb itir
Ġb ana
Ġb ilenen
Ġb idon
Ġb eIN
al de
al es
al anÄ±
al om
al ih
al eti
al gÄ±
al masÄ±yla
al ha
Ġy e
Ġy em
Ġy av
Ġy endi
Ġy ed
Ġy atan
Ġk m
Ġk un
Ġk Ä±na
Ġk oÄŁ
Ġk edi
Ġk Ä±ldÄ±
Ġk Ã¼s
Ġk Ä±sÄ±
Ġk Ã¼p
Ġk ira
Ġk ump
Ġk enti
Ġk uyu
Ġk asÄ±m
Ġk anÄ±t
Ġk aos
de l
de ti
de ta
de laziz
de juela
ak aya
Ġs il
Ġs oÄŁ
Ġs af
Ġs op
Ġs ans
Ġs tan
Ġs ist
Ġs Ã¼p
Ġs iv
Ġs Ã¼sÃ¼
Ġs Ã¼tÃ¼n
Ġs akat
Ġs oli
Ġs kor
Ġs iyah
Ġs oÄŁuk
Ġs ustur
Ġs pik
Ġs aÄŁÄ±r
Ġs kunk
ir e
ir inin
ir eler
ir lik
ir taÅŁ
Ġg r
Ġg ri
Ġg ole
da m
da ÄŁÄ±
da ÅŁÄ±
el d
el iyiz
et ler
et inde
et te
et rok
ay m
ay lar
ay lÄ±
as p
as tÄ±r
as eb
di an
di miz
ek on
ek Ã¶y
ek wond
on ik
on lu
on gul
Ġt r
Ġt ay
Ġt Ä±r
Ġt ad
Ġt uz
Ġt uv
Ġt Ä±p
Ġt iti
Ġt ona
Ġt orun
Ġt Ã¶reni
Ġt ramv
Ġt Ä±bbi
Ġt ilki
Ġt alih
Ġo yla
Ġo cak
Ġo mur
dÄ± ma
es in
es li
es por
es kov
iy im
iy op
un us
un maz
un berg
Ġi ade
Ġi han
Ġi mam
Ġv ira
Ġv ide
Ġv aad
at ar
at Ä±ÅŁ
at tÄ±k
at oloji
at Ã§a
ĠB Ã¼r
ĠB az
ĠB ez
ĠB Ã¼y
ĠB ru
ĠB ih
ĠB oy
ĠB izi
ĠB ens
ĠB Ä°R
ĠB azÄ±
ĠB ektaÅŁ
ĠB artÄ±n
ĠB lock
am Ä±
am Ä±k
am asÄ±
am Ã¼l
am aya
am ada
am alÄ±
am Ä±yor
am bar
am Ä±yoruz
am ayacaÄŁÄ±nÄ±
Ġh or
Ġh um
Ġh elik
Ġh ort
Ġh aciz
Ġh aziran
Ġh iper
Ġh anÄ±m
Ġh urda
ur in
ur un
ur oda
ur nal
Ä±l gan
Ä±l acaÄŁÄ±nÄ±
Ä±l amam
li sten
ĠA A
ĠA laÅŁ
ĠA cÄ±
ĠA sel
ĠA mir
ĠA ÄŁa
ĠA SKÄ°
ĠA ÄŁÄ±zdaki
ĠA leyna
ĠA RI
Ġd uv
Ġd uvar
Ġd ondur
or o
or y
or man
or ilere
or dejuela
Ġm ar
Ġm it
Ġm Ã¼t
Ġm art
Ġm uv
Ġm Ã¼ttefik
Ġm obil
Ã¼r me
ul ma
ul aÅŁtÄ±r
ul masÄ±nÄ±
ul kes
em edi
em uh
em ber
em ediÄŁini
em mel
em eyecek
Ä±k Ä±
Ã¼n ist
Ġve da
Ä° V
Ä° ki
Ä° mam
Ä° Ãľ
Ä° lk
Ä° SKÄ°
Ä° letiÅŁim
Ä° kti
st in
st il
st it
st Ã¼m
st ri
ĠK as
ĠK em
ĠK ah
ĠK aya
ĠK erk
ĠK adÄ±
ĠK Ã¶y
ĠK iri
ĠK aan
ĠK ylie
ĠK erem
ĠK Ä±nay
ĠT u
ĠT ay
ĠT Ã¼m
ĠT ark
ĠT rak
ĠT Ã¶ren
ĠT SK
ĠT rafikte
ĠT Ã¶reni
ĠT anÄ±t
ĠT olga
ĠT AÄ°S
ĠT alha
ĠÃ§ el
ĠÃ§ alÄ±
ĠÃ§ aba
ĠÃ§ are
ĠÃ§ evre
ĠÃ§ Ã¼nkÃ¼
ĠÃ§ evir
ĠS o
ĠS or
ĠS Ä±k
ĠS iz
ĠS eÃ§
ĠS ta
ĠS Ã¼m
ĠS unu
ĠS unda
ĠS erk
ĠS ri
ĠS ilah
ĠS avc
ĠS ing
ĠS kandal
ĠS tad
ĠS Ä±nÄ±r
ĠS ivas
ĠS icili
ĠS akarya
ĠS cot
ĠS iber
ik le
ik ol
ik ah
ik leri
ik ali
ik ayet
ap ur
ap ov
ap oli
ĠM ak
ĠM el
ĠM et
ĠM ay
ĠM on
ĠM em
ĠM im
ĠM is
ĠM it
ĠM oÄŁ
ĠM uÅŁ
ĠM ed
ĠM Ã¼lt
ĠM eci
ĠM eme
ĠM KE
ĠM esel
ĠM ond
ĠM GM
ĠM EB
ĠM GK
ĠM KYK
ĠM OD
ĠM oder
ĠM eÅŁe
ĠM endy
ĠM atthew
ĠM cCona
ĠM inut
le ary
le bil
Ġil ler
Ġil inin
Ġil lerde
Ġil ham
Ġde a
Ġde meye
Ġde lil
Ġde hÅŁet
Ġbir Ã§
Ġbir isi
Ġbir leÅŁ
Ġbir leÅŁtir
Ġbir liÄŁinde
Ġbir liÄŁine
Ġbir leÅŁik
im den
im inde
im iyle
Ġol am
Ġol may
Ġol malÄ±
Ġol abilecek
Ġol muÅŁtu
Ġa ÄŁÄ±zdaki
Ġa deta
ey r
ey lan
ey dik
Ã¶r t
iÅŁ ir
ĠÄ° yi
ĠÄ° SP
ĠÄ° KÄ°
ĠÄ° gor
ĠÄ° mparatorluÄŁu
anÄ± ÅŁt
ti p
ti siz
ti sinin
az akar
az zaf
dan ur
ĠD O
ĠD ilen
ĠD Ã¼ÅŁ
ĠD Ã¼s
ĠD ede
ĠD ic
ĠD izi
ĠD anÄ±ÅŁ
ĠD ikar
ĠD iyad
ĠD olar
ĠD evrim
ĠD oktor
ĠD animark
ĠD odan
ĠD atÃ§a
ĠD eyr
ĠE z
ĠE ki
ĠE kinci
ĠE RKÄ°
ĠE liz
ĠE dinilen
is er
is iz
is iyat
is indeki
is san
is iyken
Ġp aya
Ġp ip
Ġp ide
Ġp ahal
Ġp ani
Ġp asapor
Ġp asaport
Ġp azartesi
Ġp etrok
ab y
ab Ä±nÄ±n
ab ilen
ab akat
ab ildiÄŁi
ab aka
um cuk
ĠÃ¶ ÄŁle
ĠÃ¶ lebil
du z
du lar
du ÄŁunu
Ġe dem
Ġe fsan
Ġe uroda
ĠG ir
ĠG ay
ĠG Ã¶n
ĠG ece
ĠG etir
ĠG azi
ĠG elen
ĠG rant
ĠG odin
ĠG uar
ĠG ayriihtiyari
ĠG andi
ĠG ordejuela
ĠG emuh
lÄ± larÄ±
lÄ± oÄŁlu
lÄ± ÄŁÄ±ndan
lÄ± ÄŁÄ±ndaki
ĠH A
ĠH am
ĠH ur
ĠH az
ĠH us
ĠH ot
ĠH ABER
ĠH arar
ĠH adi
ĠH oÅŁ
ĠH ugh
ĠH Ã¼rkuÅŁ
aÅŁk Ä±na
ah h
ah ey
ah larda
ah ri
iye v
asÄ± r
asÄ± z
Ġyap ma
Ġyap mayÄ±
Ġyap Ä±larÄ±
Ġyap mÄ±ÅŁtÄ±
Ġyap abilecek
Ġyap mayacak
ĠP ap
ĠP lan
ĠP lay
ĠP latform
ĠP azartesi
ĠP eskov
Ġar en
Ġar da
Ġar om
Ġar adÄ±
Ġar azi
Ġar ayla
Ġar ayÄ±p
Ġal Ä±k
Ġal Ä±na
Ġal Ä±r
Ġal masÄ±
Ġal maya
Ġal Ä±p
Ġal gÄ±
Ġal bay
Ġal madan
Ġal eyh
Ġal abileceÄŁine
esi h
ma dasÄ±
ma vi
ma casÄ±
it y
it il
it al
it ed
ya caÄŁÄ±nÄ±
Ä±r nak
Ã¼l te
Ã¼l gen
lan t
lan masÄ±nÄ±
lan masÄ±yla
ac i
ac k
ac il
ac aÄŁ
ac aÄŁÄ±na
ĠY o
ĠY az
ĠY Ã¼z
ĠY ok
ĠY aÄŁ
ĠY arÄ±
ĠY Ä±lÄ±
ĠY emek
ĠY ahya
ĠY ozgat
Ġf ort
Ġf ren
lu oÄŁlu
Ã¼k lÃ¼
Ã¼k ten
ĠiÃ§ eri
ĠF o
ĠF en
ĠF az
ĠF Ã¼z
ĠF ili
ĠF eli
ĠF iyat
ĠF enerbah
ĠF OX
ĠF esih
af ak
af ir
av is
av elin
av atan
Ġson bahar
ĠaÃ§ acaÄŁÄ±nÄ±
ĠC O
ĠC al
ĠC um
ĠC op
ĠC han
ĠC anan
ĠC eng
ĠC roy
ĠC addesi
ĠC MAS
ĠC lub
ĠC HR
ĠC ioran
ĠC leary
ĠC ity
ĠÅŁ en
ĠÅŁ aka
ĠÅŁ air
ĠÅŁ aÅŁkÄ±na
Ġda ÄŁa
Ġda yat
Ġda mga
alar Ä±ndaki
alar Ä±mÄ±z
iler iyle
ĠgÃ¶r eb
ĠgÃ¶r mez
ĠgÃ¶r Ã¼le
Ġn iye
Ġn eyi
Ġn afaka
Ġn ikah
eÃ§ ine
Ġet il
Ġet ki
Ġet me
Ġet miÅŁ
Ġet mesini
Ġet tim
len in
len ip
len meye
len miÅŁ
len meli
len melerden
ev er
ev ik
ev indeki
us e
us un
us Ä±kÄ±
ÅŁt en
Ã¶n Ã¼
ad aki
Ġkar a
Ġkar e
Ġkar ant
Ġkar go
lam alar
lam asÄ±nda
lam asÄ±yla
ut u
ut lu
ut ulmuÅŁ
Ġbul an
Ġbul duÄŁu
Ġbul muÅŁtu
Ġbul abilirsiniz
om ut
ec in
ec ilik
ĠyÄ±l an
ĠyÄ±l la
ĠyÄ±l ki
ĠyÄ±l Ä±ndan
ĠyÄ±l larÄ±nÄ±
ĠbaÅŁ lam
ĠbaÅŁ bak
ĠbaÅŁ lama
ĠbaÅŁ lamasÄ±
ĠbaÅŁ lamÄ±ÅŁtÄ±
ĠbaÅŁ lÄ±ÄŁÄ±yla
Ä±m Ä±nÄ±n
Ġgel erek
Ġgel meye
Ġgel miÅŁ
Ġgel miÅŁti
ĠaÃ§Ä±k lanÄ±yor
uk karasÄ±
Ġed er
Ġed ilir
Ġed ince
Ġed erim
ĠÃ¶n lÃ¼ÄŁÃ¼
ĠÃ¶n gÃ¶r
dÄ±r a
dÄ±r an
ĠgÃ¶ l
ĠgÃ¶ lg
Ġver iler
Ġver mek
Ġver ilir
Ġver miÅŁti
Ġver ilerinin
Ġver gisi
Ġver meden
Ġver eceÄŁiz
Ġver ilirken
Ġver ilmeye
Ġver siyon
Ġver meyin
Ġyar a
Ġyar Ä±sÄ±
Ġyar bay
Ġyar alama
Ġyar dÄ±ma
dir di
ro z
Ã¼y en
Ġ3 20
Ġbulun acak
Ġbulun masÄ±na
Ġbulun masÄ±nÄ±
Ġbulun muyor
Ġbulun muÅŁtu
edi k
edi klerini
Ġay lar
Ġay dan
Ġay dÄ±n
Ġay akk
ĠgÃ¼n Ã¼n
ĠgÃ¼n den
ĠgÃ¼n Ã¼ne
lÄ±k aya
Ġ5 9
Ġ5 50
Ġ5 45
Ä±z gar
ĠÃ§Ä±k mak
ĠÃ§Ä±k masÄ±nÄ±n
Ġz ar
Ġz ayÄ±
Ġz iyar
Ġz irv
ĠR o
ĠR am
ĠR om
ĠR ada
ĠR ize
ĠR TÃľ
ĠR ice
ĠR ost
ĠR ekabet
ĠR iyad
ĠR Ã¼zgar
ĠR Ã¶ntgen
ĠR andevu
ĠR Ä±zgar
let tir
ĠyaÅŁ at
ĠÃĸ len
ĠÃĸ lÃ¼
ĠÃĸ yle
ĠÃĸ dem
Ã¼m Ã¼zde
Ġbel ki
Ġan lÄ±yor
Ġan dÄ±ran
Ġr est
Ġr ast
Ġr adikal
Ġr eÃ§ine
op ar
op ter
op he
Åŀ ans
Åŀ Ä±rnak
Ġger isinde
Ġger gin
Ġger Ã§ekten
man Ä±nda
man uel
ilen dirdi
ĠkiÅŁ ilere
ĠgeÃ§ iyor
ĠgeÃ§ idi
ĠgeÃ§ tikleri
ĠgeÃ§ tiler
laÅŁ an
os unu
os unda
os ef
ĠÃĩ Ä±k
ĠÃĩ aÄŁ
ĠÃĩ if
ĠÃĩ erkez
ĠÃĩ iÄŁdem
ĠÃĩ algÄ±
ĠÃĩ orman
ĠÃĩ ember
ĠÃĩ itil
ĠÃĩ evik
Ġen teg
Ã¼ÅŁ Ã¼nÃ¼n
Ġbin alar
Ġbin alarÄ±nÄ±
Ġkon unun
Ġkon ulu
Ġkon uyu
Ġkon seri
Ġkon feransÄ±
Ġkon usundaki
Ġkon ferans
Ġkon kordato
Ġkon solos
alÄ±ÅŁ la
iyor du
iyor dun
Ã¼t me
Ã¼t tÃ¼
ilm eleri
uÅŁ u
uÅŁ ba
uÅŁ masÄ±nda
ĠL o
ĠL ist
ĠL ank
ĠL inwood
ĠL ahey
ĠsÃ¼r eli
ĠsÃ¼r gÃ¼n
eye bilir
ĠiÅŁ ler
ĠiÅŁ bir
ĠiÅŁ lendi
ĠiÅŁ lendiÄŁi
ĠÃ§alÄ±ÅŁ tÄ±
ĠÃ§alÄ±ÅŁ mak
ĠÃ§alÄ±ÅŁ arak
ĠÃ§alÄ±ÅŁ maya
ĠÃ§alÄ±ÅŁ Ä±p
ĠÃ§alÄ±ÅŁ manÄ±n
ĠÃ§alÄ±ÅŁ tÄ±klarÄ±
ĠdÃ¼zen leyerek
ĠEr ol
ĠEr tan
ĠEr ken
ĠEr iv
ĠEr gÃ¼n
ĠEr dem
ĠEr kan
ĠEr dek
ĠEr bil
ĠEr zur
ĠEr Ã§el
Ġc ek
Ġc oÄŁraf
Ġc addesi
Ġc asusluk
Ġc ennet
acak tÄ±
asyon lara
Ġyer in
Ġyer den
Ġyer ken
ĠN a
ĠN il
ĠN ah
ĠN ov
ĠN asÄ±l
ĠN eden
ĠN evr
ĠN azlÄ±
ĠN ormal
ĠN Ã¶bet
ĠN ew
ĠN isan
ĠN Ã¼kleer
ĠN itelikli
ĠN otunuzu
ĠN zon
ĠN erede
ĠN esli
ĠN amÄ±k
ĠN ikol
ĠN apoli
Ã¼s Ã¼n
ans Ä±nÄ±n
ans ever
Ġkad Ä±na
Ġist eyerek
tan at
tan cÄ±
ĠyÃ¼z Ã¼k
ĠyÃ¼z Ã¼nden
ĠyÃ¼z yÄ±l
ken li
ken ceye
Ġkay ma
ĠPar kÄ±
ĠPar lament
ist i
Ġin anan
Ġin miÅŁ
Ġin cir
Ġin ekte
Ġin isiyat
Ġdi yorum
Ġbelir lem
Ġbelir gin
Ġbelir sizlik
Ġ4 7
Ġ4 20
Ġ4 00
Ġkal masÄ±
Ġkal acak
Ġkal Ä±yor
Ġkal madÄ±
Ġkal enin
Ġkal masÄ±nÄ±
Ġkal Ä±yordu
Ġkal abalÄ±k
Ġkal amÄ±yoruz
unu yor
ĠaÃ§Ä±klam ayan
ĠaÃ§Ä±klam asÄ±yla
ĠaÃ§Ä±klam alarÄ±nÄ±n
ĠaÃ§Ä±klam asÄ±ndan
der ek
Ġbil irk
ĠilÃ§ elerde
ĠAn d
ĠAn avatan
Ġel ine
Ġel inden
Ġel lerinde
Ġel lerinden
Ġel enen
per fi
ĠÅŀ ok
ĠÅŀ eri
ĠÅŀ alom
ĠÅŀ ikayet
ĠÅŀ afak
Ġhak tan
Ġhak larÄ±nÄ±n
Ġhak sÄ±z
Ġkur larÄ±
Ġkur ucu
Ġkur duÄŁu
Ġkur larÄ±ndaki
Ġkur malarÄ±
Ġkur usÄ±kÄ±
cÄ± yla
ĠÃ¼z Ã¼cÃ¼
ra j
ra dÄ±
ĠV an
ĠV ar
ĠV atik
ĠkarÅŁ Ä±lÄ±
Ġ6 6
Ġuy andÄ±ÄŁÄ±
Ġuy anÄ±k
Ġuy madÄ±ÄŁÄ±
Ġsor muyor
Ġdedi ÄŁimiz
ada mlarÄ±
elik le
Ġdev asa
ĠbÃ¶ l
ĠbÃ¶ yl
tÄ±r mak
ĠCumhur baÅŁkan
Ġtaraf Ä±
Ġtaraf Ä±nda
Ġtaraf lara
Ġtop ar
Ġtop layan
Ġtop ladÄ±ÄŁÄ±
Ġtop layarak
Ġtop lanma
aÄŁÄ± m
ĠyÃ¶n e
ĠyÃ¶n etic
ĠyÃ¶n elt
Ġdur maya
ne ÄŁini
Ġkul Ã¼b
Ġkap ak
Ġkap Ä±sÄ±nda
Ġkap kaÃ§
Ġkap tanÄ±
iyet ini
doÄŁ du
ĠterÃ¶r den
Ġoy alama
Ġdep oda
Ġdep osu
Ġdep osundan
ekt iler
ip in
ip aÅŁa
ip to
ĠU may
ĠU mar
ĠU mut
ĠU tah
ĠU LEB
ĠU fuk
ĠU slu
ers e
Ġyak Ä±ÅŁ
Ġyak tÄ±ÄŁÄ±
Ġyak alama
Ġyak alam
ĠAk y
ĠAk Ä±l
ĠAk Ä±m
ĠAk fa
ĠAk ÅŁam
ĠAk tif
ĠAk kuyu
ĠAk ÅŁener
eb iliyor
eb ilecek
eb ilme
ĠHaber i
Ä±lÄ± ÄŁÄ±na
ed in
ed iler
Ġetti ÄŁimiz
eti dir
ĠmÃ¼ steÅŁ
ĠÃ¶ÄŁr etime
ĠÃ¶ÄŁr etmeni
ĠÃ¶ÄŁr endim
sa di
Ġ201 2
oy ol
oy unda
Ġkat Ä±n
Ġkat Ä±na
Ġ7 6
Ġ7 9
Ġ7 60
Ġhaber le
Ġhaber inde
Ġhaber inin
Ġhaber leÅŁ
ĠAv ustur
Ġev r
Ġev ler
Ġev ine
Ġev lenen
Ġev lerin
Ġev lerinden
Ġev ren
mas Ä±ndaki
ram an
ram adan
imiz le
imiz deki
ĠÃľ ret
ĠÃľ mit
ĠÃľ mran
ĠyapÄ±lan masÄ±
Ġyan k
Ġhay ali
Ġhay Ä±rlÄ±
ĠgÃ¼ cÃ¼
ĠgÃ¼ veni
Ġdeprem inde
Ġtut umu
Ġtut manÄ±n
ĠÃ§ok luÄŁ
ĠalÄ±n d
ĠalÄ±n arak
ĠalÄ±n amayan
Ġhakk Ä±nÄ±
Ġgir iyor
Ġgir eceÄŁini
Ġgir miÅŁti
Ġgir ilemeyen
Ġat am
Ġat Ä±ÅŁ
Ġat Ä±lan
Ġat ama
Ġat Ä±ldÄ±ÄŁÄ±
Ġat Ä±lmasÄ±
Ġat Ä±ÅŁÄ±
Ġat arlar
Ġat mos
Ġiddi aya
Ġiddi alara
Ġiddi alarÄ±ndan
ĠAl in
ĠAl tÄ±
ĠAl tan
ĠAl Ä±nan
Ġneden leri
ĠgÃ¶ster ir
ĠgÃ¶ster ecek
Ġsal ondaki
Ġsal tanat
ĠI car
Ġes er
Ġsah anÄ±n
mek te
mek Ã¶y
Ġgelen eksel
Ġot el
Ġot okratik
Ġot opark
Ġot oyol
ĠgÃ¶z e
ĠgÃ¶z leme
Ġkayb Ä±
Ġkayb ede
Ġkayb ediyor
Ġ9 84
ĠdÃ¶n Ã¼k
ĠdÃ¶n mek
ĠdÃ¶n Ã¼ÅŁt
ĠMÃ¼ ge
Ġyol da
Ġyol un
Ġyol larÄ±
ĠolduÄŁ unun
ĠolduÄŁ unca
ĠolduÄŁ umuzu
Ġmilyon dan
ĠÃ¶ÄŁren im
Ġ10 5
ĠÃĸz er
ĠÃĸz han
ĠÃĸz yaÅŁ
Ġoperasyon a
Ġoperasyon lar
ĠAr dÄ±ndan
ĠAr acÄ±
Ġalan daki
Ġalan larda
ĠdÃ¼n kÃ¼
ĠdÃ¼ÅŁ me
ĠdÃ¼ÅŁ erken
ĠdÃ¼ÅŁ mÃ¼yor
ĠJ ef
ĠJ air
ĠJ ustin
ĠJ enner
ĠJ avelin
ĠJ osef
Ã¼p han
ĠÃ¶l Ã§
Ġgerek ti
Ġak l
Ġak la
Ġak lÄ±
Ġak Ä±ÅŁ
Ġak sam
Ġak tif
Ġak sak
Ġak rab
Ġak aryakÄ±
ĠKur t
ĠLi ver
ĠLi gin
ĠLi deri
Ġgetir diÄŁi
ulu yor
ĠsaldÄ±r Ä±sÄ±
sel dor
Ã§Ä± larÄ±n
Ġyay la
Ġyay Ä±lan
Ġsonra dan
ĠÃ¶r t
ĠÃ¶r neÄŁi
ĠÃ¶r neÄŁini
ĠÃ§ek in
ĠÃ§ek iÅŁ
ĠÃ§ek me
ĠÃ§ek erek
ĠÃ§ek meye
ĠÃ§ek ildiÄŁi
Ġedildi kten
if ade
met li
ĠmaÃ§ a
ĠmaÃ§ Ä±nÄ±
ĠmaÃ§ larÄ±n
ĠmaÃ§ larla
leÅŁ ti
leÅŁ meye
ĠÄ°n s
ĠÄ°n al
ĠÄ°n ÅŁaat
Ġzam lar
Ġzam larÄ±
Ġzam lanan
Ġzam lara
Ġzam mÄ±nÄ±n
ĠZ uc
ĠZ Ã¼mr
ĠZ iya
ĠZ orun
ĠZ ongul
Ġtek noloji
Ġtek erlek
art Ä±k
Ġser di
Ġser gi
Ġser gisi
ĠseÃ§ ti
ĠSur iyel
ĠkarÅŁÄ± yayÄ±z
ef i
Ġhav alar
Ġhav ale
Ġhayat Ä±nÄ±n
Ġhayat Ä±mÄ±zda
ic k
ic o
ic ass
ĠsuÃ§ unu
Ġpolis ler
anda yla
anda sÄ±
Ġyaz Ä±k
Ġtak ma
Ġtak dir
Ġtak tik
Ġtak Ä±ldÄ±ÄŁÄ±
Ġtak Ä±ma
Ġtak acaktÄ±
iyat riste
Ġeden ler
Ġeden lerin
Ġgeldi m
Ġgeldi kten
Ġifade ler
Ġifade lerinin
Ġifade leriyle
maz lÄ±ÄŁÄ±nÄ±n
ent alarÄ±
ĠkaÃ§ a
ĠkaÃ§ mak
ĠkaÃ§ arken
Ġcez asÄ±nÄ±n
ĠBir inci
ĠBir takÄ±m
ri b
Ġey aleti
ĠhazÄ±r Ä±z
ĠhazÄ±r landÄ±
ĠhazÄ±r lanÄ±
ĠhazÄ±r layan
ĠhazÄ±r lÄ±ÄŁÄ±ndaki
ĠdoÄŁ a
ĠdoÄŁ an
ĠdoÄŁ usunda
ĠdoÄŁ muÅŁ
ĠdoÄŁ usundaki
Ġcin siyet
Ġcin slerde
Ġih barÄ±yla
ali Ã§e
Ġaz alÄ±ÅŁla
Ġalt Ä±ndan
ĠsÃ¶yle d
Ġ8 2
Ġ8 9
Ġ8 64
Ġ8 71
Ġuz attÄ±k
Ġkaz Ä±
Ġkaz asÄ±
Ġkaz mak
Ġkaz alarda
Ġkaz alara
Ġkaz andÄ±ÄŁÄ±
Ġkendi si
ĠsaÄŁ layan
ĠsaÄŁ lama
ĠsaÄŁ lÄ±yor
Ġek me
Ġek mek
Ġek ledi
Ġek sen
Ġkam ulaÅŁtÄ±r
ĠYar Ä±ÅŁ
ĠYar dÄ±mc
Ġdav alarÄ±
Ġdav ranÄ±n
Ġbelirt iyor
Ġbelirt tikleri
Ġdurum unu
ĠÃ¶rgÃ¼t e
ĠÃ¶rgÃ¼t lerinin
ĠÃ¼lk elerin
ĠÃ¼lk elerine
ĠÃ¼lk eleriyle
ĠBaÅŁ bu
Ġdo larÄ±n
Ġpar alar
Ġpar ayÄ±
Ġpar lament
ĠÃ¶ldÃ¼r dÃ¼ÄŁÃ¼
ĠW at
ĠW SJ
ĠW arren
Ġli g
Ġli man
ĠÃ¼r Ã¼nÃ¼
ĠÃ¼r eticiler
ĠÃ¼r emenin
ĠKon uyla
ĠKon uÅŁmasÄ±nda
ĠAnkara gÃ¼
Ġsay Ä±lan
Ġsay esinde
Ġsay Ä±sÄ±nda
Ġsay Ä±mÄ±z
ley i
ley iÅŁ
Ġhafta da
Ġhafta dÄ±r
Ġkaybet miÅŁ
Ġkaybet miÅŁti
Ġkaybet tim
Ġduy duÄŁu
ĠkadÄ±n larÄ±
ĠsÃ¶z Ã¼nÃ¼
Ġekip ler
sÄ± fÄ±r
tik Ã§e
Ã¶z Ã¼
Ġmed yanÄ±n
ĠgÃ¶rÃ¼ÅŁ me
ĠgÃ¶rÃ¼ÅŁ ecek
ĠgÃ¶rÃ¼ÅŁ lere
ĠgÃ¶rÃ¼ÅŁ mesini
ĠgÃ¶rÃ¼ÅŁ eceÄŁim
ĠterÃ¶rist lerin
FA Åŀ
cak tepe
ĠyÃ¼k Ã¼n
ĠyÃ¼k Ã¼m
ĠyÃ¼k Ã¼nÃ¼
ĠBu ca
Ġtarih ine
20 12
Ġverdi ÄŁini
Ġetkis ini
Ġkr ize
Ġkr onik
Ġkr ediler
ĠAy dan
ĠAy ÅŁen
Ġad Ä±nda
Ġad liye
ĠdeÄŁiÅŁ en
dÄ±ÅŁ Ä±
Ġik iz
Ġik isi
Ġik lim
Ġmes net
ĠTÃ¼rk an
ĠTÃ¼rk Ak
abil iyor
abil ite
ĠÅŁÃ¼ph emiz
Ġkarar lar
ĠkÃ¶ k
ĠkÃ¶ le
Ġok un
Ġok ur
Ġok um
Ġok uyor
ĠgÃ¶rev leri
ĠgÃ¶rev inden
ĠgÃ¶rev lendir
ĠgÃ¶rev lilerin
ĠÃ¶nce den
ĠOr en
ĠOr kes
ĠgÃ¼ven ce
ĠalÄ±ndÄ± ÄŁÄ±nÄ±
iÃ§ ine
Ġbek Ã§i
Ġbek ledi
Ġbek leyen
Ġbek lendiÄŁini
Ġbek lerken
Ġbek leyiÅŁ
Ġgazet e
Ġgazet esine
Ġgazet elerinden
ĠdÄ±ÅŁ Ä±ndaki
Ġsat Ä±r
Ġsat Ä±lÄ±k
Ġsat masÄ±nÄ±
Ġsat Ä±lÄ±yor
lendir di
Ġsev en
Ġsev dik
Ġsev iyorum
Ġsev indir
Ġsev erlerle
ĠKor el
ĠKor kunÃ§
ĠKom Ã¼nist
Ġolay da
Ġolay lar
Ġolay Ä±nÄ±n
Ġolay larda
ĠDevlet e
ĠDevlet i
ĠDevlet in
tr ali
Ġer dir
Ġer tel
ĠEy lem
Ġbildir iliyor
Ġtah v
Ġtah tasÄ±
Ġtah sis
Ġder t
acaÄŁÄ± m
Ġkullan arak
Ġkullan mayÄ±
An ne
ĠÃ¼y elerinden
ĠÃ¼y eliÄŁine
ĠeÅŁ el
ĠeÅŁ ya
ĠeÅŁ leri
ĠeÅŁ eysiz
ĠÃ¶nem lisi
ĠsaldÄ±rÄ± dan
ĠsaldÄ±rÄ± yÄ±
ep siyon
aÅŁtÄ±r an
aÅŁtÄ±r dÄ±
aÅŁtÄ±r ma
ĠÃ§alÄ±ÅŁmalar da
ĠÃ§alÄ±ÅŁmalar Ä±nÄ±n
Ġmedya dan
adÄ± ÄŁÄ±nÄ±
tay Ä±mÄ±zÄ±
Ãľ L
Ãľ mit
Ġyok uÅŁ
Ġyok sa
Ġvar lÄ±ÄŁÄ±nÄ±n
Ġayr Ä±lan
Ġayr Ä±ldÄ±ÄŁÄ±
Ġayr Ä±lÄ±r
iversit e
mÄ±ÅŁ tÄ±r
ĠsÄ±r aladÄ±
Ġsaat te
Ġsaat lerde
Ġsaat lerinden
Ġtem as
Ġoyun larÄ±
Ġdolar ken
may alÄ±m
Ġden e
Ġden ize
Ġden ediÄŁini
Ġden gesini
ĠÃ§arp Ä±cÄ±
leÅŁtir ilmiÅŁ
Ġfiyat larda
Ġfiyat larÄ±nda
Ġfiyat larÄ±ndaki
ĠgeÃ§ir iyor
ĠgeÃ§ir meye
ĠÃĩelik ler
Ġbak tÄ±ÄŁÄ±
Ġbak layÄ±
Ġbak Ä±ldÄ±ÄŁÄ±nda
Ġada sÄ±
ĠaldÄ± k
ĠaldÄ± klarÄ±
ĠdeÄŁil iz
alet en
Ġsan ki
Ġsan dal
Ġmer h
Ġmer cek
Ġmer diven
ĠTr avis
ĠSu dan
ĠSu baÅŁÄ±
ĠsoruÅŁtur malar
Ġam atÃ¶r
Ġam ino
ĠyÃ¼r Ã¼m
ĠhÃ¼kÃ¼m lÃ¼
ĠTek in
Ġarac Ä±nÄ±n
id or
lanÄ± r
ĠuÃ§ masÄ±nÄ±n
ĠyayÄ±n Ä±na
ĠyayÄ±n ladÄ±
se x
Ġiz lenen
Ġiz leyen
Ġiz leme
ĠBil gi
ĠBil etleri
ĠSer vis
ĠSer maye
ĠEs enyurt
ĠbaÅŁv urdu
ĠtartÄ±ÅŁ malÄ±
Ġhapis hane
Ġkes ti
Ġkes kin
Ġkes erek
Ġkes imi
Ġkes iÅŁir
lendi kten
ĠÃ§Ä±kar larÄ±
ĠÃ§Ä±kar mak
ĠÃ§Ä±kar Ä±lmasÄ±
ĠÃ§Ä±kar Ä±lmasÄ±nÄ±
ĠpaylaÅŁ an
ĠpaylaÅŁ Ä±lan
ĠpaylaÅŁ tÄ±ÄŁÄ±
ĠpaylaÅŁ Ä±lmÄ±ÅŁ
Ä±lmasÄ± yla
ĠTem o
Ġfark lar
Ġfark Ä±ndalÄ±k
fa iye
kat il
Ġyet erlilik
Ġmet rek
ĠaÄŁÄ±r lÄ±k
ĠaÄŁÄ±r ladÄ±ÄŁÄ±
ĠaÄŁÄ±r lÄ±ÄŁÄ±nÄ±
ĠaÄŁÄ±r lÄ±ÄŁÄ±nda
ĠAd alar
ĠAd liye
ĠÃ§ocuk larÄ±n
ĠÃ§ocuk larÄ±nÄ±
ĠÃ§ocuk larÄ±na
ĠÃ§ocuk lardaki
ĠSan zo
ĠSan trali
ĠÃĸn er
ĠkonuÅŁ ulan
ĠkonuÅŁ masÄ±yla
ĠdeÄŁer ler
oz yon
tÃ¼ dy
Ġkol ye
Ġkol tuk
ĠKar arÄ±
Ġzor lanan
Ġbilg ilerini
ĠdÃ¶nem in
ĠdÃ¶nem inden
ĠdÃ¶nem lerde
ĠseÃ§im le
ĠseÃ§im lerini
ĠseÃ§im lere
ĠseÃ§im lerine
Ġlider iyle
ĠhÃ¼kÃ¼met e
ĠhÃ¼kÃ¼met ine
ĠhÃ¼kÃ¼met inin
uc usu
uc ize
ĠkÄ±s Ä±m
ĠkÄ±s aca
Ġail elerin
ĠbaÅŁladÄ± lar
ĠkaldÄ±r mak
ĠgÃ¼Ã§ lerine
Ġzaman lar
ĠgerÃ§ekleÅŁtir ildi
ĠgerÃ§ekleÅŁtir ecek
ĠgerÃ§ekleÅŁtir iliyor
Ġasker lerinin
ciler iyle
ide ki
Ġsiyas etidir
Ġav lus
ĠsonuÃ§ lar
ĠsonuÃ§ lara
ĠsonuÃ§ larÄ±nÄ±n
Ġhastan e
Ġhastan eleri
Ġhastan elere
Ġdikkat le
dur nu
ust a
ĠEn is
ĠEn flasyon
ĠEn donezya
ĠEn stit
ĠgeliÅŁ mesi
ĠgeliÅŁ irken
ĠgeliÅŁ mesiyle
ĠÃ¶zel lik
ĠÃ¶zel liÄŁi
Ġdestek lere
Ġdestek lerine
ĠyargÄ±lan masÄ±na
Ġtespit ine
ĠbÄ±rak an
ĠbÄ±rak mayÄ±
ĠbÄ±rak maktan
ĠyanÄ± sÄ±r
Ġmuh alef
Ġmuh teli
ĠEm in
ĠEm manuel
ĠyapÄ±l masÄ±nÄ±
ĠyapÄ±l mÄ±ÅŁtÄ±
Ġ30 9
ĠyaÅŁam Ä±na
ĠyaÅŁam Ä±ÅŁ
ĠtakÄ±m Ä±n
ĠtakÄ±m da
ĠtakÄ±m larÄ±ndan
Ġtamam Ä±
Ġtamam Ä±nÄ±
Ġtamam Ä±nÄ±n
Ġtamam lanan
Ġtamam layan
sÄ±z lÄ±ÄŁÄ±
Ġko operatif
Ġko stÃ¼m
Ġgenel de
ĠÄ°st asyon
ĠÄ°st eyen
ĠÄ°st asyonu
Ġ11 0
Ġ19 70
Ġ19 80
Ġ19 99
Ġokul a
Ġokul lar
Ġmerak lÄ±larÄ±
Ã¼yor lar
Ġbab asÄ±na
Ġbab asÄ±ndan
ĠbaÄŁ larÄ±nÄ±n
ĠbaÄŁ lantÄ±
ĠbaÄŁ lamÄ±ÅŁtÄ±
ĠsÄ±k lÄ±ÄŁÄ±
Ġgrup larÄ±nÄ±n
Ġboy andÄ±ÄŁÄ±
Ġboy kot
ĠyatÄ±r Ä±mÄ±
ĠÄ°ÅŁ leri
ĠÄ°ÅŁ can
ĠÄ°ÅŁ Ã§iler
ĠÄ°ÅŁ Ã§ileri
ĠÄ°ÅŁ kenceye
ĠÄ°ÅŁ adamlarÄ±
ĠDem ek
Ġediyor um
Ġediyor uz
ĠaraÅŁtÄ±r maya
ĠaraÅŁtÄ±r mada
Ġfilm lerinden
okr as
ĠyaÅŁanan lar
Ġisim lerden
Ġben ce
ĠMahkem esinde
ĠMahkem esindeki
ĠMahkem esince
Ġede bilecek
ahat ma
Ġ17 1
Ġ17 83
Ġfaz l
Ġdair esinde
Ġoyn ay
ĠakÅŁam Ä±
ĠÅŁirket ler
ĠÅŁirket lerinin
ĠÅŁirket lerine
ag on
Ġbur un
Ġbur asÄ±
Ġbur aya
Ġbur adan
Ġbur ulma
Ġkend iliÄŁinden
det tiÄŁi
Ġim ha
Ġim paratorluÄŁu
ĠAt aklÄ±
ĠSÃ¶z cÃ¼
ĠEt iyop
ĠgÃ¼ndem den
ĠgÃ¼ndem ini
ĠanlaÅŁ Ä±lan
ĠanlaÅŁ maya
ĠanlaÅŁ abileceÄŁini
ilmek imi
Ġtoplam aya
Ġproj ede
Ġproj esine
Ġproj elerine
Ġproj elere
Ġproj elerini
Ġproj elerinde
ĠgÃ¶steriler e
ĠgÃ¶steriler inin
Ġeylem ini
Ġeylem leri
Ġeylem lerin
Ġhesab Ä±na
ĠaÅŁ an
Ġkom isyon
ĠKan dÄ±ra
ĠGÃ¼ven liÄŁinin
Ġ14 2
ĠkarÅŁÄ±l adÄ±ÄŁÄ±
ĠkullandÄ± ÄŁÄ±nÄ±
ĠkullandÄ± klarÄ±
Ġprogram larÄ±
Ġprogram Ä±nÄ±n
Ġgetirildi ÄŁi
Ġgetirildi ÄŁini
ch ain
ch ester
ĠaraÃ§ lar
ĠaraÃ§ la
ĠaraÃ§ larÄ±n
ĠaraÃ§ lara
ĠaraÃ§ larÄ±na
ĠiÃ§er isinden
ĠiÃ§er ikleri
ĠiÃ§er isindeki
Ġetkin likle
ĠÃĸr tÃ¼s
ĠÃ§alÄ±ÅŁan lar
ĠÃ§alÄ±ÅŁan lara
ĠgerÃ§ekleÅŁ tiÄŁi
ĠgerÃ§ekleÅŁ tiÄŁini
Ġaday Ä±n
Ġaday larÄ±n
Ġsun acak
Ġmahkem esinde
Ġmahkem ede
Ġmahkem eleri
ĠarkadaÅŁ lar
ĠarkadaÅŁ larÄ±yla
ĠVal da
ĠbÃ¶lÃ¼m de
ĠbÃ¶lÃ¼m Ã¼n
ĠbÃ¶lÃ¼m lerini
ĠbÃ¶lÃ¼m Ã¼nÃ¼
Ġkapat Ä±ldÄ±ÄŁÄ±
Ġkapat Ä±lÄ±rken
ĠgiriÅŁ ine
Ġsahip liÄŁi
Ġsahip lerinin
Ġsahip liÄŁinde
ĠgÃ¶Ã§men lerin
mayan lara
Ġtur iz
Ġtur unda
Ġtur unun
Ġtur nik
ĠBaÄŁ lÄ±kaya
ĠolmadÄ± klarÄ±
ĠGÃ¼n er
ĠGÃ¼n leri
ĠGÃ¼n baÅŁ
ĠÃ¶ner diÄŁi
ĠÃ¶ner iliyor
ĠÃ¶ner isinde
ĠÃ¶ner ilerde
ĠyardÄ±m Ä±yla
Ġkurul masÄ±
Ġkurul masÄ±nÄ±
ĠdeÄŁiÅŁik liÄŁe
ĠdeÄŁiÅŁik liÄŁin
ĠdeÄŁerlendir mede
ĠdeÄŁerlendir melere
Ġyurt dÄ±ÅŁ
Ġkor idor
Ġkor ozyon
Ġsistem ini
Ġsistem lerinin
Ġsistem imizi
Ġte orilere
ĠtaÅŁÄ± t
ĠtaÅŁÄ± ma
ĠtaÅŁÄ± dÄ±ÄŁÄ±nÄ±
ĠtaÅŁÄ± yacaÄŁÄ±nÄ±
ĠDon an
Ġ16 3
Ġ16 7
ĠkararÄ± yla
Ġyasa dÄ±ÅŁÄ±
ĠProf esyon
ĠyÃ¼rÃ¼t Ã¼ldÃ¼ÄŁÃ¼
ĠyatÄ±rÄ±m cÄ±lar
ĠÃĸrgÃ¼t Ã¼n
Ġbor s
Ġbor usu
Ġbor cunu
ĠkÄ±z a
ĠkÄ±z dÄ±r
Ġkamp larÄ±
Ġkamp larÄ±na
Ġkamp anya
ĠBor sa
Ġhan e
Ġhizmet lerindeki
Ġmal um
ĠSÃ¼ hey
ĠSÃ¼r Ã¼cÃ¼
Ġilan lar
Ġilan larÄ±na
ĠÄ°mam bayÄ±ldÄ±
ĠDen etim
ĠYeni den
ĠOk Ã§ular
ĠOk usun
Ġistedi klerini
Ġcinayet lerine
Ġkamyon un
Ġduyurdu ÄŁu
ĠsÄ±nÄ±f lara
ĠsÄ±nÄ±f landÄ±rdÄ±ÄŁÄ±
ĠbaÅŁvuru da
ĠbaÅŁvuru larÄ±nÄ±
ĠbaÅŁvuru larÄ±nÄ±n
fer e
Ġci var
Ġci varÄ±
ĠyaÄŁÄ±ÅŁ larÄ±n
Ġkit abÄ±nÄ±n
ĠgÃ¶n Ã¼l
ĠBay ar
ĠBay Ã¼lgen
Ġhat tÄ±
Ġhat larÄ±ndaki
Ġmak in
ĠTar Ä±m
ĠTar rant
ĠYÃ¶n lendirme
Ġorman da
Ġorman larÄ±na
Ġhasar lÄ±
ĠyayÄ±m layan
ĠyayÄ±m lanmÄ±ÅŁ
Ġparti de
Ġparti sine
Ġkredi siyle
ĠkarÅŁÄ±laÅŁ ma
ĠkarÅŁÄ±laÅŁ tÄ±ÄŁÄ±
ĠkarÅŁÄ±laÅŁ mayÄ±
meler de
meler ini
Ãĩ ocuk
Ãĩ ocu
Ġkoy an
Ġkoy maya
Ġkoy ulanlar
Ġkent indeki
ast asi
ĠYÄ±l lÄ±k
ĠOt el
Ġziyaret e
Ġziyaret leri
Ġziyaret Ã§i
Ġann eler
Ġann eleri
Ġanlat Ä±rken
Ġanlat mÄ±yoruz
ĠsÃ¼rdÃ¼r en
ĠsÃ¼rdÃ¼r dÃ¼ÄŁÃ¼
Ġdevr ine
ĠJo e
ĠJo urnal
ĠBaÅŁsavc Ä±sÄ±
ĠulaÅŁ Ä±m
ĠulaÅŁ abilirsiniz
ĠulaÅŁ abilmesi
ĠulaÅŁ abileceÄŁiniz
DÃ¼nya da
Ġyen ik
Ġyen erek
Ġkab a
deÅŁ en
Ġplan larÄ±nÄ±
Ġplan ladÄ±ÄŁÄ±
Ġplan lÄ±yor
Ġplan larÄ±mÄ±z
ĠÃ¶lÃ¼m Ã¼n
ĠGÃ¶ lcÃ¼k
Ġfutbol unun
Ġfutbol sever
ĠFestiv al
Ġkonu ya
Ġkonu larÄ±
ĠBakan Ä±na
ĠiÅŁlem leri
ĠiÅŁlem eye
Ġbilin Ã§
Ġbilin miyor
Ġsorun lara
Ġsorun umuz
ĠUz man
Ġhaft alarda
Ġhaft asonu
Ġotur um
Ġotur urken
ĠdÃ¼ÅŁÃ¼r me
ĠdÃ¼ÅŁÃ¼r ecek
ĠdÃ¼ÅŁÃ¼r meye
ĠyÃ¼ksel ten
ĠKomut an
Ġsokak lara
Ġsokak larda
Ġhareket lerinin
Ġhareket lilik
Ġhareket lenmelerden
Ġhareket lendirdi
ĠyanÄ±t Ä±nÄ±
Ġiyi ce
ĠKo ca
ĠKo alisyon
ĠKo operatif
ĠDoÄŁ ru
Ġ18 3
ĠyÃ¶netim iyle
Ġduyur an
Ġotomob ili
ĠgÃ¶nder di
ĠgÃ¶nder me
ĠgÃ¶nder mek
ĠgÃ¶nder ilmeye
gel enme
son aro
Ġbas Ä±ldÄ±
ĠsektÃ¶r Ã¼
ĠsektÃ¶r Ã¼ndeki
Ġham l
Ġham si
ĠKr al
ĠKr aliyet
ĠÃ§ocu ÄŁuna
ĠÃ§ocu ÄŁum
ĠSel ek
Ġart tÄ±ÄŁÄ±
ĠfotoÄŁraf Ä±nÄ±
ĠaÃ§Ä±l Ä±mÄ±
ĠaÃ§Ä±l Ä±ÅŁÄ±
ĠyangÄ±n larda
ĠgÃ¶sterdi kleri
ĠdeÄŁiÅŁtir mek
ĠdeÄŁiÅŁtir iyoruz
Ġbeklen medi
ĠKomisyon unda
ĠsÄ±nÄ±r lÄ±
Ġuygulam anÄ±n
Ġuygulam asÄ±yla
ĠYÃ¶netim ler
iliÅŁ inin
ĠgÃ¼zel in
ĠgÃ¼zel liÄŁi
Ġdar alma
Ġmem el
Ġmad al
ĠoluÅŁ ur
ĠDur muÅŁ
Ġpat lama
ĠGeÃ§ miÅŁ
landÄ±r an
landÄ±r ma
ĠaÃ§tÄ± ÄŁÄ±nÄ±
ĠCeza evi
ĠCeza evinde
ĠÅŁu bat
ĠÅŁeh r
Ġrapor da
Ġrapor una
Ġrapor unun
Ġistiyor lar
Ġistiyor uz
Ġistiyor sa
Ġistiyor sanÄ±z
ĠmÃ¼dÃ¼r leri
ĠmÃ¼dÃ¼r Ã¼nÃ¼n
ĠkatÄ±l acaÄŁÄ±
ĠkatÄ±l malarÄ±na
ĠkatÄ±l mama
Ġteklif inde
Ġkendis inin
Ġkendis iyle
ĠÃ¼st Ã¼n
ĠÃ¼st lenen
Ġas la
Ġas it
Ġas liye
Ġas falt
Ġyitir irken
Ġyitir diÄŁini
Ġtalim atÄ±
ĠAb dÃ¼l
ĠAb delaziz
Ġolur ken
ĠDer esi
ĠDer ya
ĠGÃ¶k sel
ĠGÃ¶k Ã§e
ĠyaptÄ±k tan
Ġ27 4
Ġfir ma
Ġfir arÄ±
Ġdiz isinde
Ġdiz isinin
Ġkurum da
Ġhast asÄ±
Ġhast alar
Ġhast aya
ĠkaÃ§ak Ã§Ä±lÄ±ÄŁÄ±
Ġuzak lÄ±k
ĠparÃ§ ayÄ±
ĠparÃ§ alarÄ±
ĠKons erde
oloj isi
Ġmesaj larÄ±
Ġmesaj larÄ±ndan
ĠpaylaÅŁÄ±m la
ĠpaylaÅŁÄ±m larla
ĠPolis ler
ĠbÄ±Ã§ak la
Ġhedef i
Al man
Al kol
og raf
ĠtanÄ± t
ĠtanÄ± mÄ±nÄ±
ĠtanÄ± ttÄ±
ĠBen ny
ĠAf yon
ĠAf rika
ĠAs ya
ĠAs lan
ĠAs hley
Ġmark alar
Ġmark alarÄ±
Ġmark alarda
Ġmark alarÄ±nÄ±
ĠKÄ±r an
ĠKÄ±r gÄ±z
ĠMer t
Ġpiyas asÄ±
Ġpiyas ada
Ġpiyas asÄ±nÄ±n
ĠYÃ¼ksek Ã¶ÄŁretim
ĠyarÄ±ÅŁ maya
ĠyarÄ±ÅŁ mada
ĠyarÄ±ÅŁ malarÄ±nÄ±n
Ġgeril emenin
ĠiÅŁÃ§ isi
ĠiÅŁÃ§ ilik
ĠiÅŁÃ§ ilerinin
Ġindir ildi
Ġelekt ronik
ĠkullanÄ± cÄ±nÄ±n
Ġuzman lar
ĠÃ¶ldÃ¼rÃ¼l dÃ¼kten
ĠÃ¶ldÃ¼rÃ¼l Ã¼ÅŁÃ¼nÃ¼n
ĠÃ¼retim ini
Ġamac Ä±mÄ±z
Ġrisk ler
Ġkontrol de
Ġkontrol le
Ġkontrol Ã¼ndeki
Bir leÅŁik
ĠsavaÅŁ tÄ±ÄŁÄ±
ĠtÃ¼r Ã¼
ĠtÃ¼r Ã¼nden
ĠMuh alefet
Ġolacak tÄ±r
ĠyaptÄ±r an
ĠyaptÄ±r Ä±p
ĠartÄ±ÅŁ Ä±na
ĠartÄ±ÅŁ larÄ±nÄ±n
Ġ21 5
Ġ21 6
ĠFa ir
ĠkardeÅŁ i
ĠkardeÅŁ iyle
Ġedilm esinin
ĠotobÃ¼s Ã¼n
ĠotobÃ¼s le
ĠotobÃ¼s Ã¼nÃ¼
ĠÃ¶ÄŁrenciler ine
ĠÃ§ekiliÅŁ inde
Ġtemsil cileri
Ġtemsil cileriyle
Ġsiyaset Ã§
Ġsiyaset inde
Ġsiyaset ten
Ġsiyaset Ã§ileri
Ġimz asÄ±nÄ±n
Ġihlal inden
Galatasaray lÄ±
ĠbÃ¼tÃ¼n cÃ¼l
Ġsit e
Ġsit esini
Ġsit elerine
Ġgol le
Ġgol cÃ¼sÃ¼
Ġvur an
ĠBer n
ĠBer lin
ĠBer nie
ĠÃ§evr edeki
ĠSim eone
Ġdem ektir
Ġdem okratik
Ġdem emize
Ġbirbir iyle
ĠHat ta
ĠartÄ±r masÄ±
ĠartÄ±r mak
ĠartÄ±r acaÄŁÄ±nÄ±
Ġ22 6
Ġ22 7
ĠFar anjit
ĠÅŁart Ä±nÄ±
ĠÅŁart larÄ±
ĠgÃ¶rÃ¼l me
ĠgÃ¶rÃ¼l mektedir
Ġsoru ya
endis ine
Ġortak lÄ±ÄŁÄ±yla
Ġkamer asÄ±
Ġkamer aya
Ġkamer asÄ±na
Ġkamer alara
Ġhalk Ä±n
Ġhalk Ä±nÄ±n
ĠbaÅŁvur usunda
Ġharekat ta
TÃľ RS
Ã¼b esi
Ġsar f
Ġtat ile
Ġherk esi
ĠTh unberg
ĠSon y
ĠMa il
ĠMa uro
ĠoluÅŁtur du
ĠoluÅŁtur ma
ĠoluÅŁtur mak
ĠoluÅŁtur malÄ±
ĠoluÅŁtur madÄ±ÄŁÄ±nÄ±
ĠoluÅŁtur ulmasÄ±
ĠadÄ±m Ä±
Ġpark lar
ĠyapÄ±ldÄ± ÄŁÄ±nÄ±
Ġetm eli
Ġetm eyin
Ġetm emiz
ĠsÃ¼rec ini
Ġcam dan
Ġcam inin
Ġcam iyi
Ġcam ilerine
Ġintih arÄ±yla
Ġetkil emiÅŁ
Ġazal dÄ±
Ġazal dÄ±ÄŁÄ±
Ġazal masÄ±na
ĠÃ§arptÄ±r dÄ±
ĠgenÃ§ ler
Ġonay Ä±ndan
Ġonay ladÄ±
Ġincelem ede
Ġincelem elerinin
Ġfaaliyet inde
Ġfaaliyet leri
Ġfaaliyet lerini
Ġlis esi
Ġerkek le
Ġbiz on
Ġbomb a
Ġkav ram
Ġsavun masÄ±nda
ĠBey az
ĠAÄŁÄ±r alioÄŁlu
Ġdin leme
Ġmi ÄŁfer
ĠKul eli
ĠKul lanÄ±
ĠKul lanamadÄ±
ĠÃ§iz ip
ĠÃ§iz ecek
ĠÃ§iz diÄŁi
ĠSev er
ĠSev da
ĠSev gili
ĠDi ego
ĠDi aby
ĠPr im
ĠPr ensi
Ġ13 2
Ġ13 00
ĠÅŁark Ä±sÄ±
ĠÅŁid deti
Ġner eden
Ġyarat an
Ġyarat mak
Ġkaynak lÄ±
Ġkaynak larÄ±n
Ġkaynak lanan
Ġkaynak larÄ±ndan
Ġkaynak lardan
Ġ45 6
ĠdÃ¶nÃ¼m Ã¼nÃ¼
Ġtest lerine
ĠÅŁÃ¼phel ilerin
Ġboz ul
Ġboz ulmasÄ±
ĠsatÄ±ÅŁ Ä±na
Ġtahmin lere
ĠKaram an
ĠgeniÅŁ lettir
ĠDemokrat larÄ±n
ĠDemokrat lara
Ġkitap larÄ±nÄ±
mez sen
medi yorsa
Ġyorum u
Ġyorum ladÄ±
Ġkas larÄ±nÄ±
Ġses len
Ġgem isinin
ĠtaÅŁ Ä±yor
ĠBal esi
Ġhen dek
ĠMur iÃ§
ĠMur athan
Ġ28 0
Ġ28 5
larÄ±mÄ±z Ä±n
Ġfin ale
ĠbuluÅŁ ma
ĠbuluÅŁ mak
ĠbuluÅŁ acak
ĠbuluÅŁ maya
ĠbuluÅŁ mada
Ġyarar lanacak
ĠiÅŁlet tiÄŁi
ĠiÅŁlet melere
Ġmillet i
Ġbelirlen mesi
Ġbelirlen irken
Ġbelirlen miÅŁti
Ġtoprak lara
Ġkullanan lar
Ġ70 6
Ġpolitik alarÄ±
Ġpolitik acÄ±
ĠÃ¼ret tiÄŁi
ĠsÃ¶zleÅŁ mesi
ĠsÃ¶zleÅŁ mesinde
Ġseviy esindeki
Ġmadde ler
ĠsÃ¶ylem lerde
Ġiktidar Ä±ndan
tem el
Ġbar Ä±ndÄ±r
ĠBek illi
ĠdÃ¼ÅŁtÃ¼ ÄŁÃ¼nÃ¼
ĠSal zbur
ĠMark anÄ±n
ĠMark etler
ĠÄ°d man
ĠÄ°t faiye
ĠEv de
ĠEv lat
ĠEv ren
ĠHar iri
aha dÄ±r
ĠPer desiz
ĠPer akende
Ġettir mek
Ġettir diÄŁi
ĠbaÅŁlÄ±k sÄ±z
Ġgeliyor du
ĠendiÅŁ eleri
ĠendiÅŁ eleriyle
ĠdÃ¼zenlem esi
ĠdÃ¼zenlem eler
ĠdÃ¼zenlem eye
ĠdÃ¼zenleyen ler
Ġcan landÄ±rdÄ±ÄŁÄ±
Ġistem edi
Ġistem ediÄŁini
Ġkurtar ma
ebilir siniz
ĠÃ¶ÄŁretmen in
ĠÃ¶ÄŁretmen ler
ĠÃ¶ÄŁretmen lerin
ĠÃ¶ÄŁretmen lere
ĠiliÅŁk iler
Ġekib in
ĠkÃ¶y lÃ¼
ĠuÃ§ak lara
ĠuÃ§ak larÄ±nÄ±n
ĠuÃ§ak larÄ±na
ĠaÅŁam ada
ĠaÅŁam asÄ±ndaki
ĠsÄ±cak ta
ĠKadÄ±n larda
Ġtaleb inin
ĠmÃ¼dahal esine
ĠmÃ¼dahal esiyle
Ġbilinen leri
ĠÅŁiddet in
ĠÅŁiddet le
Ġpropaganda sÄ±
Bu gÃ¼n
Bil ecik
Ph erson
Par tisinin
sen al
Ġbask Ä±
Ġbask Ä±n
Ġbask Ä±nda
alam aya
ĠkÄ± dem
ĠkÄ± yas
Ġkir li
Ġkir lili
Ġkir pik
akta dÄ±r
ĠtÃ¼k etir
ĠtÃ¼k etim
ĠBul ut
Ġman tÄ±
Ġman ÅŁet
ĠÃ§et ele
ĠadÄ± yla
ĠDeprem in
Ġper desi
Ġper desiz
Ġpazar Ä±nda
Ġpazar lama
ĠFilm leri
ĠaÃ§Ä± ÄŁa
ĠgÃ¶rÃ¼ÅŁtÃ¼ ÄŁÃ¼
ĠbaÅŁar Ä±sÄ±z
ĠbaÅŁar dÄ±klarÄ±nÄ±
ĠzanlÄ± sÄ±
ĠRe uters
ĠyaÅŁadÄ± k
Ġanlam da
Ġanlam lÄ±
ĠkonuÅŁtu ÄŁu
ĠNur ten
Ġdiy abet
Ġhakim iyetini
Ġkurt ulanlar
Ġtoplum un
ĠyÃ¶net tiÄŁi
ĠyÃ¶net iyorum
ĠyÃ¶net melik
Ġyolcu lar
ĠÃ¶ÄŁrenc ilerin
ĠÃ¶ÄŁrenc isiyken
Ġaktar an
ĠKurul tayÄ±mÄ±zÄ±
ĠdoÄŁum unun
Ġgazetec inin
Ġgazetec iler
Ġgazetec ilerin
Ġgazetec iyiz
ĠsanÄ±k lardan
Ġizin siz
Ġhesap larÄ±na
Ġhesap lamasÄ±na
Ġhesap lanÄ±r
Ġetkinlik leri
Ġetkinlik te
Ġetkinlik lerin
ĠÃ§eÅŁit leri
ĠÃ§eÅŁit liliÄŁini
ĠÃ¼cret leri
AR K
ij a
kÄ±r mÄ±zÄ±
tÃ¶r leri
Ġbaraj Ä±nÄ±
Ġsig orta
Ġter lik
ĠtÃ¶ren le
ĠtÃ¶ren inde
Ġhiss eleri
emen liÄŁine
emiz de
ĠTak Ä±lanlar
ĠÃ§at Ä±sÄ±nda
ĠÃ§at lamalar
ĠSoy der
ĠEmek Ã§i
ĠÃ¶de me
ĠÃ¶de mesi
ĠHaf Ä±z
ĠÅŁah it
ĠÅŁah sÄ±n
ĠOy un
ĠOy sa
Ġrahat sÄ±zlÄ±k
Ġsorum luluk
Ġdurdur un
ĠUy gur
ĠmÃ¼cade lesi
ĠmÃ¼cade leyi
ĠdÃ¼ÅŁÃ¼n en
ĠdÃ¼ÅŁÃ¼n dÃ¼ÄŁÃ¼nÃ¼
Ġservis in
Ġyetkil iler
ĠkuruluÅŁ unun
ĠdÃ¼ÅŁÃ¼rÃ¼l mesine
Ġmemur lar
Ġmemur umuz
ĠinÅŁaat Ä±n
Ġindirim li
Ġvilayet e
16 10
Ek onom
dak layan
ĠhÃ¼k med
ĠhÃ¼k mediyorsa
ĠAÃ§ Ä±l
Ġdal gÄ±Ã§
Ġmas asÄ±
Ġmekt up
Ġmode li
Ġmode lin
Ä°s veÃ§
ĠÃ§al maya
ĠMahal le
led iler
led ilen
Ġplatform larda
abet h
ĠGÃ¶z lere
ĠHÃ¼kÃ¼m eti
ĠHizmet leri
Ġfay ton
Ġfor malarÄ±
ĠCh ar
ĠÅŁans lÄ±
ĠÅŁans Ä±na
ĠÅŁans Ä±nÄ±z
Ġbuldu ÄŁunu
Ġedil eceÄŁi
Ġedil ince
Ġedil ebilir
ĠÃ¶nlem i
ĠÃ¶nlem ler
ĠÃ¶nlem leri
Ġ52 5
Ã¼mÃ¼z Ã¼
laÅŁtÄ±r dÄ±
laÅŁtÄ±r ma
Ġkurdu klarÄ±
ĠuyarÄ± larÄ±
Ġetkilen diÄŁini
Ġcep he
ĠsaldÄ±rgan lar
ĠsaldÄ±rgan larÄ±
Ġlist esi
Ġbakan lardan
Ġemniyet teki
ĠgeliÅŁtir meye
ĠgeliÅŁtir eceÄŁiz
Ġfutbolcu lar
Ġnokt aya
Ġnokt ayÄ±
Ġtrafik te
Ġpaket inin
Ġpaket te
ĠdÃ¼kkan lar
ĠdÃ¼kkan larda
Ar ktik
Es kiÅŁehir
SO N
do or
don ezyalÄ±
noloj inin
su bay
Ġum anlarÄ±
anÄ±k lÄ±ÄŁÄ±
Ġbah is
Ġbah se
ĠyanlÄ± sÄ±
ĠkÃ¼ltÃ¼r Ã¼
Ġsel efi
Ġvel isi
Ġvel ilere
Ġhikay elerini
lerimiz e
lerimiz i
lerimiz in
ĠKam arasÄ±
ĠTat ar
ĠTat lÄ±
ĠSarÄ± taÅŁ
Ġbirim lerinde
ĠDÃ¶n em
Ġpart inin
ĠeÄŁitim e
ĠHol landa
ĠYan gÄ±na
ĠYor gos
ĠOsman lÄ±
Ġrakam larÄ±nÄ±n
Ġkadros unda
Ġistendi ÄŁi
ĠkapÄ± larÄ±nÄ±
ĠBaÅŁkanlÄ± ÄŁÄ±nÄ±
ĠdÃ¶ner lerde
ĠdÃ¶ner cilerin
ĠdÃ¼ÅŁÃ¼nÃ¼ yor
ĠdÃ¼ÅŁÃ¼nÃ¼ yoruz
ĠhazÄ±rladÄ± k
ĠhazÄ±rladÄ± ÄŁÄ±nÄ±
ĠhazÄ±rladÄ± klarÄ±
ĠdoÄŁr usu
Ġazalt tÄ±ÄŁÄ±
Ġazalt Ä±lmasÄ±
Ġkazan mak
Ġkazan mÄ±ÅŁ
Ġyasak ladÄ±
Ġyasak landÄ±
Ãľn iversite
ĠdolandÄ±r dÄ±ÄŁÄ±
ĠdolandÄ±r Ä±cÄ±lÄ±k
ĠtamamladÄ± k
ĠDemir atar
Ġmakam lara
ĠaÃ§Ä±lÄ±ÅŁ Ä±nda
ĠaÃ§Ä±lÄ±ÅŁ Ä±nÄ±
ĠaÃ§Ä±lÄ±ÅŁ ta
ĠÃ§ift Ã§
ĠÃ§Ã¶zÃ¼m Ã¼
ĠMurat oÄŁlu
ĠyaÄŁmur larÄ±nda
Ġmilletvekil lerinin
ĠVeteriner lik
Ġle opar
Ġbun lardan
Ġbilm eli
Ġbilm iyorlar
Ġbank asÄ±
ĠkÃ¶r fez
ĠkÃ¶r Ã¼klÃ¼
Ġtav anÄ±nÄ±n
Ġof is
Ġof isi
ĠBas ra
ĠAda y
Ġmik ser
Ġmik tarÄ±
Ä°M ER
ĠÃ§ap ta
ĠMÃ¼z ikali
ĠMic hel
ĠÄ°Ã§ inden
ĠÃ¶dÃ¼l le
ĠÃ¶dÃ¼l lendir
ĠalÄ±nÄ± r
luÄŁ unun
ĠCam i
ĠÅŁimdi den
Ġkarakter i
Ġkarakter ine
Ġkarakter lerinden
ĠgÃ¶tÃ¼r dÃ¼
ĠOlay da
ĠBakanlÄ± ÄŁÄ±n
makta dÄ±r
ĠVatandaÅŁ lar
ĠVatandaÅŁ larÄ±n
ĠkulÃ¼p ler
ĠyapÄ±landÄ±r masÄ±
Ġyang Ä±na
ĠZel anda
ĠZel jk
ĠdoÄŁal gaz
Ġekran a
Ġekran lara
Ġdost larÄ±
Ġdost larÄ±m
ĠMÃ¼dÃ¼rlÃ¼ÄŁ Ã¼ne
ĠkÃ¶pek lerin
ĠdesteÄŁ in
ĠeriÅŁim ine
ĠbakÄ±m evinde
Ġkesin likle
Ġkesin leÅŁmesi
Ġkesin tisiz
Ġkesim lerinde
Ġhatt Ä±ndaki
ĠuzaklaÅŁ mak
ĠuzaklaÅŁ masÄ±nÄ±
Ġheyec an
Ġheyec anlÄ±
Ġmuayen e
Ä°ngil iz
Ġmektu b
Ġdokunul mazlÄ±ÄŁÄ±nÄ±n
ĠyalnÄ±z lÄ±ÄŁÄ±
ĠhastalÄ±k larÄ±n
App le
Er zin
GS B
bil eceÄŁini
layÄ± p
ĠanÄ± t
ĠanÄ± tta
Ġruh uyla
Ġbes lenmeli
Ġbat Ä±sÄ±
Ġbot ta
ĠbeÄŁ en
Ġbebek leri
Ġbebek lerinin
Ġku duz
Ġkop maya
Ġkop tu
ĠsatÄ±cÄ± larÄ±
Ġip tal
Ġvideo da
ĠdÃ¶k Ã¼len
ĠdÃ¶k Ã¼lerek
Ġmask esi
Ġmahal leli
Ä°S MA
ĠKÃ¼Ã§Ã¼k er
Ġaj an
Ġaj andasÄ±
ĠGal ip
ĠGal ax
ĠGaz isi
ĠGaz ipaÅŁa
ĠPat lama
Ġaranan lar
ceÄŁ im
ĠYer in
ĠYer leÅŁk
ĠYak Ä±n
Ġform Ã¼l
ĠCin siyet
Ġetraf Ä±nda
Ġetraf Ä±nÄ±
Ġetraf Ä±ndan
Ġ37 3
ĠayÄ±r an
ĠayÄ±r dÄ±
Ġzengin leÅŁmiÅŁ
Ġbelg eye
Ġraki bine
Ġrej imi
Ġrej imin
ĠNet fli
Ġtesis lerine
Ġteknoloj ik
ĠseÃ§il ebilmek
ĠseÃ§il ebilme
ĠayrÄ±l mak
ĠayrÄ±ldÄ± klarÄ±
ĠamaÃ§ lÄ±
ĠamaÃ§ lÄ±yor
Ġkolay laÅŁtÄ±r
ĠKarÅŁÄ± tÄ±
ĠKarÅŁÄ± yaka
Ġmaliyet i
Ġmaliyet ini
Ġkamuoy unda
Ġkamuoy una
ĠteÅŁkil atÄ±
ĠÃ¶zgÃ¼rlÃ¼ÄŁ Ã¼nÃ¼
Ġotomobil iyle
ĠfÄ±rlat tÄ±ÄŁÄ±
ĠkullanÄ±cÄ± larÄ±
ĠkullanÄ±cÄ± larÄ±n
ĠSinem a
Ġgezegen in
Ġvurgul ayan
ĠgÃ¶rÃ¼lÃ¼yor du
ĠPrens es
Ġnerede yse
Ġkanser ler
Ġfinans e
ĠdÃ¶v dÃ¼ÄŁÃ¼
ĠsÄ±ÄŁÄ±nma cÄ±lar
Ad alet
Tek irdaÄŁ
Tek nolojinin
dÃ¼k Ã§e
dÃ¼k kan
oli stan
ĠuÄŁ urlu
erg ahlarda
Ġyor gun
ĠyÃ¶r e
Ġkelim enin
Ġskandal larÄ±yla
Ġgrub una
Ġgrub undaki
Ġtip i
Ġtip inizi
ĠBol d
ĠBol y
ĠBol sonaro
amin ler
ĠhÄ±z la
ĠhÄ±z lÄ±
ĠAlan yaspor
ĠmÃ¼l k
Ġmut f
Ġmut abakat
ĠmÃ¼lt eciler
Ġvefat Ä±nÄ±n
ĠKap lan
ĠKÄ±z Ä±l
ĠTes ti
ĠTes lim
ĠÃ§ab alarÄ±nÄ±
ĠSe ad
ĠSey han
ĠSey ahat
ĠSey ÅŁeller
ĠMac Pherson
ĠGÃ¼len ay
Ġaraz ide
ĠYaÅŁ ar
ĠYaÅŁ anan
ĠYÃ¼r ek
ĠYÃ¼r Ã¼yÃ¼ÅŁ
ĠYÃ¼r Ã¼tme
ĠYol un
ĠfÃ¼z esini
ĠfÃ¼z elerini
ĠFah ri
ĠCem il
ĠÅŁehir lerde
Ġnamaz Ä±nÄ±n
ĠOcak larÄ±
Ġ33 3
ĠgÃ¼ney indeki
ĠgÃ¼ney deki
Ġres epsiyon
Ġreform u
Ġcumhur baÅŁkanÄ±
ĠyerleÅŁtir ilen
ĠyerleÅŁtir ip
ĠNob re
Ġkayded iliyor
Ġordu ya
ĠÅŀirk eti
Ġ65 1
Ġkatled iliÅŁinin
ĠdÃ¶nÃ¼ÅŁ Ã¼m
ĠÃĸzb ek
ĠseÃ§men ine
ĠsaÄŁlam ak
ĠsaÄŁlam aya
ĠAyv alÄ±k
Ġikamet inde
Ġikamet te
Ġdenem esinde
Ġdenem esine
ĠyÃ¼rÃ¼yÃ¼ÅŁ Ã¼n
ĠÃĸnc Ã¼lÃ¼ÄŁ
Ġemek lilikte
Ġemek lilere
Ġzorunda yÄ±z
ĠgÃ¼Ã§lendir ilmiÅŁ
ĠgÃ¼Ã§lendir mesinden
Ġmuhal lebi
ĠEtkin lik
ĠOtobÃ¼s Ã¼n
Ġorganiz asyonu
Ġorganiz atÃ¶r
Ġbenzet melerde
ĠKÃ¶pr Ã¼
Ġkanseri dir
Ġseslendir melerden
Ġobez ite
ĠÃ§atÄ±ÅŁ ma
ĠÅŁahÄ±s lar
ĠÅŁahÄ±s lardan
ĠmÃ¼cadel esine
Ġminar esinin
ĠmeÅŁru iyet
Ġmodel leri
ĠdoÄŁrul tusunda
ĠAmazon lar
Af ganistan
Halk Ä±n
Mar mara
Or general
Ser vis
Ser maye
Tar ih
bur n
cin sel
par ta
pir ul
sÃ¼ lerde
Ġun vanlÄ±
ĠboÄŁaz Ä±ndan
Ġyur da
Ġyur dun
Ġsem iner
Ġsem bo
Ġsap tan
Ġodak lar
Ġmis afir
ĠKat e
ĠKit le
ĠKav gayÄ±
ĠTaÅŁ ucu
ĠTav uk
ĠMus a
Ġdemir lerinde
Ġoluyor du
ĠoluÅŁtu ÄŁu
Ġolabilir iz
ĠÄ°h rac
Ġplak asÄ±
Ġplak alÄ±
Ġpomp alÄ±
ĠpapaÄŁ ana
ĠGel ir
ĠGel iÅŁ
ĠGel iyor
ĠHem atoloji
ĠPot apov
larÄ±m la
Ġfal cÄ±ya
Ġfik ir
Ġfik irlerin
Ġfatur asÄ±
ĠFu ar
ĠFu at
ĠFu arÄ±
Ġ34 7
ĠRektÃ¶r lÃ¼ÄŁÃ¼
Ġrez idan
Ġrez erv
Ġred ded
Ġred dettiÄŁi
ĠgerÃ§e ÄŁi
ĠgerÃ§e ÄŁini
ĠgerÃ§e ÄŁe
ĠÅŀehir cilik
Ġuyum lu
ĠyÃ¶ntem i
ĠyÃ¶ntem lerinden
Ġkapas ite
ĠyakaladÄ± k
ĠAlp ay
Ġotob Ã¼ste
Ġserg ilen
Ġtaks irle
ĠgÃ¶rÃ¼ÅŁmeler ine
ĠdolaÅŁ arak
ĠdolaÅŁ Ä±yor
Ġamb iy
ĠuÃ§uÅŁ a
Ġkesildi ÄŁini
ĠSanat Ã§Ä±
ĠsÄ±kÄ±ntÄ± sÄ±
ĠPost asÄ±
Ġcihaz lar
Ġcihaz Ä±nÄ±
ĠJoa o
ĠGÃ¶st eri
Ġihtim ale
ĠtaÅŁÄ±n masÄ±
Ġsakin lerinin
ĠUysal er
Ġsinem a
Ġsinem anÄ±n
Ġdalg asÄ±
sever lerle
ĠihtiyaÃ§ larÄ±
ĠbaÄŁÄ±m sÄ±zlÄ±k
ĠteÅŁkilat landÄ±
ĠkoÅŁul larÄ±
ĠtÃ¼fek le
ĠrÃ¼tb esi
83 2
Ay dÄ±n
Bank sy
Dem okrat
Dem irtaÅŁ
Devlet e
EM O
Haber ler
Haber tÃ¼rk
KÄ±r Ä±m
KÄ±r klareli
Ok ul
TV F
Yal Ã§Ä±n
Yal aka
YÄ±l Ä±n
gaz m
Ġkus ur
Ġkup alarÄ±ndaki
dev let
ĠsÄ±z dÄ±
Ġsunu cu
Ġsunu cusu
Ġsoy un
Ġstrat eji
ĠgÃ¼z ergahlarda
Ġted arik
Ġib adet
Ġvat anÄ±mÄ±
ĠBat man
Ġhukuk Ã§u
ĠAc entalarÄ±
Ġmus on
ĠTO MA
ĠTO KER
ĠTÃľ YAP
ĠÃ§ey re
ĠÃ§oÄŁ almasÄ±yla
ĠSt abilite
ĠSay fa
ĠSay gÄ±
ĠSalÄ± cÄ±
ĠMez unlarÄ±
Ġolabil iyor
Ġolabil eceÄŁi
iÅŁik lik
ĠDik Ã§al
ĠDair esi
ĠGÃ¼l ben
ĠHan gi
Ġarayan larÄ±n
Ġalev ler
ĠYas ama
Ġfak Ã¼lte
ĠiÃ§ir diÄŁi
ĠiÃ§ir erek
ĠFin anci
ĠÅŁer hi
Ġnormal lerinin
ĠnÃ¶bet Ã§isiyiz
ĠyÄ±ldÃ¶nÃ¼m Ã¼
ĠyÄ±ldÃ¶nÃ¼m Ã¼nde
Ġedin diÄŁi
ĠyardÄ±mc Ä±sÄ±nÄ±
ĠyardÄ±mc Ä±sÄ±ndan
Ġzinc ir
Ġzinc iri
ĠRapor da
Ġrol Ã¼
ĠÃĩukur ambar
ĠLe eu
ĠsÃ¼rÃ¼k leyecek
ĠÃ§alÄ±ÅŁtÄ±r dÄ±m
ĠNaz an
ĠNijer ya
Ġistihbarat Ä±nÄ±n
ĠÅŀent Ã¼rk
ĠÅŀÃ¼ph eli
Ġdurdurdu ÄŁu
Ġgide cek
ĠÃľÃ§ Ã¼ncÃ¼
ĠgÃ¶steri ciler
ĠII I
Ġesas larÄ±
Ġyolculu ÄŁundan
Ġaktiv ist
Ġsevgil isiyle
Ġkims eye
Ġderin liÄŁinde
Ġmerm iyle
ĠyetiÅŁ kin
ĠyetiÅŁ tir
ĠboÅŁan ma
ĠboÅŁan mak
ĠÃ§ocuklarÄ±mÄ±z a
ĠÃ§ocuklarÄ±mÄ±z Ä±n
Ġavantaj Ä±
ĠkÄ±rÄ±k lÄ±ÄŁÄ±
ĠkÄ±rÄ±k lÄ±ÄŁÄ±na
ĠsenatÃ¶r Ã¼n
ĠsÄ±Ã§ radÄ±
ĠsÄ±Ã§ ramadan
Ġfirmalar Ä±n
Ġiktid arÄ±
Ġkavg ada
ĠGÃ¶rÃ¼ÅŁ me
Enflasyon un
Ġniteli ÄŁi
Ġniteli ÄŁinde
Ġnitelendir erek
Ġkurtul urken
ugh ey
Ġfayd alÄ±
ĠChrist chur
ĠChrist ophe
ĠkomÅŁu larÄ±nÄ±n
ĠAdam larÄ±
ĠFederasyon unun
ĠCinayet lerini
ĠsÄ±ÄŁÄ±nmacÄ± yÄ±
ĠKapalÄ± Ã§arÅŁÄ±
Ġfizik i
Ġetiket li
Ġizleyic iyle
ĠvazgeÃ§ ti
ĠvahÅŁ ice
Ġkonteyner inde
BA E
Kol ombiya
OD TÃľ
San at
YÃ¼ksek Ã¶ÄŁretim
ail ey
mÄ±yor um
Ġro b
ard ner
Ġbeden i
ĠbahÃ§ esinde
ĠkÃ¼r sÃ¼lerde
Ġkum andayla
Ġkade hi
Ġkep Ã§e
Ġkep Ã§eyle
Ġsuy unun
Ġgec esi
Ġticaret ini
ĠtanÄ±ÅŁ tÄ±ÄŁÄ±
Ġtansiyon u
Ġtenor larÄ±ndan
Ġoper atÃ¶r
Ġoper atÃ¶rÃ¼
Ġide al
Ġide oloj
ĠiÅŁtir ak
ĠiÅŁtir aki
Ġvak alarÄ±nÄ±n
ĠBun lar
ĠhÄ±r sÄ±zlÄ±k
ĠhÄ±r sÄ±zlÄ±ÄŁÄ±
ĠAj ansÄ±
ĠAj ansÄ±nÄ±n
ĠAz erbay
Ġdak ik
Ġdak til
ĠmÃ¼s abak
ĠKu dÃ¼s
ĠKaf tancÄ±
ĠKÃ¼t ahya
ĠKÃ¼t Ã¼phan
ĠKoc atÃ¼rk
ĠKoc akaya
ĠÃ§Ä± ÄŁlÄ±k
ĠÃ§eki p
ĠÃ§eki ci
ĠÃ§oÄŁun luÄŁu
ĠÃ§ant asÄ±na
ĠÃ§ant asÄ±nÄ±
ĠSil va
ĠSez gin
ĠStrat ej
ĠStrat eji
ĠMut fakta
Ġbirey sel
ĠDav id
ĠDaÄŁ daÅŁ
indey im
indey iz
Ġpsik iyatriste
ĠÃ¶v gÃ¼
ĠÃ¶v gÃ¼yle
Ġez iyordun
ĠGÃ¼nde min
ĠGÃ¼nde mimizde
ĠHikay esi
ĠHisar cÄ±k
ĠHisar Ã¶nÃ¼
ĠyapÄ±m lar
Ġard Ä±na
Ġalmay acaÄŁÄ±nÄ±
ĠYay anÄ±n
Ġfel ak
ĠiÃ§en lere
ĠÅŁiÅŁ e
Ġday anan
ĠgÃ¶rm emek
Ġnak ledilen
Ġniyet leri
Ġniyet indeyiz
Ġnetic esinde
Ġzih niyet
Ġzih insel
ĠÃĸdÃ¼l leri
Ġrenk li
ĠÃĩak maz
ĠErgen ekon
ĠNec ip
ĠÅŀam il
ektaÅŁ larÄ±nÄ±n
ĠUÄŁ ur
ĠUÄŁ urlu
ĠgÃ¼c Ã¼n
ĠgÃ¼c Ã¼nÃ¼n
Ġkaybol du
Ġ95 5
ĠdÃ¼ny asÄ±na
ĠÃ¶rÃ¼m cek
ĠÃ¶rÃ¼m ceÄŁi
ĠZinc iri
ĠZinc irlik
icili ÄŁine
Ãĸz gÃ¼r
Ġadres te
ĠkÃ¶ÅŁ eli
ĠOrdu su
ĠBÃ¼yÃ¼kelÃ§ isi
Ġdernek lerle
Ġdeney im
Ġdeney imi
ĠaracÄ±lÄ±ÄŁÄ± yla
ĠEser leri
ĠKarab aÄŁlar
ĠKarab urun
ĠÃ¶ncÃ¼lÃ¼ÄŁ Ã¼nde
ĠÃ¶ncÃ¼lÃ¼ÄŁ Ã¼ndeki
Ġmuhab irinin
ĠToplam da
Ġboynuz lanmasÄ±yla
ĠÄ°ÅŁlet mesi
Ġbenim siyorlar
ĠAtlet ico
ĠPolitik alarÄ±ndan
Ġkurultay Ä±n
Ġkurultay Ä±na
Ġhangileri dir
ĠTarih Ã§i
ĠoÄŁul larÄ±nÄ±
ĠoÄŁul larÄ±nÄ±n
Ġotomobilde ki
ĠsÃ¶ylÃ¼ yoruz
ĠKaymak amÄ±
ĠkullanÄ±m Ä±ndan
ĠMeslek lere
ĠkardeÅŁlerimiz in
ĠÃ§izg isini
ĠÄ°ranlÄ± lar
Ġyararlan mak
Ġmaden cilik
ĠHarb iye
ĠHarb iyeli
Ġsorgulan makta
Ġbasketbol unun
Ġtablet i
ĠÃ§alÄ±n dÄ±
ĠÄ°kti dar
ĠÄ°kti sadi
Ġmenopoz un
lacivert li
lacivert liler
Ġroman tik
Ġambalaj Ä±
Ġkeyif li
Ġpencer esine
BT SO
BÄ°R GÃľ
Li der
Man isa
Zel enskiy
ang ir
Ġyum uÅŁak
Ġkesi ci
Ġkrem ler
ĠkÄ±lÄ± f
ĠkandÄ±r masÄ±na
Ġso hbet
Ġsur etiyle
Ġsos is
Ġsic il
diy ekÃ¶y
Ġtan esi
ĠtÄ±k anÄ±klÄ±ÄŁÄ±
ĠtanÄ±n an
Ġtecr Ã¼besi
Ġvek aleten
Ġvis k
Ġvit aminler
Ġvade lerde
ĠBo ulkes
ĠBeÅŁ ÅŁar
Ġhim met
Ġhaz zet
Ġmor ga
ĠKÃ¼l liyesi
ĠKuÅŁ adasÄ±
ĠKeÅŁ mir
ĠKÃ¶k ten
ĠKend ilerine
ĠTa aruz
ĠTut uÄŁ
ĠTeb liÄŁ
ĠÃ§iv iyle
ĠSP K
ĠSum mit
ĠMu durnu
ĠMotosiklet iyle
Ġdedir ten
Ġbirikim lerini
ĠDu Ã¼nya
ĠDeÄŁ iÅŁiklik
ĠEdeb iyatÄ±
ĠpiÅŁ manlÄ±k
ĠÃ¶yk Ã¼sÃ¼nÃ¼
Ġeg emenliÄŁine
ĠGS M
ĠGr ipin
ĠGro up
ĠGelin im
ĠHil al
ĠHun ter
ĠPiyas asÄ±
ĠPerson el
Ġaldat macasÄ±
Ġfon lamasÄ±na
ĠiÃ§meyen ler
ĠFir uz
ĠFik ret
ĠFran ces
ĠFabrik asÄ±
ĠCI A
ĠCih angir
ĠÅŁerb eti
Ġnam lulu
Ġnih ai
ĠkartÄ± yla
Ġkariyer inde
ĠbuluÅŁtur acak
ĠbaÅŁarÄ± yor
ĠOut door
ĠOlimp iyat
ĠgÃ¼neÅŁ li
ĠÃ§Ä±kmay Ä±nca
Ġzan ne
ĠRy der
Ġrah minde
ĠrÃ¼zgar Ä±nda
ĠÃĩÃ¶ laÅŁan
ĠÃĩocu ÄŁum
Ġkader ine
Ġistik rar
Ġistih dam
Ġdiplom atik
Ġdisip lin
Ġsorunun un
Ġdevret mesine
Ġtopl umu
Ġtopr aÄŁa
ĠyÃ¶neticiler inin
Ġkaps Ä±yor
ĠkapanÄ±ÅŁ a
ĠAkÄ±n cÄ±
ĠgidiÅŁ i
ĠmÃ¼ÅŁt er
Ġkatli amda
Ġhayv ansever
ĠatÄ±k larÄ±n
ĠatÃ¶l ye
Ġest etik
ĠÃĸzg izler
ĠBelÃ§ ika
Ġakadem isyen
Ġiftir ayÄ±
ĠCumhurbaÅŁkanÄ±mÄ±z Ä±n
ĠcezalandÄ±r Ä±lan
ĠhazÄ±rlan masÄ±na
ĠÃ¶zen dir
Ġparma ÄŁÄ±
ĠÄ°lÃ§ esi
Ġadliy eye
Ġmesl ektaÅŁlarÄ±nÄ±n
Ġmesaf edeki
Ġhallet mek
ĠKork maz
Ġergen lik
ĠÃ¼yeli ÄŁinden
Ġtemp olu
Ġtemmuz da
ĠTeklif i
ĠBilgin er
Ġkesint iyle
ĠKarar nam
Ġoynat Ä±ldÄ±ÄŁÄ±
Ġoynayacak larÄ±
ĠBors asÄ±
ĠOkyan usu
Ġmakar on
ĠKoordin asyon
ĠarttÄ±r Ä±cÄ±
Ġbeklent ilerinin
Ġdarbet ti
ĠDurdur acaÄŁÄ±z
Ġastronot u
ĠhastalÄ± ÄŁa
ĠaÄŁz Ä±nda
ĠaÄŁaÃ§ tan
ĠyarÄ±ÅŁma cÄ±
Ġheyet inin
ĠazaltÄ± cÄ±
Ġtehdidi yle
ĠbitiÅŁik teki
ĠGÃ¶rÃ¼ntÃ¼ lere
ĠdÃ¼kk anÄ±
ĠcanlandÄ±r Ä±yor
ĠkÄ±y metli
ĠtÃ¼ket ilen
ĠtÃ¼keticiler e
Ġharcan dÄ±
ĠÃ¶dey emeyen
ĠUygul ama
Ġmasal sÄ±
Ä°sp anya
ĠKamyon etteki
ĠSigort asÄ±
Ġpancar Ä±mÄ±n
Ġmiktar da
Ġruhsat sÄ±z
ĠsaldÄ±rganlÄ± ÄŁÄ±na
ĠÄ°sveÃ§ li
Ġresim li
ĠAbdul meh
Ġstat Ã¼
ĠvÃ¼cut taki
ĠÅŁeffaf lÄ±ktan
ĠGÃ¶ster ilerin
Ġstratej ik
Ġtedbir lere
ĠdaÄŁÄ±l Ä±mÄ±
ĠkurumsallaÅŁ mak
Ġkertenkel elerin
ĠmÃ¼kelle f
Ġbeyazlat Ä±cÄ±
Turizm de
ĠsÃ¼rdÃ¼rÃ¼lebilir dir
Am me
Bal yoz
Bit lis
BaÄŁ cÄ±lar
Berg ama
Brit anya
Ceza evindeki
DanÄ±ÅŁ manlÄ±k
EY P
Far uk
Fadi ga
GÃ¼mÃ¼ÅŁ hane
Kor kunÃ§
Kuy umcuk
KÃ¼t ahya
MM OB
Mur at
MÃľ SÄ°AD
Meteor olojik
Nijer ya
Pers ler
Sah ne
Sus sex
SayÄ±ÅŁ tay
TSS F
bÃ¶ lÃ¼m
edav i
hale esi
kerb erg
klif tin
mp i
tav ukkarasÄ±
taban lÄ±k
tehlik eli
war den
yak laÅŁÄ±k
yunda i
Ġast subay
Ġbut onu
ĠbÃ¼t Ã§
Ġbany osunda
Ġbayi den
ales ef
Ġyav ru
Ġyed inci
Ġkun daklayan
ĠkoÄŁ uÅŁ
ĠkÃ¼s lÃ¼ÄŁÃ¼
ĠkÄ±sÄ± t
ĠkÃ¼p e
ĠsoÄŁ utulmuÅŁ
Ġsop ayla
Ġsans Ã¼r
Ġsist eme
ĠsÃ¼p Ã¼r
Ġsoli st
Ġsustur mak
Ġspik eri
ĠtÄ±r man
Ġtuv alet
Ġtiti zlikle
Ġtorun larÄ±nÄ±
Ġvira jÄ±
Ġvide oyu
ĠBaz Ä±larÄ±
ĠBez os
ĠBÃ¼y Ã¼sÃ¼n
ĠBru gge
ĠBih ar
ĠBlock chain
Ġhor oz
Ġhum ma
Ġhelik opter
Ġhort um
Ġhiper tansiyon
ĠAlaÅŁ ehir
ĠAsel san
ĠAmir liÄŁi
ĠAÄŁa oÄŁlu
Ġduv ara
Ġmuv azzaf
ĠKerk Ã¼k
ĠKadÄ± kÃ¶y
ĠKiri akos
ĠTark an
ĠTrak ya
ĠTÃ¶ren e
ĠTanÄ±t ma
ĠSeÃ§ kin
ĠSta dÄ±
ĠSunda y
ĠSerk ut
ĠSing apur
ĠStad yumu
ĠScot t
ĠMim ar
ĠMoÄŁ olistan
ĠMeci diyekÃ¶y
ĠMesel a
ĠMond oro
ĠMOD EF
ĠModer n
ĠMcCona ughey
ĠMinut eman
Ġdemeye ceÄŁim
ĠÄ°SP ARK
ĠDÃ¼ÅŁ esi
ĠDÃ¼s seldor
ĠDiyad in
ĠEki pler
ĠERKÄ° N
Ġpip oyla
Ġpani ÄŁe
Ġpasapor tu
Ġpetrok imya
ĠÃ¶lebil eceÄŁi
ĠGetir ilen
ĠGodin a
ĠGuar dian
ĠGemuh luoÄŁlu
ĠHot spur
ĠHABER Ä°
ĠPlan larÄ±mÄ±z
ĠPlatform u
Ġaleyh ine
acaÄŁ Ä±ndan
ĠYarÄ± madasÄ±
Ġfort una
ĠFili stin
ĠFeli x
ĠFenerbah Ã§eli
ĠCop perfi
ĠCeng iz
ĠCroy don
ĠCHR O
ĠgÃ¶reb ilmeleri
ĠgÃ¶rmez den
Ġkarant ina
ĠaydÄ±n lat
Ġayakk abÄ±
ĠzayÄ± f
Ġziyar eti
ĠRada mel
ĠRTÃľ K
ĠRost ock
ĠÃĸdem iÅŁ
Ġrest or
ĠÃĩerkez kÃ¶y
ĠÃĩember ci
ĠList ede
ĠLank a
ĠEriv an
ĠErzur um
ĠNevr uz
ĠNÃ¶bet Ã§isiyiz
ĠNzon zi
ĠNerede yse
ĠNesli can
ĠParlament osu
Ġinisiyat if
Ġbelirlem elere
Ġbelirgin leÅŁti
Ġbelirsizlik lerin
Ġbilirk iÅŁi
Ġkurucu larÄ±ndan
ĠVatik an
ĠkarÅŁÄ±lÄ± ÄŁÄ±nda
ĠyÃ¶nelt ti
ĠUmar Ä±m
Ġyakalam ak
ĠmÃ¼steÅŁ arÄ±
ĠÃ§okluÄŁ uyla
Ġatmos fere
ĠIcar di
ĠdÃ¶nÃ¼ÅŁt Ã¼rme
ĠÃĸzyaÅŁ ar
ĠJef f
ĠLiver pool
ĠZuc kerberg
ĠZÃ¼mr Ã¼t
ĠZorun luluÄŁu
ĠZongul dak
Ġtekerlek li
icass o
ĠBaÅŁbu ÄŁ
ĠÃ¼reticiler ine
ĠAnkaragÃ¼ cÃ¼
ĠAyÅŁen ur
Ġmesnet siz
ĠTÃ¼rkAk Ä±m
ĠgÃ¶revlilerin ce
ĠOrkes tr
Ġbekleyen leri
ĠsatÄ±lÄ±k tÄ±r
Ġsevindir diÄŁini
Ġertel edi
Ġsandal ye
ĠpaylaÅŁÄ±lmÄ±ÅŁ tÄ±r
Ġmetrek arelik
ĠEnstit Ã¼sÃ¼
ĠyanÄ±sÄ±r a
Ġmuhalef ete
Ġmuhteli f
ĠEtiyop ya
ĠÃĸrtÃ¼s Ã¼z
ĠProfesyon el
ĠSÃ¼hey la
Ġcivar larÄ±nda
astasi adis
ĠÃ§ocuÄŁum un
Ġbeklenmedi k
Ġasfalt Ä±n
ĠAbdÃ¼l kadir
ĠKÄ±rgÄ±z istan
TÃľRS AB
ĠKullanamadÄ± ÄŁÄ±n
ĠgeniÅŁlettir dim
ĠMurathan oÄŁlu
ĠSalzbur g
ĠkÄ±yas la
Ġkirlili ÄŁe
Ġkirpik leri
1610 900
ĠhÃ¼kmed ildi
ĠZeljk o
Erzin can
Ä°SMA Ä°L
ĠGalax y
ĠYerleÅŁk esi
ĠNetfli x
Ġmutabakat la
Ġresepsiyon unda
ĠÃĸncÃ¼lÃ¼ÄŁ Ã¼ndeki
Ġsembo lik
Ġrezerv leri
ĠFinanci al
ĠLeeu warden
ĠChristchur ch
ĠKaftancÄ± oÄŁlu
ĠKÃ¼tÃ¼phan esi
ĠZincirlik uyu
BÄ°RGÃľ N
ĠBoulkes si
ĠAbdulmeh di
Kuyumcuk ent
ĠDÃ¼sseldor f
ĠCopperfi eld
! '
' .
' m
' ',
, '
. )
. <
0 4
0 5
2 9
2 70
2 80
3 7
3 9
3 00
4 1
4 8
4 00
4 90
4 60
5 5
6 3
6 5
6 53
7 4
7 6
7 84
8 1
8 5
8 70
9 3
> <
? .
A b
A h
A j
A s
A u
A w
A z
A Ä
A li
A ya
A lan
A cÄ±
A ram
A FA
A CHP
A mara
A ÄŁustos
A SKÄ°
A EM
A ustin
A sk
A lev
A stana
A teÅŁ
A leyna
B C
B E
B Y
B i
B in
B Ã¶
B el
B ay
B as
B ab
B om
B ro
B unu
B Ã¼yÃ¼k
B ask
B ile
B alÄ±k
B Ä°T
B rexit
B ahÃ§eli
B elen
B AÅŀ
B Ä°M
B uyan
B yLock
B aÄŁÄ±m
B ÃľL
B ahadÄ±r
C B
C M
C N
C R
C W
C an
C ar
C in
C am
C ev
C uma
C up
C iti
C enaz
C onnecticut
C AN
C eren
C Ä°MER
D C
D H
D o
D r
D ay
D oÄŁ
D ev
D ilen
D os
D ers
D evr
D ig
D TÃľ
D ave
D EAÅŀ
D eÄŁer
D Ä°R
D UV
D EN
D OB
D olar
D Ä°HA
D evrim
D ilipak
D animark
D ance
E D
E V
E m
E v
E ur
E vet
E min
E ÄŁitim
E qu
E laz
E UR
E lini
E SÄ°
E liz
E dinilen
E HM
F C
F K
F a
F in
F el
F or
F ilm
F ark
F ran
F estiv
F otoÄŁraf
F IFA
F ahri
F aci
G e
G en
G enel
G Ã¼s
G Ã¼nde
G ust
G Ã¼mrÃ¼k
G elen
G elin
G Ã¼rcistan
G BT
G ayriihtiyari
G aran
G iyim
G ardner
G EV
H a
H ar
H ak
H ay
H Ä±z
H erk
H ile
H Ã¼kÃ¼m
H ast
H ikay
H ele
H oÅŁ
H uawei
H EF
H Ã¼rkuÅŁ
H indu
H ailey
H ESÄ°
I L
I s
I ÄŁ
I Tek
I BA
J O
J ap
J oker
J uli
K M
K O
K S
K Y
K Ã¶
K aÅŁ
K at
K ur
K ap
K av
K ok
K Ä±z
K op
K uÅŁ
K ans
K Ãĸ
K emal
K Ãľ
K end
K arar
K Ã¼Ã§Ã¼k
K AR
K artal
K azlÄ±
K AP
K DV
K and
K ONDA
K astamonu
K AN
K HK
K endisine
K DC
L o
L om
L SP
L MAS
L Ä°N
L espor
L Ä°V
L ITek
M E
M K
M Ä±
M Ã¼
M en
M es
M Ã¼n
M im
M ey
M iz
M Ã¼z
M ol
M it
M ac
M Ã¼s
M ic
M ahkem
M eme
M alat
M ide
M YK
M etin
M oto
M ansur
M Ã¼mkÃ¼n
M EB
M Ã¼st
M Ä°S
M Ä±sÄ±r
M adem
M otosiklet
M asterChef
M DK
M eksika
M atthew
M SAD
M ahatma
M GSB
M LSP
N E
N N
N O
N T
N as
N or
N us
N asÄ±l
N adira
N ice
N ETT
N agehan
N eÅŁet
N otunuzu
N issan
O R
O Y
O n
O p
O ÄŁ
O re
O Ãĩ
O pp
O yalama
O limp
O EC
P O
P r
P er
P et
P ay
P es
P ur
P ol
P yon
P uk
P aya
P eki
P op
P iyas
P lay
P od
P etrol
P YD
P ier
P icasso
P HESÄ°
Q u
R es
R Ä°
R um
R ad
R ize
R esmi
R ou
S e
S p
S al
S el
S ay
S ol
S av
S ev
S om
S ez
S Ã¼t
S tan
S unu
S eri
S Ã¶z
S AB
S ilah
S Ãĩ
S ayÄ±n
S akat
S taj
S anÄ±k
S ayÄ±sal
S EN
S pirul
T B
T K
T T
T a
T u
T er
T ak
T ok
T ez
T op
T od
T aha
T he
T aciz
T AÅŀ
T SO
T urk
T Ä°M
T oyo
T GS
T AY
T SB
T raktÃ¶r
T ottenham
T EK
T ES
T IK
T uÅŁba
T MMOB
T edavi
U y
U z
U ÅŁak
U laÅŁtÄ±rma
U TEK
V A
V en
V ay
V arlÄ±k
V atan
V ahh
W ol
W hatsApp
W SJ
W aym
X PO
Y A
Y E
Y H
Y O
Y a
Y as
Y ur
Y Ã¼r
Y ol
Y aÄŁ
Y alan
Y avaÅŁ
Y oÄŁun
Y azar
Y eter
Y Ä±ldÄ±z
Y avuz
Y Ã¼zde
Y EP
Y erlerine
Z or
Z iyaret
Z eynep
a a
a o
a Ä±lan
a dÄ±r
a dÄ±m
a imi
a uc
a wa
a diÅŁ
a iri
a ikle
b iy
b li
b ik
b anÄ±
b inde
b um
b ah
b it
b ya
b ad
b asÄ±nda
b Ã¼yÃ¼k
b anÄ±n
b oy
b ede
b eci
b be
b erb
b unca
b ing
b eral
b ilin
b aba
b ildiÄŁi
b iyiz
b Ã¼st
b ike
b ikat
b inasyon
c o
c al
c ay
c at
c ah
c eler
c aya
c Ã¼m
c anlÄ±
c eli
c umhur
c elik
c alan
c arÄ±
c alÄ±
c aret
c esinin
c alÄ±k
c enin
c illi
c asÄ±nÄ±n
c Ä±sÄ±nda
c ast
c Ä±lÄ±ÄŁÄ±
c Ä±sÄ±nÄ±
c Ä±sÄ±na
c alam
c oin
c acÄ±k
c isiz
d lar
d ul
d Ã¼n
d Ã¼z
d Ä±nÄ±
d ol
d alar
d ildi
d let
d unda
d arÄ±
d alÄ±
d ov
d ilik
d uru
d ret
d ilecek
d ge
d anÄ±ÅŁ
d alarÄ±nda
d Ã¶l
d lib
d oktor
d cast
e ar
e en
e ek
e ad
e Bu
f f
f an
f in
f Ä±n
f en
f il
f lar
f le
f iye
f it
f ini
f ade
f iyat
f ret
f urt
f atÄ±yla
f orlu
f ezi
f ka
f eksiyon
f ke
f ilmekimi
g h
g n
g y
g er
g Ã¼z
g Ã¼l
g us
g uk
g uÅŁ
g enel
g ÄŁr
g ece
g Ä±lÄ±
g una
g unun
g anda
g usu
g eleri
g ov
g yan
g Ã¼ven
g inci
g usuna
g atif
g eyle
g aza
g isayar
g ayri
g Ä±sÄ±z
h s
h ar
h en
h ul
h em
h iÅŁ
h Ä±r
h inin
h lam
h let
h op
h isi
h met
h bar
h id
h eyi
h illi
h ag
h son
h ari
h ner
h alarÄ±nÄ±
h isar
i a
i on
i ini
i ev
i ad
i Ã§ek
i ÄŁimiz
i dat
i irin
i Ã¶ren
i enen
i demir
j u
j an
j en
j on
j li
j ileri
j ira
j dat
j ant
j ener
j amin
j anci
k ar
k Ä±n
k Ã¶
k em
k ey
k az
k um
k Ã¼l
k ini
k ili
k op
k eli
k ra
k art
k ilerin
k urt
k ump
k isinde
k Ä±da
k aladÄ±
k tÃ¼r
k opi
k arlar
k amda
k Ã¼lÃ¼yor
l y
l Ä±l
l Ã¼z
l ine
l inin
l alar
l Ä±nÄ±n
l aya
l esinde
l oy
l asÄ±na
l tr
l mi
l mada
l ilerine
l indi
l alarÄ±nÄ±n
l ilerinin
l kenin
m r
m da
m aÅŁ
m es
m or
m em
m Ã¼n
m ik
m Ã¼l
m ini
m eÃ§
m ec
m ark
m Ã¼nde
m uÅŁtur
m alÄ±k
m Ã¼ÅŁtÃ¼
m oto
m ekten
m emek
m iyorlar
m emeleri
m eyecek
m yacak
m eyerek
m esan
m emiÅŁ
n iy
n ur
n em
n ab
n af
n cÄ±
n elik
n eri
n ot
n alÄ±
n cisi
n esiyle
n cÃ¼
n Ã¶bet
n emi
n eyerek
n elerle
n opark
n cÄ±sÄ±
n eylan
n celik
o et
o ta
o ca
o id
o lardan
o fer
o ise
p s
p t
p an
p in
p en
p ak
p ey
p te
p ons
p eÄŁi
p embe
p Ä±nar
p opo
p los
p olis
p ass
p alamaya
p aÄ±lan
r ir
r el
r ur
r Ä±k
r ap
r iÅŁ
r is
r asÄ±
r mak
r ayan
r alÄ±
r anlÄ±ÄŁÄ±
r anÄ±ÅŁ
r asyonu
r one
r uldu
r iya
r esinden
r ayÄ±ÅŁ
r ata
r Ã¼ÅŁvet
r aÄŁÄ±na
r mann
r ick
r dÃ¼n
s ur
s Ã¼r
s iÅŁ
s ol
s iye
s it
s ki
s eÃ§
s ad
s ili
s Ã¼m
s os
s Ã¼t
s Ã¼s
s una
s iyas
s por
s Ã¶z
s aray
s imi
s istem
s lararasÄ±
s Ã¼nden
s Ã¼yle
s orumlu
s Ã¼ye
s ediyor
s Ã¶yle
s iyah
s Ã¼nÃ¼z
s heim
s kunk
s eydik
s hop
t Ã¼n
t ti
t um
t esi
t ma
t Ä±ndan
t ika
t iyor
t eye
t elik
t ayÄ±
t maya
t lerde
t urdu
t uÄŁ
t asÄ±nÄ±
t ullah
t asonu
u d
u er
u dan
u ya
u larÄ±n
u lara
u bu
u id
u larÄ±ndan
u duÄŁu
u beyr
v e
v es
v iy
v at
v it
v ili
v aÃ§
v eri
v oy
v eci
v alÄ±k
v est
v Ä±yla
v elerini
v anyasÄ±
v ice
v allah
v Ã§inin
v agon
v halarÄ±nÄ±
w in
w ay
w nin
w ang
w ski
x im
y et
y ay
y di
y dÄ±
y ul
y ik
y az
y du
y us
y os
y te
y asyon
y elik
y aÅŁÄ±
y enin
y esiyle
y azar
y alara
y alarÄ±nÄ±
y dik
y akos
y aman
y olojik
y oter
y imiyle
y olojisi
y mpi
y pass
y rÄ±k
z ar
z en
z at
z im
z la
z anÄ±
z av
z enin
z ari
z ani
z anya
z evi
z ersiz
z heim
z vest
Ġ +
Ġ ,
Ġ :
Ġ Ä±
Ġ ine
Ġ lÃ¼
Ġ eli
Ġ Ä±sÄ±
Ġ eri
Ġ eme
Ġ umu
Ġ rub
Ġ aÅŁkÄ±n
Ġ ww
Ġ asÄ±r
Ġ ektiler
Ġ Qu
ŀ Manisa
Ä± ÄŁ
Ä± larak
Ä± cak
Ä± ver
Ä± lardan
Ä± Ã§ak
Ä± beti
Ä± tanÄ±n
Ä± cÄ±sÄ±nda
an z
an ol
an om
an laÅŁ
an iyet
an masÄ±na
an esiyle
an ni
an atik
an lanarak
an Ã¼st
an nesi
Ã¼ li
Ã¼ dÃ¼r
Ã¼ lerini
Ã¼ ÅŁte
Ã¼ dÃ¼ÄŁ
Ã¼ be
Ã¼ fer
Ã¼ veni
Ã¼ je
ar Ä±n
ar dÄ±
ar am
ar Ä±k
ar Ä±nda
ar iÅŁ
ar ya
ar alar
ar us
ar Ä±lan
ar man
ar Ä±lÄ±
ar bu
ar mÄ±ÅŁ
ar alÄ±k
ar lÄ±ÄŁÄ±
ar yen
ar mÄ±
ar ant
ar sÄ±nÄ±
ar mon
ar aÅŁtÄ±rma
er lar
er ap
er ez
er ef
er jileri
in d
in on
in li
in dan
in inde
in aya
in anÄ±n
in gen
in ize
in yum
ÅŁ a
ÅŁ i
ÅŁ u
ÅŁ al
ÅŁ Ã¼r
ÅŁ ap
ÅŁ Ã¼l
ÅŁ af
ÅŁ aÄŁ
ÅŁ ad
ÅŁ eli
ÅŁ eye
ÅŁ tÄ±r
ÅŁ eti
ÅŁ if
ÅŁ iv
ÅŁ allah
ÅŁ afaka
ÅŁ ireler
ÅŁ ileriyle
ÅŁ siÅŁ
Ä±n Ä±na
Ä±n lÄ±k
Ä±n ayarak
Ä±n madan
Ä±n dÄ±k
Ä±n cal
en et
en ay
en ek
en ik
en leri
en om
en ter
en ale
en lenen
en ge
en ekli
en mesine
en mez
en ni
en eÄŁi
en cilik
en str
en edik
en hag
il a
il k
il l
il ay
il le
il iye
il yon
il ec
il esinde
il eye
il eÅŁ
il ot
il lerini
il eme
il se
il ilerin
il ing
il eceÄŁini
il eceÄŁine
il lendiÄŁini
il iminde
ÄŁ an
ÄŁ Ä±k
ÄŁ lÄ±
ÄŁ aÃ§
ÄŁ iyle
ÄŁ Ã¼t
ÄŁ eri
ÄŁ madÄ±
ÄŁ iÅŁim
ÄŁ ince
ÄŁ nesi
ÄŁ sÃ¼ne
ÄŁ sÃ¼m
Ã§ Ã¼
Ã§ in
Ã§ ay
Ã§ at
Ã§ li
Ã§ ine
Ã§ Ä±nÄ±n
Ã§ ta
Ã§ oÄŁlu
Ã§ aÄŁÄ±
Ã§ eyi
Ã§ ilerine
Ġb i
Ġb on
Ġb Ã¶r
Ġb ol
Ġb asÄ±
Ġb ini
Ġb Ã¼k
Ġb av
Ġb ec
Ġb ro
Ġb asÄ±nda
Ġb ed
Ġb alÄ±
Ġb ede
Ġb est
Ġb esini
Ġb asÄ±nÄ±n
Ġb izi
Ġb ons
Ġb asÄ±nÄ±
Ġb log
Ġb and
Ġb Ä±kan
Ġb ypass
al ak
al aÅŁ
al Ä±nda
al lat
al esinin
al lim
al og
al iniz
al bur
al gaz
al lebi
al izler
al palamaya
Ġy on
Ġy oÄŁ
Ġy ans
Ġy ada
Ġy ede
Ġy uh
Ġy uv
Ġy eme
Ġy eÄŁ
Ġy orumlu
Ġy aba
Ġy endiÄŁi
Ġy alanÄ±
Ġy esin
Ġy osunu
Ġy paÄ±lan
Ġy alpalamaya
Ġk g
Ġk li
Ġk af
Ġk eÃ§
Ġk uz
Ġk aya
Ġk anlÄ±
Ġk ef
Ġk Ã¼lt
Ġk uc
Ġk afa
Ġk Ã¼Ã§
Ġk Ä±nan
Ġk ehan
Ġk Ã¼me
Ġk emi
Ġk lini
Ġk alarak
Ġk edinin
Ġk anÄ±mÄ±
Ġk uÅŁu
Ġk Ä±nayarak
de z
de di
de st
de den
de dem
de bir
de ÅŁten
de ÄŁiÅŁim
ak Ä±n
ak lar
ak Ã¼r
ak um
ak asÄ±
ak it
ak alar
ak Ä±z
ak ent
ak ob
ak eme
ak arlÄ±k
ak emesi
ak hari
ak ota
Ġs ek
Ġs ik
Ġs Ã¼k
Ġs ilen
Ġs ade
Ġs per
Ġs ip
Ġs anÄ±n
Ġs ed
Ġs ten
Ġs esine
Ġs ent
Ġs usu
Ġs arp
Ġs tr
Ġs ilik
Ġs aray
Ġs esini
Ġs ulan
Ġs izi
Ġs ing
Ġs uyla
Ġs oda
Ġs anÄ±yor
Ġs aka
Ġs iste
Ġs Ã¼per
Ġs ola
Ġs etinde
Ġs omut
Ġs tÃ¼dy
Ġs pirul
Ġs aikle
Ġs pons
Ã¶ m
Ã¶ len
Ã¶ ten
Ã¶ mer
Ã¶ hmet
Ã¶ ÄŁÃ¼t
ir o
ir iy
ir li
ir az
ir inde
ir iz
ir len
ir ilen
ir Ã¼s
ir oÄŁlu
ir se
ir cisi
Ġg e
Ġg ur
Ġg ey
Ġg ayet
Ġg ast
Ġg azlÄ±
Ġg azÄ±
Ġg arip
Ġg ala
Ġg aran
Ġg asp
Ġg edik
Ġg arant
da da
da ÅŁam
el a
el ir
el da
el ek
el la
el edi
el endi
el lat
el enin
el eme
el se
el ilerin
el sin
el alarÄ±nda
el iyorlar
el ata
el eyecek
el and
el zele
el illeri
et z
et ya
et af
et lenen
et mek
et ten
et ri
et lerinde
et lerine
et enin
et kil
et tin
et ikte
et sk
et aylar
et melerini
et aryen
ay as
ay ol
ay ev
ay dÄ±r
ay esinde
ay ed
ay abildiÄŁi
ay acaÄŁÄ±na
ay burn
as Ã¼r
as ta
as tan
as ten
as if
as gari
as aydÄ±
as anoÄŁlu
lar dÄ±r
lar larla
di t
di z
di ya
di ci
di ÅŁehir
di tor
di ham
di ff
ek lerinde
ek imi
ek sik
ek kÃ¼r
ek Ã§ede
ek mekÃ¶y
ek kÃ¼l
aÅŁ Ä±nda
aÅŁ tÄ±
aÅŁ Ä±nÄ±
aÅŁ Ä±r
aÅŁ masÄ±
aÅŁ Ä±rlÄ±
on im
on ey
on dan
on du
on it
on larÄ±
on os
on larÄ±nÄ±
on una
on san
on larÄ±ndan
on bay
on lamasÄ±
on cker
on anÄ±m
on koloji
on ardo
Ġt ap
Ġt ey
Ġt aÅŁk
Ġt Ã¼rk
Ġt ac
Ġt af
Ġt ok
Ġt ev
Ġt ec
Ġt ez
Ġt Ã¼y
Ġt eli
Ġt amp
Ġt Ã¼p
Ġt uh
Ġt ahk
Ġt oz
Ġt erb
Ġt rol
Ġt aba
Ġt anÄ±nÄ±n
Ġt okat
Ġt ren
Ġt orn
Ġt rib
Ġt Ã¶hmet
Ġt etikte
Ġo st
Ġo dasÄ±
Ġo muz
Ġo caÄŁÄ±
dÄ± ÄŁ
dÄ± ÄŁÄ±nda
es h
es ek
es im
es sel
es ayet
es lenme
es edin
es kop
iy av
iy arÄ±
iy atÄ±yla
iy ince
iy aha
iy Ã¼zlÃ¼
iy akarlÄ±k
un d
un et
un lar
un di
un um
un anlÄ±
un elerin
un cusu
un cay
Ġi di
Ġi stanbul
Ġi ken
Ġi drar
Ġi ÅŁten
Ġi cat
Ġi ÄŁnesi
Ġv s
Ġv iz
Ġv ad
Ġv ic
Ġv ali
Ġv ize
Ġv adi
Ġv atan
Ġv iyad
Ġv ekili
Ġv agon
Ġv irÃ¼s
Ġv esayet
at e
at es
at tÄ±
at anÄ±
at larÄ±
at ali
at ing
at izm
at manÄ±n
at Ä±mÄ±z
at ani
at kap
at Ã§Ä±sÄ±
at olarÄ±
at iÄŁimiz
at sos
at viy
at enik
ĠB um
ĠB ac
ĠB ok
ĠB edi
ĠB eni
ĠB asÄ±nda
ĠB Ã¼t
ĠB eh
ĠB acak
ĠB if
ĠB ER
ĠB abil
ĠB est
ĠB oz
ĠB ize
ĠB ald
ĠB ook
ĠB ebek
ĠB araj
ĠB ij
ĠB oÄŁaz
ĠB lok
ĠB ry
ĠB lo
ĠB ost
ĠB unlarÄ±
ĠB Ã¼nyesinde
ĠB eton
ĠB alÄ±ÄŁÄ±
ĠB ahar
ĠB erber
ĠB Ä°L
ĠB idon
ĠB yLock
ĠB ahri
ĠB use
ĠB aÄŁÄ±m
ĠB ahadÄ±r
ĠB OY
ĠB UTEK
ĠB auc
ĠB yte
ĠB Ä±Ã§ak
ĠB eslenme
ĠB iyaha
am ar
am Ä±n
am lar
am ik
am lÄ±
am ine
am ini
am Ä±z
am ollaoÄŁlu
am aklÄ±
am Ä±ÅŁtÄ±
am mÃ¼l
am elenin
am aÅŁÄ±rlÄ±
Ġh Ã¼z
Ġh it
Ġh us
Ġh ut
Ġh ec
Ġh uk
Ġh edi
Ġh arp
Ġh ile
Ġh id
Ġh orm
Ġh adi
Ġh ele
Ġh ij
Ġh ekim
Ġh Ã¼rriyet
Ġh adis
Ġh ack
Ġh yundai
Ġh ekimi
ur a
ur an
ur al
ur iy
ur aya
ur cu
ur unu
ur tar
ur ana
ur dama
Ä±l Ä±m
Ä±l maya
Ä±l madÄ±
Ä±l acaÄŁÄ±
Ä±l gÄ±n
Ä±l mayan
Ä±l amaz
Ä±l masÄ±nÄ±n
Ä±l abilir
Ä±l anÄ±yor
Ä±l mamasÄ±
Ä±l masÄ±ndan
Ä±l maktan
Ä±l abilirsiniz
Ä±l mÄ±yor
Ä±l amanÄ±n
Ä±l abileceÄŁine
Ä±l amÄ±yor
Ä±l tmaya
ler ek
ler dir
ler cesinin
li a
li bol
li ver
li anz
ĠA Ä°
ĠA le
ĠA la
ĠA ÄŁÄ±
ĠA lÄ±
ĠA man
ĠA ilen
ĠA mas
ĠA ram
ĠA dem
ĠA bu
ĠA tay
ĠA taÅŁ
ĠA sil
ĠA fet
ĠA RT
ĠA pr
ĠA ÄŁust
ĠA SO
ĠA ON
ĠA car
ĠA mel
ĠA ustin
ĠA lev
ĠA del
ĠA HEF
ĠA OÃĩ
ĠA TAÅŀ
ĠA gn
ĠA ÅŁaÄŁ
ĠA ÄŁaÃ§
Ġd om
Ġd ili
Ġd ans
Ġd endi
Ġd eri
Ġd oy
Ġd iliyor
Ġd Ã¼ÅŁt
Ġd ilde
Ġd ond
Ġd ersin
Ġd ilenen
Ġd uman
Ġd rone
Ġd onanÄ±m
or st
or la
or uk
or ni
or ite
or ilerden
or rin
or dlar
or ella
or onbay
Ġm ul
Ġm Ã¼n
Ġm eÃ§
Ġm uk
Ġm uy
Ġm eb
Ġm ot
Ġm anda
Ġm ent
Ġm ob
Ġm ide
Ġm ant
Ġm Ä±sÄ±nÄ±
Ġm ayÄ±s
Ġm ecr
Ġm agazin
Ġm oder
Ġm amÃ¼l
Ġm ucize
Ġm onit
Ġm iyav
Ġm atkap
Ã¼r Ã¼z
Ã¼r Ã¼k
Ã¼r oÄŁlu
Ã¼r sel
Ã¼r oloji
Ã¼r sever
Ã¼r Ã¼zlÃ¼
Ã¼r sÃ¼nÃ¼z
Ã¼r ingen
ul da
ul lar
ul os
ul maya
ul acaÄŁÄ±
ul abilir
ul adÄ±ÄŁÄ±
ul makta
ul ting
ul gay
ul iyev
em in
em eler
em inden
em esinin
em eyi
em alarda
em ina
em iyorlar
em iyoruz
em ediÄŁi
Ä±k a
Ä±k aya
Ä±k larÄ±nÄ±
Ä±k han
Ä±k lÄ±lÄ±k
Ã¼n ler
Ã¼n dÃ¼r
Ä° P
Ä° st
Ä° negÃ¶l
Ä° drar
Ä° dlib
Ä° hbar
Ä° zvest
Ä° Ã§ine
st o
st ik
st onya
st ebek
st asÄ±ndan
ĠK im
ĠK ey
ĠK Ã¶r
ĠK Ä±na
ĠK eÃ§
ĠK ev
ĠK aÃ§
ĠK op
ĠK os
ĠK ans
ĠK eb
ĠK arak
ĠK oy
ĠK Ã¼p
ĠK ulu
ĠK ayy
ĠK ep
ĠK aray
ĠK azar
ĠK Ã¼b
ĠK Ä°M
ĠK edinin
ĠK OB
ĠK HK
ĠK AL
ĠK utlu
ĠK endisine
ĠK haleesi
ĠK CN
ĠK KY
ĠK iev
ĠT ik
ĠT anÄ±
ĠT Ã¼k
ĠT ev
ĠT aki
ĠT ec
ĠT iyat
ĠT ali
ĠT ep
ĠT est
ĠT Ä±lÄ±Ã§
ĠT oz
ĠT uma
ĠT eÄŁ
ĠT andÄ±r
ĠT ort
ĠT amam
ĠT raktÃ¶r
ĠT iyatro
ĠT ecr
ĠT unÃ§
ĠT ehlik
ĠT ramv
ĠT eor
ĠT unus
ĠT ory
ĠT uÅŁba
ĠT raj
ĠT MMOB
ĠT edavi
ĠT MK
ĠT TB
ĠT yul
ĠT enek
ĠT uncay
ĠT ulgay
ĠÃ§ im
ĠÃ§ Ä±r
ĠÃ§ aÄŁÄ±
ĠÃ§ atÄ±
ĠÃ§ ob
ĠÃ§ anak
ĠÃ§ Ä±t
ĠÃ§ Ã¶l
ĠÃ§ oÄŁu
ĠÃ§ akar
ĠÃ§ ukur
ĠÃ§ aÄŁÄ±r
ĠÃ§ erÃ§
ĠÃ§ ektiler
ĠÃ§ adÄ±r
ĠÃ§ teye
ĠÃ§ erez
ĠÃ§ ileye
ĠÃ§ amaÅŁÄ±rlÄ±
ĠÃ§ Ä±lgÄ±n
ĠS n
ĠS es
ĠS ol
ĠS ad
ĠS uz
ĠS ili
ĠS aÃ§
ĠS eni
ĠS eli
ĠS isi
ĠS ih
ĠS aat
ĠS ic
ĠS ET
ĠS Ã¶k
ĠS tep
ĠS of
ĠS adet
ĠS omp
ĠS oda
ĠS PD
ĠS tur
ĠS atÄ±cÄ±
ĠS ON
ĠS Ä±nav
ĠS iyah
ĠS itesi
ĠS ho
ĠS AM
ĠS AH
ĠS atÄ±ÅŁ
ĠS Ä°V
ĠS omut
ĠS tÃ¼dy
ĠS parta
ĠS MDK
ĠS TK
ĠS berb
ĠS hinin
ĠS Ä±cak
ĠS akÄ±z
ĠS Ã¶ÄŁÃ¼t
ĠS atenik
ik el
ik ap
ik asÄ±
ik alar
ik aya
ik alÄ±
ik ten
ik ov
ik sen
ik tor
ik ud
ik asta
ap o
ap t
ap is
ap larÄ±
ap ta
ap ist
ap Ã§i
ĠM K
ĠM ey
ĠM ine
ĠM Ã¼l
ĠM Ã¼k
ĠM av
ĠM aÄŁ
ĠM ec
ĠM ih
ĠM eri
ĠM oz
ĠM ide
ĠM ag
ĠM alk
ĠM aj
ĠM Ã¼ze
ĠM oda
ĠM elen
ĠM otor
ĠM oj
ĠM otorinin
ĠM HK
ĠM PÄ°
ĠM ucize
ĠM ahatma
ĠM GSB
ĠM EHM
ĠM oise
ĠM eksik
ĠM undi
ĠM atviy
ĠM ikel
le de
le cek
le ÄŁe
le ague
Ġil im
Ġil ah
Ġil lÃ¼
Ġil aÃ§
Ġil mini
Ġde stan
Ġde miÅŁ
Ġde se
Ġde miÅŁti
Ġde sen
Ġde desi
Ġde kor
Ġde jener
Ġde lindi
Ġde yimiyle
Ġde zen
Ġde ÅŁif
Ġde lecek
Ġbir de
Ġbir inde
Ġbir iyle
Ġbir imiz
Ġbir ilik
Ġbir imi
Ġbir ilerine
Ġbir liÄŁini
Ġbir ilerinin
Ġbir leÅŁen
im ler
im it
im iler
im ova
im lilik
im ahal
im liler
im Bom
im dilik
Ġol a
Ġol un
Ġol aÄŁ
Ġol uÅŁt
Ġol ama
Ġol sam
Ġol asÄ±l
Ġol amaz
Ġol masÄ±nÄ±n
Ġol masÄ±yla
Ġol mayÄ±
Ġol gun
Ġol gu
Ġol acaÄŁÄ±z
Ġol mama
Ġol malarÄ±nÄ±n
Ġol saydÄ±
Ġol unmaz
Ġol abilen
Ġol unuyor
Ġol gunun
Ġol myacak
Ġa ÄŁa
Ġa idi
Ġa ÄŁustos
Ġa idat
ey t
ey im
ey den
ey ma
ey ra
ey aÄŁÄ±
ey sel
ey se
ey rek
ey emez
ey onlarÄ±
Ä±nda ÄŁ
la da
la bilecek
la vanÄ±n
ÄŁÄ± mÄ±za
Ã¶r e
Ã¶r leri
Ã¶r oloji
iÅŁ ti
iÅŁ inin
iÅŁ tir
iÅŁ miÅŁ
iÅŁ lerine
iÅŁ ant
iÅŁ ilemeyen
iÅŁ kili
iÅŁ amlÄ±
tÄ± lar
tÄ± yor
tÄ± ÄŁÄ±na
tÄ± ysa
ĠÄ° lam
ĠÄ° rem
ĠÄ° ddi
ĠÄ° Ãľ
ĠÄ° hal
ĠÄ° HA
ĠÄ° cra
ĠÄ° KS
ĠÄ° MSAD
ĠÄ° NT
ĠÄ° fade
anÄ± z
anÄ± yla
anÄ± yorum
anÄ± rken
anÄ± zÄ±
ti Ã§i
ti eng
ti sini
ti caret
ti jli
ti ÄŁince
ti akÄ±n
ti stik
az il
az ara
az acÄ±lÄ±k
az kiye
az ts
dan larÄ±
dan Ä±nÄ±n
den t
den ler
ĠD C
ĠD e
ĠD Ã¼
ĠD is
ĠD iz
ĠD ab
ĠD um
ĠD ah
ĠD ili
ĠD ark
ĠD ih
ĠD aÄŁÄ±
ĠD iyet
ĠD ers
ĠD ayan
ĠD ef
ĠD est
ĠD end
ĠD iyar
ĠD od
ĠD rag
ĠD AR
ĠD iyan
ĠD etro
ĠD ost
ĠD HA
ĠD EM
ĠD ustin
ĠD ail
ĠD uman
ĠD illere
ĠD amada
ĠD Ã¶rt
ĠD anÄ±ÅŁt
ĠD TSO
ĠD aimi
ĠD arya
ĠD akota
ĠD elilleri
ĠD etaylar
ĠD iyarÄ±
ĠD amar
ĠD oruk
ĠD Ã¼rÃ¼k
ĠD imit
ĠE da
ĠE ce
ĠE lem
ĠE las
ĠE ast
ĠE lim
ĠE leme
ĠE GM
ĠE ug
ĠE SB
ĠE PGÄ°S
ĠE TC
ĠE danur
ĠE CB
ĠE DÄ°R
ĠE XPO
ĠE xim
ĠE arbu
ĠE asten
ĠE diz
ĠE libol
ĠE stonya
is h
is k
is lik
is eri
is ca
is por
is mar
is kele
iz de
iz or
iz den
iz asyon
iz min
iz amet
iz vi
iz yoter
Ã¼z eli
Ã¼z Ã¼ne
Ã¼z arlÄ±k
Ġp es
Ġp ab
Ġp ah
Ġp av
Ġp Ã¼s
Ġp landÄ±
Ġp ers
Ġp lat
Ġp ran
Ġp alam
Ġp iyan
Ġp enÃ§
Ġp embe
Ġp res
Ġp ike
Ġp orn
Ġp asp
Ġp isti
Ġp enet
Ġp ilot
Ġp Ã¼rÃ¼zlÃ¼
Ġp azara
Ġp islik
ab at
ab Ä±nÄ±
ab ya
ab ildi
ab uk
ab alÄ±
ab etin
ab akÄ±
ab ilmesini
ab alÄ±ÄŁÄ±
ab irlerin
ab aÅŁÄ±nda
um un
um ru
um ara
um kin
um ba
ĠÃ¶ ten
ĠÃ¶ mÃ¼r
ĠÃ¶ mr
du atÄ±
du klarÄ±nÄ±
du ktan
du kÃ§a
du alarla
Ġe da
Ġe ÄŁit
Ġe diÅŁ
Ġe uro
Ġe bad
Ġe pey
Ġe dici
ĠG uz
ĠG om
ĠG ec
ĠG uy
ĠG arÄ±
ĠG ram
ĠG ent
ĠG ecik
ĠG ari
ĠG vri
ĠG ros
ĠG rub
ĠG Ã¼c
ĠG enk
ĠG ezi
ĠG and
ĠG Ã¼ler
ĠG Ã¼cÃ¼
ĠG enc
ĠG lobal
ĠG eor
ĠG eylan
ĠG ardner
ĠG nab
ĠG uid
ĠG wang
ĠG Ã¼li
ĠG aram
ĠG akhari
ĠG etaf
ĠG ates
ĠG Ã¼rsel
ĠG uliyev
ĠG Ã¼zeli
ol z
ol Ã¼
ol in
ol ay
ol oÄŁ
ol per
ol kan
ol ina
ol mamasÄ±
ol aÅŁtÄ±rdÄ±
ol kart
lÄ± lar
lÄ± dÄ±r
lÄ± sÄ±
lÄ± yap
lÄ± calÄ±
ĠH Ä±r
ĠH Ã¼k
ĠH ist
ĠH erk
ĠH ede
ĠH ali
ĠH arp
ĠH ep
ĠH iss
ĠH int
ĠH ani
ĠH elen
ĠH emen
ĠH iti
ĠH aln
ĠH izmeti
ĠH uzur
ĠH uku
ĠH ES
ĠH ondur
ĠH ague
ĠH indu
ĠH ailey
ĠH yundai
ĠH oca
ĠH Ä±ncal
ĠH elsin
ĠH orst
ĠH Ã¼rsever
ĠH apis
ah Ä±
ah udi
ah mi
ah lak
ah asanoÄŁlu
asÄ± t
Ġyap sa
Ġyap ama
Ġyap maz
Ġyap sam
Ġyap mam
Ġyap madÄ±
Ġyap mÄ±ÅŁ
Ġyap masÄ±na
Ġyap manÄ±
Ġyap abilir
Ġyap malÄ±
Ġyap Ä±sÄ±nÄ±n
Ġyap Ä±lÄ±yor
Ġyap madÄ±ÄŁÄ±nÄ±
Ġyap malarÄ±na
Ġyap amadÄ±
Ġyap Ä±mÄ±zÄ±
Ġyap boz
Ġyap mÄ±yordu
Ġyap acaÄŁÄ±na
ĠP et
ĠP ist
ĠP Ãĸ
ĠP lanÄ±
ĠP ej
ĠP rag
ĠP sik
ĠP endik
ĠP embe
ĠP aza
ĠP lev
ĠP OM
ĠP fe
ĠP les
ĠP icasso
ĠP AEM
ĠP TT
ĠP adiÅŁ
ĠP ear
ĠP hilli
ĠP ion
ĠP asif
ĠP umba
Ġar dÄ±
Ġar ma
Ġar alar
Ġar Ä±z
Ġar alÄ±
Ġar andÄ±
Ġar dÄ±n
Ġar alama
Ġar anÄ±yor
Ġar Ä±ndÄ±r
Ġar alanmÄ±ÅŁ
Ġar bede
Ġar kamda
Ġar arsÄ±nÄ±
Ġar anÄ±z
Ġal Ä±nda
Ġal ma
Ġal ez
Ġal dÄ±r
Ġal ta
Ġal Ã¼m
Ġal anÄ±n
Ġal Ã§Ä±
Ġal madÄ±
Ġal masÄ±nÄ±
Ġal Ä±cÄ±
Ġal masÄ±yla
Ġal malarÄ±
Ġal Ä±rken
Ġal madÄ±ÄŁÄ±
Ġal amam
Ġal abilmesi
Ġal masÄ±ndaki
Ġal zheim
Ġal armÄ±
ma ddi
ma ganda
ma vili
ce ÄŁine
ce hisar
it asyon
it liÄŁi
it enin
it esini
it any
it ime
it anlarÄ±nÄ±
it hs
ya fet
Ä±na cak
Ä±na caÄŁÄ±nÄ±
oÄŁ umuz
Ä±r lar
Ä±r sa
Ä±r Ã¶z
Ä±r kÃ¶y
Ä±r tÄ±na
Ã¼l in
Ã¼l Ã¼k
Ã¼l mesi
Ã¼l meye
Ã¼l mÃ¼ÅŁ
Ã¼l meleri
Ã¼l mÃ¼yor
Ã¼l emez
ini p
Ġ1 20
lan lar
lan maya
lan tik
lan madÄ±
lan masÄ±nÄ±n
lan abilir
lan mÄ±ÅŁtÄ±
lan malÄ±
lan do
lan madan
lan ds
lan mÄ±yordu
lan dalÄ±
lan diya
larÄ± z
larÄ± ma
Ä±ÅŁ tÄ±r
Ä±ÅŁ Ä±yor
Ä±ÅŁ Ä±yla
Ä±ÅŁ kÄ±r
ac ar
ac asÄ±
ac iv
ĠY ine
ĠY ada
ĠY alan
ĠY ale
ĠY erk
ĠY ob
ĠY eme
ĠY atÄ±r
ĠY oÄŁun
ĠY azar
ĠY ukat
ĠY eter
ĠY ani
ĠY Ä°K
ĠY enen
ĠY ou
ĠY amin
ĠY azÄ±
ĠY SS
ĠY urda
ĠY ÃĸK
ĠY unus
ĠY elda
ĠY etkil
ĠY unanlÄ±
ĠY uriy
ĠY ahudi
Ġf av
Ġf ok
Ġf ec
Ġf Ã¼t
Ġf alan
Ġf ed
Ġf ran
Ġf ile
Ġf eci
Ġf oto
Ġf uar
Ġf aci
Ġf lmi
Ġf anatik
Ġf Ä±ndÄ±k
Ġf enom
Ġf esh
Ġf iyatÄ±yla
Ġf iÅŁinin
Ġf Ä±ÅŁkÄ±r
lu p
lu da
lu ca
Ã¼k s
Ã¼k te
Ã¼k sel
ĠiÃ§ e
ĠiÃ§ ti
ĠiÃ§ esinde
ĠiÃ§ ten
ĠiÃ§ sel
ĠiÃ§ indeki
ĠiÃ§ mesi
ĠiÃ§ iÅŁleri
ĠiÃ§ tih
ĠiÃ§ imizde
ĠiÃ§ imizdeki
ĠiÃ§ iÅŁlerine
ĠF M
ĠF as
ĠF eh
ĠF ark
ĠF re
ĠF undan
ĠF las
ĠF ig
ĠF eg
ĠF iyatÄ±
ĠF abrika
ĠF itch
ĠF IFA
ĠF ilmekimi
ĠF IBA
ĠF onlamasÄ±
ĠF izyoter
ĠF olkart
ĠF Ä±rtÄ±na
af t
af er
af il
af Ä±z
af Ã§Ä±
af azakar
av o
av ma
av it
av ara
av end
av gat
av rit
av atanÄ±
av Ã¼zÃ¼ne
ĠaÃ§ ma
ĠaÃ§ Ä±ÅŁ
ĠaÃ§ masÄ±
ĠaÃ§ mak
ĠaÃ§ tÄ±r
ĠaÃ§ maya
ĠaÃ§ manÄ±n
ĠaÃ§ mÄ±ÅŁtÄ±
ĠaÃ§ arÄ±z
ok a
ok ar
ok larÄ±
ok iler
ok sit
ok olÃ¼
ĠC az
ĠC ev
ĠC ro
ĠC eb
ĠC ede
ĠC amp
ĠC re
ĠC iv
ĠC ank
ĠC udi
ĠC ons
ĠC ag
ĠC oÄŁraf
ĠC SP
ĠC AS
ĠC enaz
ĠC lo
ĠC umartesi
ĠC asusluk
ĠC eren
ĠC Ä°MER
ĠC NN
ĠC een
ĠC ubeyr
ĠC Ã¶mer
ĠC astan
ĠC esedin
ĠC orrin
ĠC imBom
ĠC olin
ĠC avit
ĠÅŁ amp
ĠÅŁ ayet
ĠÅŁ ant
ĠÅŁ ebek
ĠÅŁ unlarÄ±
ĠÅŁ airi
ĠÅŁ iirin
ĠÅŁ akasÄ±
ĠÅŁ aÅŁÄ±r
ĠÅŁ atolarÄ±
ĠÅŁ uraya
ĠÅŁ imdilik
ki i
Ġda madÄ±
alar daki
alar ca
iler lerde
ĠgÃ¶r eli
ĠgÃ¶r Ã¼p
ĠgÃ¶r sel
ĠgÃ¶r erek
ĠgÃ¶r mesi
ĠgÃ¶r meye
ĠgÃ¶r dÃ¼ÄŁ
ĠgÃ¶r ebilir
ĠgÃ¶r meyen
ĠgÃ¶r mesinin
ĠgÃ¶r dÃ¼ÄŁÃ¼nÃ¼
ĠgÃ¶r gÃ¼
ĠgÃ¶r dÃ¼m
ĠgÃ¶r mediÄŁini
ĠgÃ¶r emedi
ĠgÃ¶r dÃ¼kÃ§e
ĠgÃ¶r kem
ĠgÃ¶r Ã¼rsÃ¼nÃ¼z
Ġn ic
Ġn evr
Ġn elere
Ġn akil
Ġn albur
Ġn Ã¶roloji
yon el
aÄŁ Ä±nÄ±n
aÄŁ Ä±ndaki
aÄŁ ust
Ġet tik
Ġet meler
Ġet abÄ±
Ġet aba
Ġet menin
Ġet tiler
Ġet eklerinde
Ġet apta
len eceÄŁini
len irken
len ince
len miÅŁti
len ilmiÅŁ
len mesinden
Ä±s Ä±ndaki
ev ler
ev den
ev esinde
ev inden
ev ra
ev iri
ev odin
us a
us an
us al
us lar
us lu
us larda
us undan
ÅŁt an
lÃ¼ cÃ¼
lÃ¼ manlar
lÃ¼ Ã§eÅŁme
lÃ¼ sÃ¼yle
ad y
ad ar
ad ley
ad Ã¼f
Ġkar lÄ±
Ġkar ma
Ġkar Ä±m
Ġkar eler
Ġkar aya
Ġkar art
Ġkar alarÄ±
Ġkar Ä±sÄ±nÄ±
Ġkar tÄ±na
Ġkar ikat
Ġkar Ä±mÄ±n
Ġkar deÅŁten
ĠiÃ§in den
lam aya
lam ayÄ±
lam Ä±yor
lam asÄ±nÄ±
lam alara
lam alarÄ±nÄ±
lam ayacak
lam ard
lam amalÄ±
lam aktadÄ±r
lam enter
ut unu
ut unun
ut anlarÄ±
ut mayalÄ±m
ut tum
Ġbul u
Ġbul acaÄŁÄ±nÄ±
Ġbul up
Ġbul uyor
Ġbul mayÄ±
Ġbul urken
Ġbul gu
Ġbul var
Ġbul amayan
Ġbul andÄ±rÄ±cÄ±
Ġbul abileceÄŁiniz
Ġbul udu
Ġbul abiliyor
Ġbul muÅŁtur
Ġoldu lar
Ġoldu ktan
om i
om iti
om obil
ec inin
ec ekt
ec ilerin
ec elendir
ec hner
ĠyÄ±l larÄ±
ĠyÄ±l larÄ±n
ĠyÄ±l larÄ±nda
ĠyÄ±l baÅŁ
ĠyÄ±l lardaki
ĠbaÅŁ a
ĠbaÅŁ l
ĠbaÅŁ Ä±
ĠbaÅŁ tan
ĠbaÅŁ lanan
ĠbaÅŁ baÅŁk
ĠbaÅŁ savc
ĠbaÅŁ lanacak
ĠbaÅŁ Ä±ma
ĠbaÅŁ landÄ±ÄŁÄ±
ĠbaÅŁ lanmasÄ±
ĠbaÅŁ larken
ĠbaÅŁ Ã¶rt
ĠbaÅŁ layÄ±p
ĠbaÅŁ yaz
Ä±m ak
Ä±m Ä±nÄ±
Ä±m lÄ±
Ä±m Ä±na
Ä±m cÄ±
Ä±m larÄ±n
Ä±m Ä±mÄ±z
Ä±m cÄ±lÄ±k
Ġgel in
Ġgel eni
Ġgel ece
Ġgel eceÄŁini
Ġgel mesine
Ġgel mesini
Ġgel medi
Ġgel sen
Ġgel miyor
Ġgel eceÄŁine
Ġgel inen
Ġgel emeyecek
Ġgel ecekt
ĠaÃ§Ä±k l
ĠaÃ§Ä±k lar
ĠaÃ§Ä±k tÄ±
ĠaÃ§Ä±k ta
ĠaÃ§Ä±k larÄ±nÄ±
ĠaÃ§Ä±k layan
ĠaÃ§Ä±k larken
ĠaÃ§Ä±k Ã§asÄ±
ĠaÃ§Ä±k lanmasÄ±nÄ±
ez elin
ez zet
ez uela
eler ce
eler indeki
lik ler
uk lanan
uk yan
uk ban
uk yus
Ä±lan maya
Ä±lan lanlar
Ġed indi
Ġed eriz
Ġed ilip
uy ucu
uy ku
uy indama
ĠÃ¶n Ã¼
ĠÃ¶n der
ĠÃ¶n Ã¼nÃ¼
ĠÃ¶n lerinde
ĠÃ¶n ledi
ĠÃ¶n lerken
ĠÃ¶n lenmesi
ĠÃ¶n deri
ĠÃ¶n gÃ¶ren
ĠÃ¶n erse
dÄ±r Ä±ldÄ±
dÄ±r ob
dÄ±r mayÄ±
dÄ±r Ä±lmÄ±ÅŁ
ĠgÃ¶ lÃ¼
ĠgÃ¶ ÄŁÃ¼s
ĠgÃ¶ ÄŁsÃ¼ne
ili ÄŁe
ili ÄŁinin
Ġver ilm
Ġver ip
Ġver eb
Ġver mesi
Ġver meye
Ġver sek
Ġver ilmek
Ġver ilecek
Ġver medi
Ġver meyi
Ġver iyorlar
Ġver mede
Ġver mesiyle
Ġver ilip
Ġver ilmesini
Ġver isinden
Ġver ileceÄŁi
Ġver ilmedi
Ġver emeye
Ġver emedi
Ġver mezsen
Ġver ileceÄŁini
Ġver emiyorlar
Ġver imlilik
Ġyar Ä±na
Ġyar Ä±sÄ±na
Ġyar aladÄ±
Ġyar alam
Ġyar amayan
Ġyar amadÄ±
Ġyar adÄ±ÄŁÄ±nÄ±
aÃ§ ta
Ġtar Ä±m
Ġtar las
Ġtar zÄ±
Ġtar lasÄ±nda
Ġtar amada
Ġtar lada
ĠO p
ĠO ru
ĠO kin
ĠO bi
ĠO na
ĠO nun
ĠO ran
ĠO bÃ¼s
ĠO ndan
ĠO hi
ĠO pr
ĠO SB
ĠO zan
ĠO laf
ĠO RS
ĠO DTÃľ
ĠO LMAS
ĠO dalar
ĠO vÃ§inin
ĠO zanÄ±
ĠO ditor
ĠO liver
ĠO labilecek
ĠO tistik
dir gin
dir irken
dir ici
dir emediÄŁini
Ġbu larak
Ġbu cak
Ġbu Ã§uk
Ġbu har
ta iye
ta oÄŁlu
ro id
ro fon
ro jen
Ã¼y ken
Ã¼y dÃ¼
ru yor
ru ÄŁu
ru gu
ru fu
Ġ3 75
Ġ3 90
Ġbulun mak
Ġbulun sa
Ġbulun dur
Ġbulun up
Ġbulun mayan
Ġbulun uldu
Ġbulun mamasÄ±
Ġbulun madan
Ġbulun acaÄŁÄ±z
Ġbulun maktadÄ±r
edi m
edi ÅŁi
Ġay Ä±nÄ±
Ġay dÄ±r
Ġay Ä±ndaki
Ġay lÄ±ÄŁÄ±
Ġay valÄ±k
ĠgÃ¼n ah
ĠgÃ¼n Ã¼nÃ¼
ĠgÃ¼n lerinde
ĠgÃ¼n kÃ¼
ĠgÃ¼n Ã¼mÃ¼z
ĠgÃ¼n lÃ¼ÄŁÃ¼ne
ĠgÃ¼n Ã¼mÃ¼zde
ĠgÃ¼n doÄŁdu
lÄ±k larÄ±nÄ±
lÄ±k larÄ±nÄ±n
lÄ±k larda
lÄ±k larÄ±nda
lÄ±k Ã¶y
Ġ5 4
Ġ5 90
Ġ5 94
Ġ5 74
Ä±z Ä±
ĠÃ§Ä±k acaÄŁÄ±
ĠÃ§Ä±k Ä±p
ĠÃ§Ä±k manÄ±n
ĠÃ§Ä±k abilir
ĠÃ§Ä±k mÄ±ÅŁtÄ±
ĠÃ§Ä±k amayan
ĠÃ§Ä±k mamÄ±ÅŁ
ĠÃ§Ä±k Ä±lmaz
ĠÃ§Ä±k tÄ±ktan
Ġz eki
Ġz ede
Ġz alim
Ġz irvesi
Ġz elzele
Ġz emin
Ġz apt
ĠR if
ĠR est
ĠR ag
ĠR ug
ĠR ain
ĠR evizyon
ĠR Ã¼ÅŁvet
ĠR ail
ĠR eyting
ĠR itch
ĠR adikal
ĠR io
ĠR aym
ĠR enstr
ĠR ayburn
ĠR ating
ĠR isk
ĠR izvi
ĠR ahmi
ĠR adar
ĠR ukban
let ler
let ilen
let isine
let izm
bul ans
ĠyaÅŁ Ä±n
ĠyaÅŁ Ä±na
ĠyaÅŁ larÄ±
ĠyaÅŁ Ä±ndan
ĠyaÅŁ ta
ĠyaÅŁ atÄ±r
ĠyaÅŁ ayÄ±n
ĠyaÅŁ ayarak
ĠyaÅŁ anacak
ĠyaÅŁ Ä±yoruz
ĠyaÅŁ anÄ±r
ĠyaÅŁ ayacaÄŁÄ±nÄ±
ĠyaÅŁ atacak
ĠyaÅŁ ayabildiÄŁi
ĠÃĸ DP
ĠÃĸ SO
ĠÃĸ mÃ¼r
ĠÃĸ calan
Ã¼m ler
Ã¼m anÄ±
Ã¼m den
Ã¼m Ã¼nÃ¼n
Ã¼m lede
Ġbel de
Ġbel ini
Ġbel ge
Ġbel gel
Ġbel desi
Ġan d
Ġan Ä±na
Ġan Ä±lan
Ġan dÄ±ÄŁÄ±
Ġan alÄ±k
Ġan layan
Ġan masÄ±na
Ġan mayan
Ġan layarak
Ġan ayasa
Ġan tren
Ġan trenÃ¶r
Ġan tika
Ġan alizler
Ġan ayas
Ġan Ä±lmÄ±yor
Ġan avatanÄ±
Ġr et
Ġr ef
Ġr ektÃ¶r
Ġr ekabet
Ġr Ã¶ntgen
Ġr andevu
Ġr enge
Ġr iyakarlÄ±k
Ġr apÃ§i
Ġr eyonlarÄ±
ĠTÃ¼rkiye de
Åŀ Ä±k
Åŀ ile
Åŀ irk
Åŀ air
Åŀ Ã¶yle
Åŀ ehit
Ġger ildi
Ġger eÄŁ
Ġger ge
Ġger ektir
man larÄ±nda
man larÄ±na
man lÄ±ÄŁÄ±nÄ±
ika go
ĠgeÃ§ im
ĠgeÃ§ ildi
ĠgeÃ§ eni
ĠgeÃ§ me
ĠgeÃ§ erek
ĠgeÃ§ iÅŁleri
ĠgeÃ§ erken
ĠgeÃ§ mesine
ĠgeÃ§ medi
ĠgeÃ§ ebilir
ĠgeÃ§ tikÃ§e
laÅŁ Ä±m
laÅŁ manÄ±n
laÅŁ masÄ±nÄ±n
laÅŁ masÄ±yla
laÅŁ tÄ±ÄŁÄ±na
os una
os unun
cu lar
anlÄ± ÄŁÄ±n
anlÄ± ÄŁÄ±ndaki
eni o
ĠÃĩ eÅŁ
ĠÃĩ ayÄ±
ĠÃĩ arp
ĠÃĩ ete
ĠÃĩ andÄ±r
ĠÃĩ etin
ĠÃĩ arlÄ±k
ĠÃĩ elen
ĠÃĩ Ä°M
ĠÃĩ ekim
ĠÃĩ ern
ĠÃĩ evrim
ĠÃĩ IK
ĠÃĩ Ä±kan
ĠÃĩ ub
ĠÃĩ erÃ§
ĠÃĩ atÄ±ÅŁ
ĠÃĩ ED
ĠÃĩ iÃ§ek
ĠÃĩ Ä±tanÄ±n
ĠÃĩ iling
ĠÃĩ eyrek
ĠÃĩ abuk
Ġen str
Ġen feksiyon
Ġen kaz
Ġen erjileri
Ã¼ÅŁ ÅŁafaka
Ġbin en
Ġbin ayÄ±
Ġbin alarÄ±nda
Ġbin alara
Ġbin alarla
Ġbin baÅŁÄ±
ci d
ci ÄŁer
ci janci
Ġkon uÅŁt
Ġkon ten
Ġkon ulan
Ġkon usuna
Ġkon ulmasÄ±
Ġkon usunu
Ġkon forlu
Ġkon jon
Ġkon voy
alÄ±ÅŁ malarÄ±na
iyor sa
dÃ¼r Ã¼len
dÃ¼r ebilir
dÃ¼r rahim
Ã¼t lerin
ĠBak Ä±m
ĠBak mak
ĠBak sanÄ±z
ĠBak Ä±rkÃ¶y
ade te
ilm eli
ilm enin
ilm esiyle
ilm elerine
ilm ezi
ilm ediÄŁi
eh ri
eh ofer
uÅŁ mazlÄ±k
ĠL as
ĠL ut
ĠL ina
ĠL yu
ĠL egen
ĠL GBT
ĠL ille
ĠL amine
ĠL ordlar
ĠL emina
ĠL ikud
ĠL azkiye
ĠL aciv
ĠL ady
ĠL echner
ĠL ezzet
ĠL uyindama
te in
te ÅŁe
te derek
ĠdÃ¼z gÃ¼n
ĠdÃ¼z elt
ĠdÃ¼z tabanlÄ±k
ĠdÃ¼z elir
Ġ20 8
Ġ20 22
mak tÄ±
mak tepe
mak amlar
ĠsÃ¼r Ã¼ÅŁ
ĠsÃ¼r Ã¼s
ĠsÃ¼r ece
ĠsÃ¼r mesi
ĠsÃ¼r meye
ĠsÃ¼r enin
ĠsÃ¼r se
ĠsÃ¼r esiyle
ĠsÃ¼r elerde
ĠsÃ¼r eyle
ĠsÃ¼r dÃ¼ÄŁÃ¼nÃ¼
ĠsÃ¼r esiz
ĠsÃ¼r esince
ĠsÃ¼r tÃ¼n
ĠsÃ¼r Ã¼ndÃ¼r
ĠsÃ¼r Ã¼lmeleri
ĠsÃ¼r Ã¼mden
eye bildiÄŁi
ĠiÅŁ in
ĠiÅŁ ine
ĠiÅŁ inin
ĠiÅŁ inden
ĠiÅŁ lerinin
ĠiÅŁ areti
ĠiÅŁ lev
ĠiÅŁ imize
ĠiÅŁ lediÄŁini
ĠiÅŁ veren
ĠiÅŁ lenip
ĠiÅŁ lenmiÅŁ
ĠiÅŁ lediler
Ä±ldÄ± ÄŁÄ±na
ye ceÄŁini
uÃ§ ulara
Ġne d
Ġne fret
Ġne gatif
hur baÅŁkanÄ±
ĠÃ§alÄ±ÅŁ Ä±lan
ĠÃ§alÄ±ÅŁ tay
ĠÃ§alÄ±ÅŁ masÄ±na
ĠÃ§alÄ±ÅŁ malÄ±
ĠÃ§alÄ±ÅŁ masÄ±ndan
ĠÃ§alÄ±ÅŁ Ä±yoruz
ĠÃ§alÄ±ÅŁ maktan
ĠÃ§alÄ±ÅŁ mal
ĠdÃ¼zen ini
ĠdÃ¼zen liyor
ĠdÃ¼zen lendiÄŁi
ĠdÃ¼zen leye
ĠdÃ¼zen leniyor
ĠdÃ¼zen lenmesi
ĠEr en
ĠEr dan
ĠEr den
ĠEr ic
ĠEr can
ĠEr gin
ĠEr sin
ĠEr gÃ¼
ĠEr doÄŁdu
ĠEr cÃ¼m
ĠEr dÃ¶l
ĠEr furt
ĠEr ginci
ĠEr iksen
ĠEr iÅŁilemeyen
Ġc em
Ġc az
Ġc ama
Ġc ilde
Ġc oÅŁ
Ġc ellat
Ġc aydÄ±r
Ġc Ã¼mlede
asyon la
asyon lu
asyon larÄ±nÄ±n
Ġyer leÅŁ
Ġyer altÄ±
lis inin
lis por
ĠN e
ĠN iye
ĠN ara
ĠN ece
ĠN ih
ĠN eti
ĠN oy
ĠN ef
ĠN abz
ĠN ij
ĠN eo
ĠN ou
ĠN issan
ĠN asÄ±r
ĠN iini
ĠN arman
ĠN iro
ĠN atali
ĠN eyse
ĠN iÅŁant
ĠN izamet
ĠN umara
ĠN ehri
Ã¼s Ã¼nÃ¼n
Ã¼s lim
eÅŁ inin
eÅŁ irken
me deki
ans al
ans if
ans lardan
ans iyel
Ġmil itanlarÄ±nÄ±
Ġkad Ä±ndan
Ġkad eri
Ġist ek
Ġist eÄŁ
Ġist ekli
Ġist emeyen
Ġist ihbar
Ġist atik
Ġist eriz
Ġist erse
Ġist avrit
Ġist asyonlarÄ±nÄ±n
ter sten
Ġolan a
Ġolan lara
tan e
ĠyÃ¼z lÃ¼
ĠyÃ¼z lerine
ĠyÃ¼z baÅŁÄ±
ĠyÃ¼z Ã¼mÃ¼ze
ĠyÃ¼z leÅŁmeye
ken s
ken t
ken der
ken lerle
ken lilerin
Ġkay man
Ġkay malar
Ġkay alÄ±k
Ġkay dÄ±nÄ±
Ġkay pak
Ġkay dedem
Ġkay dÄ±rmayÄ±
Ġkay makamlar
ĠPar lak
ĠPar lamenter
ist in
ist ler
ist ine
ist eki
ist ihbarat
Ġin iÅŁ
Ġin diÄŁi
Ġin ov
Ġin cisi
Ġin erken
Ġin anÄ±yor
Ġin mesinin
Ġin celer
Ġin fil
Ġin kar
Ġin anÄ±yorum
Ġdi kenli
Ġdi ÄŁeri
Ġbelir li
Ġbelir iyor
Ġbelir leyen
Ġbelir lediÄŁi
Ġbelir tip
Ġ4 3
Ġ4 8
Ġ4 30
Ġ4 75
Ġ4 80
ÄŁr etmen
Ġor ada
Ġor adan
Ġor gazm
Ġkal a
Ġkal esinde
Ġkal mak
Ġkal dÄ±m
Ġkal kan
Ġkal mam
Ġkal mÄ±ÅŁ
Ġkal may
Ġkal acaÄŁÄ±nÄ±
Ġkal Ä±cÄ±
Ġkal Ä±ntÄ±
Ġkal mayÄ±
Ġkal Ã§a
Ġkal abileceÄŁini
Ġkal masÄ±nda
Ġkal Ä±rken
Ġkal mÄ±yor
Ġkal eciler
Ġkal Ä±ver
Ġkal eminden
Ġkal abalÄ±ÄŁÄ±
Ġkal itesini
Ġkal Ä±rsa
unu cusu
ĠaÃ§Ä±klam anÄ±n
ĠaÃ§Ä±klam ayÄ±
ĠaÃ§Ä±klam asÄ±nÄ±n
ĠaÃ§Ä±klam alarÄ±nda
ĠaÃ§Ä±klam alarÄ±n
ĠsÃ¶ mÃ¼r
ĠsÃ¶ kÃ¼lÃ¼yor
der e
der es
der ken
der siniz
ece ini
Ġbil ir
Ġbil iyor
Ġbil imi
Ġbil inci
Ġbil emiyor
Ġbil emeye
Ġbil iyordu
ĠilÃ§ eye
ĠilÃ§ ede
ĠilÃ§ elerine
ĠilÃ§ elerinde
ĠilÃ§ edeki
ĠilÃ§ emizin
ĠAn s
ĠAn Ä±l
ĠAn iden
ĠAn tren
ĠAn trenÃ¶rÃ¼
ĠAn zer
ĠAn astasiadis
ĠAn nemi
ĠAn alog
ĠAn onim
Ġel ler
Ġel li
Ġel den
Ġel ma
Ġel leri
Ġel indeki
Ġel manÄ±n
Ġel emeleri
Ġel Ã§ilik
Ġel imize
Ġel diven
lem en
lem ede
lem liyor
per yal
per tici
per bike
ĠdeÄŁ indi
ĠdeÄŁ ilmiÅŁ
ĠÅŀ ark
ĠÅŀ oy
ĠÅŀ ile
ĠÅŀ Ãľ
ĠÅŀ ener
ĠÅŀ arkÄ±cÄ±
ĠÅŀ ankaya
ĠÅŀ aÅŁkÄ±n
ĠÅŀ eyh
ĠÅŀ eref
ĠÅŀ Ã¶len
ĠÅŀ eyma
ĠÅŀ ikago
Ġhak em
Ġhak emi
Ġhak lÄ±lÄ±k
Ġkur a
Ġkur an
Ġkur arak
Ġkur madÄ±
Ġkur acaÄŁÄ±
Ġkur acaÄŁÄ±nÄ±
Ġkur manÄ±n
Ġkur mayÄ±
Ġkur anlar
Ġkur ucusu
Ġkur deÅŁen
Ġkur banÄ±
Ġkur gusuna
cÄ± er
cÄ± larÄ±n
ĠÃ¼z en
ĠÃ¼z dÃ¼ÄŁÃ¼nÃ¼
ĠV oy
ĠV eg
ĠV ej
ĠV atan
ĠV olga
ĠV ital
ĠV enedik
ĠV elata
ĠV atani
ĠV ural
ĠV iktor
ĠV isca
ĠV olkan
ĠV asÄ±t
ĠkarÅŁ Ä±lÄ±ÄŁÄ±
ĠkarÅŁ Ä±mÄ±zda
ĠkarÅŁ Ä±sÄ±ndaki
Ġ6 2
Ġ6 4
Ġ6 8
Ġ6 70
Ġ6 43
Ġ6 21
Ġ6 67
Ġ6 73
Ġ6 24
Ġ6 28
Ġuy du
Ġuy anan
Ġuy dur
Ġuy uma
Ġuy andÄ±r
Ġuy mayÄ±
Ġuy ku
Ġuy dular
Ġuy uÅŁmazlÄ±k
ladÄ± k
ladÄ± ÄŁÄ±nÄ±
ladÄ± klarÄ±
Ġsor arak
Ġsor gu
Ġsor mamÄ±ÅŁ
Ġsor arlar
Ġsor ulmakta
Ġdedi m
Ġdedi kleri
Ġdedi kten
tÄ±ÄŁÄ± mÄ±
Ġdev iyle
Ġdev re
Ġdev lerinden
Ġdev leÅŁen
Ġbulundu ÄŁÄ±
Ġbulundu ÄŁuna
ĠÃ¼zer i
ĠÃ¼zer ind
ĠbÃ¶ cek
ĠbÃ¶ lÃ¼cÃ¼
alan an
alan Ä±nda
alan malar
tÄ±r Ä±lan
tÄ±r maya
tÄ±r Ä±lmasÄ±
tÄ±r Ä±p
tÄ±r Ä±lmamasÄ±
ih a
ih azÄ±r
ih rac
Ġtaraf lÄ±
Ġtaraf larÄ±
Ġtaraf tan
Ġtaraf sÄ±z
Ġtaraf tarÄ±
Ġtaraf indan
ale de
Ġtop lat
Ġtop unun
Ġtop lanan
Ġtop lanarak
Ġtop landÄ±ÄŁÄ±
Ġtop lant
Ġtop layÄ±p
Ġtop lanmadÄ±
aÄŁÄ± mÄ±za
ĠyÃ¶n leri
ĠyÃ¶n lÃ¼
ĠyÃ¶n deki
ĠyÃ¶n etici
ĠyÃ¶n eliyorlar
dÃ¼ stri
Ġdur an
Ġdur du
Ġdur ma
Ġdur acaÄŁÄ±
Ġdur uyor
Ġdur mayan
Ġdur aÄŁa
Ġdur makta
Ġdur aÄŁÄ±na
Ġdur duru
Ġdur abildi
ne ÄŁin
ne ÄŁinin
ne dildi
Ġkul var
Ġkap Ä±lan
Ġkap maya
Ġkap andÄ±
Ġkap Ä±sÄ±nÄ±
Ġkap aÄŁÄ±nda
Ġkap anÄ±ÅŁt
Ġkap anmasÄ±na
Ġkap aÄŁÄ±ndaki
Ġkap tÄ±ÄŁÄ±mÄ±
Ġkap aÄŁÄ±mÄ±za
iyet lerle
doÄŁ uÅŁ
arÄ± lar
arÄ± ya
ĠterÃ¶r Ã¼
ĠterÃ¶r Ã¼n
Ġyeni akit
Ġoy dan
Ġoy unda
Ġoy aladÄ±
Ġdep art
Ġdep oya
Ġdep olardan
ip e
ip al
ip ten
Ġis abet
lg Ä±n
lg eyi
ĠU Ã§ak
ĠU sta
ĠU pp
ĠU kray
ĠU ral
ĠU ras
ĠU sk
ĠU ÅŁak
ĠU laÅŁtÄ±rma
ĠU CM
ĠU kra
ĠU ltr
ĠU stasÄ±ndan
ĠU rugu
ĠU laÅŁÄ±m
erk ant
anÄ±n caya
ers ma
Ġyak an
Ġyak Ä±nda
Ġyak tÄ±
Ġyak Ä±nÄ±
Ġyak aln
Ġyak tÄ±ktan
Ġyak tÄ±rÄ±p
ĠAk il
ĠAk sa
ĠAk tar
ĠAk baÅŁ
ĠAk dum
ĠAk rab
ĠAk gÃ¼l
ĠAk sÃ¼t
ĠAk Ã§ay
ĠAk tieng
eb ilen
eb ildiÄŁi
ot la
ĠHaber de
TÃ¼rkiye de
malar a
Ä±lÄ± ÄŁÄ±nÄ±
ed o
ed ya
ed ini
ed ilen
lat Ä±ldÄ±ÄŁÄ±nÄ±
Ġgi dip
Ġgi biyiz
Ġgi dilecek
Ġetti ÄŁiniz
eti ÄŁi
dÄ±m laÅŁma
ĠmÃ¼ vek
ĠmÃ¼ bar
ĠmÃ¼ jde
ĠmÃ¼ pt
Ġhaf tanÄ±n
Ġilg i
Ġilg iyle
Ġilg isi
Ġilg iyi
Ġilg ilenen
Ġilg isiz
Ġilg ililerin
alÄ± yor
alÄ± oÄŁlu
alÄ± pÄ±nar
Ġ201 0
Ġ201 1
oy olu
oy duÄŁunu
Ġkat Ä±nda
Ġkat tÄ±
Ġkat Ä±ndan
Ġkat tan
Ġkat larÄ±nÄ±
Ġkat lanÄ±yor
Ġkat Ä±lÄ±yor
Ġkat Ä±lmasÄ±yla
Ġkat kÄ±da
Ġkat Ä±larak
Ġkat lanabilir
dar t
dar ol
dar be
Ġ7 3
Ġ7 7
Ġ7 8
Ġ7 35
Ġ7 84
Ġ7 24
Ġ7 270
Ġhaber lere
Ġhaber lerine
Ġhaber lerden
ĠAv am
ĠAv ram
ĠAv ic
ĠAv ukatÄ±
Ġev ini
Ġev lerinin
Ġev lendi
Ġev cil
Ġev lenme
Ġev imizde
Ġev liliÄŁini
Ġev lenip
Ġev lenmiÅŁti
mas Ä±n
ram anÄ±
imiz den
ĠÃľ FE
ĠyapÄ±lan ma
ĠyapÄ±lan masÄ±na
ĠyapÄ±lan masÄ±nda
ecek ler
ecek miÅŁ
bi stan
bi dir
gi es
Ġyan dÄ±
Ġyan Ä±ndan
Ġyan Ä±ndaki
Ġyan mÄ±ÅŁ
Ġyan Ä±lÄ±r
Ġyan arsa
Ġyan daÅŁÄ±
Ġyan aÅŁtÄ±
Ġyan Ä±ltmaya
Ġhay ran
Ġhay alim
Ġhay vanÄ±n
Ġhay ranlÄ±ÄŁÄ±
Ġetk ileri
Ġetk ilerine
Ġetk ilerini
Ġetk ÅŁsiÅŁ
ĠgÃ¼ dÃ¼m
ĠgÃ¼ lerek
Ġpro fes
Ġpro tein
Ġdeprem e
Ġdeprem i
Ġdeprem ini
Ġdeprem iyle
Ġdeprem inden
Ġdeprem lere
Ġtut un
Ġtut mak
Ġtut may
Ġtut up
Ġtut mamasÄ±
Ġtut tur
Ġtut madÄ±ÄŁÄ±
Ġtut uluyor
Ġtut acaÄŁÄ±m
Ġtut kum
Ġtut turdu
Ġhas arÄ±
Ġhas reti
ĠÃ§ok Ã§a
nde pen
Ġpo sta
Ġpo dy
Ġpo zi
Ġpo listen
Ġpo dcast
ĠalÄ±n madÄ±
ĠalÄ±n masÄ±yla
ĠalÄ±n mÄ±ÅŁtÄ±
ĠalÄ±n mamasÄ±
ĠalÄ±n madan
ĠalÄ±n abilecek
ĠalÄ±n saydÄ±
Ġhakk Ä±yla
Ġhakk Ä±mÄ±zÄ±
Ġhakk Ä±nÄ±z
Ġhakk aniyet
Ġgir me
Ġgir ip
Ġgir mek
Ġgir meye
Ġgir miÅŁ
Ġgir ebilir
Ġgir meyi
Ġgir iyorlar
Ġgir meden
Ġgir mektedir
Ġgir mediÄŁini
Ġgir emeyince
Ġgir meyin
Ġgir memek
Ġat larÄ±
Ġat masÄ±
Ġat Ä±ldÄ±
Ġat ladÄ±
Ġat Ä±yor
Ġat maya
Ġat lay
Ġat acaÄŁÄ±
Ġat adÄ±
Ġat mayan
Ġat andÄ±
Ġat mÄ±ÅŁtÄ±
Ġat makta
Ġat tÄ±klarÄ±
Ġat Ä±lmasÄ±nÄ±
Ġat arken
Ġat Ä±ÅŁla
Ġat alarÄ±mÄ±z
Ġat aklar
Ġat Ä±lamÄ±yor
Ġat lamaya
Ġat letizm
Ġiddi alarda
Ġiddi alarÄ±nda
Ġiddi alarÄ±nÄ±
Ġiddi alarÄ±n
Ġiddi anam
ĠAl anÄ±
ĠAl per
ĠAl tay
ĠAl dÄ±klarÄ±
ĠAl eks
ĠAl lianz
Ġneden i
ĠgÃ¶ster meye
ĠgÃ¶ster ilecek
ĠgÃ¶ster irken
ĠgÃ¶ster meyen
ĠgÃ¶ster ilmesine
ĠgÃ¶ster ime
ĠgÃ¶ster memesi
ĠgÃ¶ster ileceÄŁi
ĠgÃ¶ster imiyle
ĠgÃ¶ster geleri
ĠgÃ¶ster ilmelerine
Ġsal t
Ġsal onunda
Ġsal onuna
ĠI l
ĠI nda
ĠI rmak
ĠI lÄ±calÄ±
ĠI lgÄ±n
ĠI ndepen
Ġes eceÄŁi
Ġes pr
Ġce binde
Ġce hen
ĠMil an
Ġilgili dir
Ġsah il
Ġsah asÄ±
Ġsah ada
Ġsah ayÄ±
Ġsah asÄ±nÄ±n
Ġsah adan
Ġsah neleri
Ġsah illere
mek eÅŁe
alt aÅŁ
alt Ä±nda
alt ma
alt rans
alt taki
Ġgelen in
Ġgelen ek
Ġgelen ler
Ġilk eli
Ġilk elerine
Ġilk Ã¶ÄŁretim
uÅŁtur ma
uÅŁtur duktan
Ġot o
Ġot larÄ±
Ġot uru
Ġot og
Ġot oyo
Ġot orite
ĠgÃ¶z lerini
ĠgÃ¶z lerine
ĠgÃ¶z Ã¼nÃ¼n
ĠgÃ¶z lÃ¼k
ĠgÃ¶z Ã¼nden
ĠgÃ¶z Ã¼yle
ĠgÃ¶z lenecek
ĠgÃ¶z altÄ±
ĠgÃ¶z yaÅŁ
ĠgÃ¶z lerimizin
ĠgÃ¶z yaÅŁÄ±
ĠgÃ¶z ardÄ±
ĠgÃ¶z lemliyor
ĠgÃ¶z altÄ±nda
Ġkayb a
Ġkayb Ä±n
Ġkayb Ä±yla
Ġkayb eder
Ġkayb ediÅŁi
ĠbÃ¶lg eleri
ĠbÃ¶lg elerin
ĠbÃ¶lg elerden
Ġ9 6
Ġ9 9
Ġ9 00
Ġ9 60
Ġ9 66
Ġ9 95
ĠdÃ¶n Ã¼p
ĠdÃ¶n erek
ĠdÃ¶n Ã¼ldÃ¼
ĠdÃ¶n erken
ĠdÃ¶n mesini
ĠdÃ¶n enler
ĠdÃ¶n dÃ¼kÃ§e
ĠdÃ¶n dÃ¼rÃ¼len
ĠMÃ¼ jde
ĠMÃ¼ fit
ĠMÃ¼ jdat
Ġyol lu
Ġyol una
Ġyol unun
Ġyol lay
Ġyol ladÄ±ÄŁÄ±
Ġyol suz
Ġyol larÄ±mÄ±z
Ġyol umuzu
Ġyol culuk
ĠolduÄŁ unda
ĠolduÄŁ umu
Ġmilyon un
Ġmilyon luk
ĠÃ¶ÄŁren mek
ĠÃ¶ÄŁren meye
ĠÃ¶ÄŁren meyi
ĠÃ¶ÄŁren meli
ĠÃ¶ÄŁren ebilirsiniz
ĠÃ¶ÄŁren ecekler
atÄ± ÄŁÄ±nÄ±
Ġ10 2
Ġ10 7
ĠÃĸz den
ĠÃĸz alan
ĠÃĸz men
ĠÃĸz bay
ĠÃĸz ge
ĠÃĸz koÃ§
ĠÃĸz has
ĠÃĸz debir
ĠÃĸz acar
ĠbaÅŁk alarÄ±
ĠbaÅŁk onsolos
ĠbaÅŁk alarÄ±nÄ±n
ask eri
Ġoperasyon el
Ġoperasyon un
Ġoperasyon unu
Ġoperasyon larÄ±nÄ±
Ġoperasyon una
Ġoperasyon lara
Ġoperasyon larÄ±ndan
Ġoperasyon uyla
lerin ize
ĠAr at
ĠAr Ä±k
ĠAr han
ĠAr kadaÅŁ
ĠAr alarÄ±nda
ĠAr ktik
ĠAr ena
ĠAr Ä±kan
ĠAr zu
ĠAr senal
ĠAr gy
ĠAr jant
ĠAr ÅŁiv
ĠAr aÃ§ta
Ġalan a
Ġalan larÄ±ndaki
Ġalan lardaki
re w
re asyon
re por
Ġtes cilli
Ġtes adÃ¼f
ĠdÃ¼n yasÄ±
ĠdÃ¼ÅŁ er
ĠdÃ¼ÅŁ ecek
ĠdÃ¼ÅŁ erek
ĠdÃ¼ÅŁ meye
ĠdÃ¼ÅŁ Ã¼yor
ĠdÃ¼ÅŁ mesini
ĠdÃ¼ÅŁ mÃ¼ÅŁ
ĠdÃ¼ÅŁ ebiliyor
ĠdÃ¼ÅŁ mÃ¼ÅŁtÃ¼
ĠdÃ¼ÅŁ Ã¼ÅŁte
ĠdÃ¼ÅŁ Ã¼lmÃ¼yor
ĠbÃ¼yÃ¼k lÃ¼ÄŁÃ¼
ĠBel den
ĠBel Ã¶z
ĠBel irlen
ĠJ im
ĠJ ov
ĠJ andar
ĠJ ES
ĠJ uan
ĠJ ack
ĠJ akob
Ã¼p ten
ĠÃ¶l dÃ¼ÄŁÃ¼nÃ¼
ĠÃ¶l Ã¼rken
Ġgerek siz
Ġgerek lilik
Ġgerek tiÄŁi
Ġgerek miyor
Ġak lar
Ġak it
Ġak ust
Ġak lÄ±nda
Ġak tÃ¶rleri
Ġak Ä±beti
Ġak Ä±nÄ±na
Ġak Ä±mÄ±na
Ġak ciÄŁer
ĠKur al
ĠKur tul
ĠKur ucusu
ĠLi ge
ĠLi boÅŁ
ĠLi atsos
Ġgetir ir
Ġgetir erek
Ġgetir iliyor
Ġgetir ilecek
Ġgetir eceÄŁini
Ġgetir sin
Ġgetir medi
Ġgetir diÄŁini
Ġgetir meyi
Ġgetir ilmesine
Ġgetir dik
Ġgetir ileceÄŁi
Ġgetir meyerek
Ġgetir ilmesiyle
Ġif lasÄ±
Ġif lasÄ±na
Ġif sad
Ġif ÅŁa
Ġif taiye
ulu yorsa
ulu culuk
ĠsaldÄ±r an
ĠsaldÄ±r dÄ±ÄŁÄ±
ĠsaldÄ±r mak
ĠsaldÄ±r maya
sel leri
Ã§Ä± larÄ±na
Ã§Ä± ÄŁÄ±r
Ã§Ä± larla
Ã§Ä± yÄ±
Ã§Ä± lardan
Ġyay Ä±nÄ±
Ġyay Ä±na
Ġyay aya
Ġyay Ä±ldÄ±
Ġyay Ä±lmasÄ±
men ler
men lik
ĠÃ¶r neÄŁe
ĠÃ§ek iliyor
ĠÃ§ek imi
ĠÃ§ek ilmek
ĠÃ§ek erken
ĠÃ§ek miÅŁti
ĠÃ§ek tiÄŁini
ĠÃ§ek meleri
ĠÃ§ek mesiyle
ĠÃ§ek memesi
if eti
if fer
if orn
if orni
met ik
met tin
ĠmaÃ§ Ä±na
ĠmaÃ§ Ä±ndaki
leÅŁ me
leÅŁ meli
ĠÄ°n ci
ĠÄ°n ternet
ĠÄ°n cir
ĠÄ°n guÅŁ
Ġzam la
Ġzam larÄ±n
uh an
uh attÄ±
tir ilmesi
ĠZ anlÄ±
ĠZ azi
ĠZ arar
ĠZ iraat
ĠZ ahar
ĠZ abÄ±ta
ĠZ anlÄ±larÄ±n
ĠZ ub
ĠZ engen
ĠZ DH
ĠZ ayed
ĠZ orla
ĠZ afer
Ġtek l
Ġtek ne
Ġtek stil
Ġtek boy
art et
art tÄ±ÄŁÄ±nÄ±
art rit
Ġser a
Ġser iyor
Ġser Ã¼ven
Ġser isinde
Ġser ebral
Ġser isinden
Ġser ilerinden
Ġser Ã¼veni
Ġser Ã§eyi
ĠseÃ§ kin
ĠseÃ§ meni
ĠseÃ§ ilmesine
ĠseÃ§ menin
ĠseÃ§ ilme
ĠseÃ§ kini
ĠseÃ§ eneÄŁi
ĠseÃ§ ilmenin
ĠkarÅŁÄ± lardÄ±
Ġl og
Ġl oÅŁ
Ġl odos
Ġl Ã¼ks
Ġhav an
Ġhav asÄ±
Ġhav aya
Ġhav ada
Ġhav ayla
Ġhav ayol
Ġhav alanan
Ġhayat Ä±nda
Ġhayat larÄ±
Ġhayat ta
Ġhayat Ä±ndaki
ic em
ic isi
ic ileri
ĠsuÃ§ lu
ĠsuÃ§ ladÄ±
ĠsuÃ§ lara
ĠsuÃ§ larÄ±ndan
ĠsuÃ§ uyla
ĠsuÃ§ lanÄ±yor
Ġort ama
Ġort alÄ±k
Ġort asÄ±nÄ±n
Ġpolis lik
Ġyaz Ä±
Ġyaz dan
Ġyaz ma
Ġyaz Ä±lan
Ġyaz maya
Ġyaz Ä±p
Ġyaz Ä±lÄ±m
Ġtak Ä±lan
Ġtak Ä±mÄ±
Ġtak Ä±p
Ġtak Ä±mÄ±yla
Ġtak dim
Ġtak Ä±lardan
Ġdevam Ä±
lÃ¼l Ã¼ÄŁÃ¼nÃ¼
iyat a
iyat larÄ±nÄ±n
iyat larda
iyat Ã§Ä±nÄ±n
Ġeden leri
Ġgeldi ÄŁimiz
Ġgeldi ÄŁinde
Ġgeldi klerini
Ġifade yle
Ġifade lerinde
Ġifade sinin
maz ken
maz sak
aret li
ent s
ent on
ent ina
ĠkaÃ§ ar
ĠkaÃ§ ma
ĠkaÃ§ Ä±ÅŁ
ĠkaÃ§ ta
ĠkaÃ§ tÄ±ÄŁÄ±
ĠkaÃ§ maya
ĠkaÃ§ Ä±p
ĠkaÃ§ ana
ĠkaÃ§ alÄ±m
ĠkaÃ§ tÄ±ktan
Ġcez alar
han er
han elik
han ie
ĠBir i
ĠBir lik
ĠBir bir
ĠBir imi
ĠBir can
ĠBir kaÃ§
ĠBir dal
ĠBir eysel
ri an
ri gh
Ġey vallah
ĠhazÄ±r layarak
ĠhazÄ±r lÄ±ÄŁÄ±nÄ±
ĠhazÄ±r lamÄ±yor
ĠhazÄ±r latÄ±ldÄ±ÄŁÄ±nÄ±
ĠdoÄŁ u
ĠdoÄŁ du
ĠdoÄŁ usu
ĠdoÄŁ uru
ĠdoÄŁ urana
ĠdoÄŁ altaÅŁ
ĠgerÃ§ek leri
ĠgerÃ§ek lerle
Ġcin si
Ġih ale
Ġih alesinin
ĠyaptÄ±ÄŁÄ± mÄ±z
Ġkadar Ä±na
Ġaz Ä±ndan
Ġaz amet
Ġaz Ä±ya
Ġaz Ä±nlÄ±k
Ġalt tan
Ġalt yapÄ±
ĠsÃ¶yle ÅŁileriyle
ĠsÃ¶yle yeceÄŁini
Ġ8 8
Ġuz atan
Ġuz laÅŁma
Ġuz atacak
Ġkaz aya
Ġkaz anÄ±n
Ġkaz ayÄ±
Ġkaz asÄ±na
Ġkaz alarÄ±na
Ġkaz Ä±larÄ±
Ġkaz ayla
Ġkaz anÄ±yor
Ġkaz anÄ±m
Ġkaz arken
Ġkendi me
ĠsaÄŁ cÄ±
ĠsaÄŁ ladÄ±ÄŁÄ±
ĠsaÄŁ lÄ±ÄŁa
ĠÃ¶z eti
ĠÃ¶z re
ĠÃ¶z ledi
ĠÃ¶z gÃ¼
ĠÃ¶z etleri
ĠÃ¶z gÃ¼ven
gul amanÄ±n
Ġek im
Ġek ley
Ġek imin
Ġek leniyor
Ġek iÅŁmiÅŁ
Ġek lenince
Ġkam aÅŁtÄ±ran
Ġkam usal
ĠYar alÄ±
ĠYar gÄ±sÄ±z
ĠYar dÄ±mlaÅŁma
Ġdav asÄ±
Ġdav alar
Ġdav ran
Ġdav asÄ±nÄ±n
Ġdav asÄ±nÄ±
Ġdav alarÄ±n
Ġdav ranÄ±ÅŁ
Ġdav ulda
Ġbelirt mek
Ġdurum la
Ġdurum dan
Ġdurum daki
Ġdurum larda
Ġdurum lardan
Ġdurum uyla
ĠÃ¶rgÃ¼t leri
ĠÃ¼lk eleri
ĠÃ¼lk eyi
ĠÃ¼lk elerden
ĠÃ¼lk elerde
ĠÃ¼lk esindeki
ĠÃ¼lk eyle
ĠÃ¼lk elerinden
ĠÃ¼lk emizin
ĠÃ¼lk emizde
Ġbulunan lar
gil l
gil imden
Ġyas al
Ġyas asÄ±nda
Ġyas asÄ±na
Ġyas tÄ±k
Ġyas aÄŁa
Ġyas alara
Ġyas aÄŁÄ±na
ĠBaÅŁ arÄ±lÄ±
ĠBaÅŁ iskele
ĠBaÅŁ arÄ±lar
Ġdo larÄ±nÄ±
Ġdo wn
Ġdo zu
eyen e
Ġpar asÄ±
Ġpar aya
Ġpar anÄ±n
Ġpar alarÄ±
Ġpar asÄ±nÄ±
Ġpar mesan
Ġpar selleri
ĠÃ§Ä±ktÄ± larÄ±
ĠÃ§Ä±ktÄ± ÄŁÄ±nÄ±
ĠÃ¶ldÃ¼r dÃ¼kten
ĠÃ¶ldÃ¼r Ã¼lerek
ĠÃ¶ldÃ¼r Ã¼yorlar
oc unun
ĠW ast
ĠW eek
ĠW ienen
ĠW onsan
ĠW righ
Ġli mit
Ġli beral
ĠÃ¼r tik
ĠÃ¼r etici
ĠÃ¼r pertici
ĠKon go
ĠKon ferans
ĠKon utu
ĠKon uya
ĠÃľn ver
Ġsay Ä±lÄ±
Ġsay Ä±mÄ±zda
Ġsay gÄ±lÄ±
Ġsay mazsak
ley ip
ley elim
olo gies
Ġkaybet mesi
Ġkaybet tikleri
Ġkaybet mesinde
Ġkaybet menin
Ġkaybet mesiyle
Ġkaybet mes
Ġduy masÄ±
Ġduy maya
Ġduy abil
Ġduy ulan
Ġduy malÄ±
Ġduy gu
ĠkadÄ±n la
ĠsÃ¶z Ã¼
ĠsÃ¶z lÃ¼
ĠsÃ¶z Ã¼nde
ĠsÃ¶z lerini
ĠsÃ¶z lerinden
ĠsÃ¶z lÃ¼k
ĠsÃ¶z Ã¼yle
ĠsÃ¶z cÃ¼k
ĠsÃ¶z Ã¼mÃ¼zÃ¼
Ġekip man
Ġekip te
Ġekip lerini
Ġekip lere
Ġekip lerine
Ġekip leriyle
ĠyÃ¶nelik tir
ĠBeledi yesinde
sÄ± yla
tik er
tik ten
Ã¶z el
ĠÄ°l leri
ĠÄ°l te
ĠÄ°l lÃ¼z
ĠÄ°l haner
ĠgÃ¶rÃ¼ÅŁ leri
ĠgÃ¶rÃ¼ÅŁ Ã¼nde
ĠgÃ¶rÃ¼ÅŁ lerin
ĠgÃ¶rÃ¼ÅŁ erek
ĠgÃ¶rÃ¼ÅŁ lerini
ĠgÃ¶rÃ¼ÅŁ eceÄŁini
ĠgÃ¶rÃ¼ÅŁ mede
ĠgÃ¶rÃ¼ÅŁ meleri
ĠgÃ¶rÃ¼ÅŁ mesiyle
ĠgÃ¶rÃ¼ÅŁ mediÄŁini
ĠgÃ¶rÃ¼ÅŁ emediÄŁini
ĠgÃ¶rÃ¼ÅŁ ebilen
ĠterÃ¶rist lerle
ER NETT
cak larÄ±
ĠyÃ¼k Ã¼nÃ¼n
ĠyÃ¼k lendi
ĠyÃ¼k lediÄŁi
ayet ten
Ġtarih e
Ġtarih ler
Ġtarih ini
Ġtarih inden
Ġtarih ten
Ġtarih lerinin
Ġtarih lerde
Ġtarih Ã§iler
Ġtarih imizi
20 16
20 15
20 21
20 11
20 22
20 23
20 04
tal os
tal ip
aÅŁÄ± p
liÄŁ imiz
tÄ±ÅŁ ma
Ġverdi m
Ġverdi kten
Ġverdi klerini
Ġverdi ÄŁinin
Ġetkis inde
Ġetkis inin
ran larÄ±n
Ãĸ SO
Ãĸ ykÃ¼
Ãĸ ncelik
Ãĸ ÄŁretmen
Ġkr ipto
Ġkr okiler
ĠAy Ä±
ĠAy lÄ±k
ĠAy der
ĠAy sal
ĠAy kut
ĠAy tem
ĠAy demir
ĠAy tunÃ§
ĠAy doÄŁuÅŁ
Ġad il
Ġad larÄ±nÄ±n
Ġad alarÄ±nda
Ġad landÄ±r
Ġad alarÄ±na
Ġad resi
Ġad resinden
Ġad alardaki
ĠdeÄŁiÅŁ ir
ĠdeÄŁiÅŁ mesi
ĠdeÄŁiÅŁ ebilir
ĠdeÄŁiÅŁ ime
ĠdeÄŁiÅŁ mektedir
Ġik iyÃ¼zlÃ¼
Ġmes afa
Ġmes ai
ĠTÃ¼rk Ã¶zÃ¼
ĠTÃ¼rk TraktÃ¶r
abil iyorlar
abil ikle
abil itasyon
ĠÅŁÃ¼ph e
ĠÅŁÃ¼ph eleri
ĠÅŁÃ¼ph enin
ĠÅŁÃ¼ph esini
Ġkarar da
Ġkarar la
Ġkarar dan
Ġkarar Ä±na
Ġkarar Ä±ndan
Ġkarar malarÄ±na
Ġkarar nam
Ġkarar gah
Ġkarar laÅŁtÄ±rdÄ±
bir e
ĠkÃ¶ pr
ĠkÃ¶ kenli
ĠkÃ¶ peÄŁi
ĠkÃ¶ stebek
ĠkÃ¶ kenlilerin
Ġok ut
Ġok yan
Ġok uma
Ġok udu
Ġok unuyor
Ġok uduÄŁu
Ġhal en
Ġhal ini
Ġhal ihazÄ±r
ĠgÃ¶rev ine
ĠgÃ¶rev lendirme
ĠgÃ¶rev lileri
ĠgÃ¶rev lilerine
ĠgÃ¶rev lisinin
ĠOr bay
ĠOr kun
ĠOr taÃ§
ĠOr taya
ĠOr ly
ĠOr lando
bak lavanÄ±n
kan dÄ±m
lÃ¼m Ã¼
lÃ¼m Ã¼zde
ĠgÃ¼ven liÄŁi
ĠgÃ¼ven ilir
ĠgÃ¼ven liÄŁine
ĠgÃ¼ven liÄŁiyle
ĠalÄ±ndÄ± ÄŁÄ±nda
bar larÄ±nda
bar lÄ±ÄŁÄ±na
Ġbek lendi
Ġbek lediÄŁi
Ġbek lemeye
Ġbek Ã§ilik
Ġbek lediÄŁini
Ġbek Ã§isi
Ġbek lemede
Ġgazet eye
Ġgazet eleri
Ġgazet enin
Ġgazet eden
Ġgazet elerinin
Ġgazet emiz
ÄŁÄ±r Ä±ndan
ĠdÄ±ÅŁ a
ĠdÄ±ÅŁ lanmÄ±ÅŁ
ĠdÄ±ÅŁ Ä±mÄ±zda
Ġsat Ä±lan
Ġsat Ä±ldÄ±
Ġsat acak
Ġsat tÄ±ÄŁÄ±
Ġsat Ä±yor
Ġsat Ä±ldÄ±ÄŁÄ±
Ġsat tÄ±k
Ġsat Ä±lmÄ±ÅŁ
Ġsat maktan
Ġsat Ä±lÄ±rken
luk la
luk tan
luk ada
lendir irken
ĠbugÃ¼n Ã¼
ĠbugÃ¼n Ã¼n
ĠbugÃ¼n den
Ġtutuk suz
Ġtutuk luluk
Ġtutuk lanmasÄ±nÄ±
meye ceÄŁini
meye ceÄŁi
san a
san larÄ±
san ayi
Ġsev iyor
Ġsev isi
Ġsev erek
Ġsev ilin
Ġsev inÃ§
Ġsev miyor
Ġsev iciliÄŁine
Ġsev icem
ĠKor u
ĠKor eli
ĠKor ucu
ĠKom edi
ĠKom iser
ĠKom iseri
Ġolay Ä±nda
Ġolay larÄ±n
Ġolay lara
Ġolay larla
Ġolay lardan
ĠDevlet imden
cel l
miÅŁ tir
mÄ±z da
mÄ±z la
mÄ±z dan
tr eli
tr alde
Ġer en
Ġer iyor
Ġer lerine
Ġer diÄŁini
Ġer mesinden
Ġer iyince
ĠEy Ã¼p
ĠEy idemir
Ġbildir i
Ġbildir iyor
Ġbildir mesi
Ġbildir ilecek
Ġbildir miÅŁti
Ġbildir ime
Ġbildir ilmediÄŁi
Ġkapsam Ä±na
Ġkapsam Ä±ndaki
Ġkapsam asÄ±nÄ±
Ġkim e
Ġkim ya
Ġkim imiz
Ġkim likle
Ġkim liÄŁiyle
Ġkim yasÄ±
Ġkim liÄŁe
Ġkim liÄŁinin
Ġkim yas
Ġtah Ä±l
Ġtah akk
Ġtah lil
Ġtah rib
Ġtah ammÃ¼l
ĠBÃ¼yÃ¼k ÅŁ
Ġder e
Ġder de
Ġder iz
Ġder eye
Ġder inden
Ġder isini
Ġder gisi
Ġder dimiz
Ġder ecelendir
madÄ± lar
acaÄŁÄ± mÄ±z
Ġkullan masÄ±
Ġkullan maya
Ġkullan masÄ±nÄ±n
Ġkullan Ä±lÄ±r
ĠIrak la
ĠIrak lÄ±
ĠIrak lÄ±larÄ±n
AB B
An kapark
An zer
An astasiadis
An nelik
gen lik
ĠÃ¼y esinin
ĠÃ¼y elerden
ĠÃ¼y eleriyle
ĠsÄ±nÄ± ra
Ġhap lar
Ġhap sediyor
Ġhap isteki
ĠeÅŁ im
ĠeÅŁ inden
ĠeÅŁ siz
ĠeÅŁ imi
ĠeÅŁ yasÄ±
ĠeÅŁ leÅŁen
ĠeÅŁ cinsel
ĠeÅŁ yalarÄ±nÄ±
ĠeÅŁ leÅŁme
ĠÃ¶nem e
ĠÃ¶nem ine
ĠÃ¶nem ini
ĠsaldÄ±rÄ± lar
ĠsaldÄ±rÄ± larÄ±nÄ±
ĠsaldÄ±rÄ± lardan
bol Ã¼
aÅŁtÄ±r Ä±ldÄ±ÄŁÄ±nda
Ġmey dan
Ġmey danÄ±
Ġmey velerini
Ġbirlik lerince
Ġbirlik telik
ĠÃ§alÄ±ÅŁmalar Ä±n
ĠÃ§alÄ±ÅŁmalar Ä±mÄ±zÄ±
ĠsÃ¶yledi ÄŁimiz
ĠsÃ¶yledi kten
ET Ä°M
ET NO
tay Ä±z
Ãľ Ã§
Ãľ lkenin
Ãľ rdÃ¼n
Ġyok tan
Ġyok ken
Ġvar an
Ġvar il
Ġvar lÄ±k
Ġvar masÄ±
Ġvar ken
Ġvar lÄ±ÄŁÄ±
Ġvar lÄ±ÄŁÄ±ndan
Ġvar yasyon
Ġvar Ä±lamaz
Ġayr Ä±k
Ġayr Ä±ldÄ±ÄŁÄ±nÄ±
Ġayr Ä±ÅŁÄ±yor
Ġayr Ä±mcÄ±lÄ±k
dÃ¼ÄŁ Ã¼nde
KK TC
ver ili
ilik lerinden
ĠsÄ±r aya
ĠsÄ±r alandÄ±
ĠsÄ±r asÄ±nÄ±
ĠsÄ±r alam
ĠsÄ±r tÄ±ndan
Ġsaat leri
Ġsaat lerini
Ġtem asÄ±
Ġtem asÄ±yla
Ġtem elidir
Ġtem sili
Ġtem enni
Ġdol du
Ġdol uluk
Ġdol durdu
Ġdol aÅŁÄ±p
ĠTayy ar
Ġoyun lar
Ġoyun unda
Ġoyun cunun
Ġdolar la
may enin
may acaÄŁÄ±m
siz ler
Ġden k
Ġden ir
Ġden ildi
Ġden edi
Ġden ilen
Ġden izi
Ġden ge
Ġden ince
Ġden gesi
Ġden ilmiÅŁ
Ġden ediklerini
Ġden ebilecek
Ġden gelenme
Ġden ilse
ĠÃ§arp Ä±k
ĠÃ§arp masÄ±
ĠÃ§arp acak
ĠÃ§arp Ä±yor
ĠÃ§arp manÄ±n
ĠÃ§arp tÄ±klarÄ±
ĠÃ§arp Ä±ÅŁtÄ±
leÅŁtir meye
Ġfiyat Ä±na
ĠgeÃ§ir di
ĠgeÃ§ir me
ĠgeÃ§ir ecek
ĠgeÃ§ir mek
ĠgeÃ§ir diÄŁi
ĠgeÃ§ir mesi
ĠgeÃ§ir miÅŁ
ĠgeÃ§ir mesine
ĠgeÃ§ir meli
Ġbak Ä±n
Ġbak ma
Ġbak Ä±lan
Ġbak Ä±mÄ±
Ġbak ana
Ġbak malarÄ±na
Ġbak alÄ±m
Ġbak Ä±ÅŁta
Ġbak arÄ±z
Ġbak arsanÄ±z
Ġbak amÄ±yor
Ġbak abildiÄŁi
Ġbaz Ä±ndaki
Ã¶k Ã§e
Ġada sÄ±nda
Ġada sÄ±ndaki
Ġada pte
Ġpay la
Ġpay larÄ±nÄ±n
Ġpay dada
Ġyapan lar
ĠdeÄŁil ler
ĠEylÃ¼l de
alet ine
Ġsan a
Ġsan Ä±lan
Ġsan atÄ±
Ġsan ayi
Ġsan mÄ±yorum
Ġsan tralde
Ġsosyal istler
urdu ÄŁum
Ġmerkez inden
Ġmerkez lerinden
ĠTr en
ĠTr abzon
ĠTr endy
ĠSu ara
ĠSu perbike
ĠsoruÅŁtur ulmasÄ±nÄ±
yan uslarda
Ġam iri
Ġam ansÄ±z
Ġam casÄ±
Ġam bulans
Ġam barlarÄ±nda
ĠyÃ¼r Ã¼rken
ĠyÃ¼r Ã¼yen
Ġhem ÅŁireler
ĠTek gÃ¶z
ĠTek fen
ĠTek nopark
Ġarac Ä±nda
Ġarac Ä±nÄ±
Ġarac Ä±lÄ±k
Ġarac Ä±yla
Ġhava alanÄ±nda
gan cÄ±lar
Ġsok a
Ġsok an
Ġsok mak
Ġsok aÄŁÄ±
Ġsok maya
Ġsok ulan
Ġsok uyor
Ġsok tu
Ġsok aÄŁÄ±n
Ġ15 4
Ġ15 8
ĠbaÅŁlat an
ĠbaÅŁlat Ä±r
ĠbaÅŁlat Ä±ldÄ±ÄŁÄ±
ĠbaÅŁlat tÄ±klarÄ±
ĠbaÅŁlat Ä±lmasÄ±na
ĠbaÅŁlat Ä±lmasÄ±yla
id dge
ret le
ret meye
ret lerimize
ĠuÃ§ maya
ĠuÃ§ aÄŁÄ±nÄ±
ĠuÃ§ suz
ĠuÃ§ tu
ĠuÃ§ ana
ĠuÃ§ aÄŁÄ±nda
ĠuÃ§ amadÄ±
ĠgeÃ§ti ÄŁini
ĠyayÄ±n Ä±nda
ĠyayÄ±n cÄ±
ĠyayÄ±n layan
ĠyayÄ±n layarak
ĠyayÄ±n lanÄ±yor
ĠyayÄ±n lanacak
sal Top
ĠtÃ¼m Ã¼
Ġiz lediÄŁi
Ġiz lemek
Ġiz lenmeye
ĠBil l
ĠBil inÃ§
ĠBil gay
ĠBil gisayar
ĠBil dirici
Ġhes App
ĠSer t
ĠSer ay
ĠSer isi
ĠSer ra
ĠSer tif
ĠSer ge
ĠSer gisi
ĠSer hat
ĠSer taÃ§
ĠSer tel
ĠSer vice
ĠSer enay
ĠSer mayenin
ĠEs in
ĠEs ma
ĠEs ad
ĠEs eng
ĠEs naf
Ġyarg Ä±sÄ±yla
Ġyarg Ä±sÄ±z
Ġyarg Ä±lamanÄ±n
ĠtartÄ±ÅŁ an
ĠtartÄ±ÅŁ masÄ±na
ĠtartÄ±ÅŁ masÄ±nÄ±
ĠtartÄ±ÅŁ mada
ĠtartÄ±ÅŁ Ä±lÄ±r
ĠtartÄ±ÅŁ Ä±lacak
ĠtartÄ±ÅŁ Ä±lmaya
Ġhapis le
AK FA
Ã§i den
Ġkes en
Ġkes ilen
Ġkes ilmesi
Ġkes ilme
Ġkes meyecek
Ġtam ircisi
Ġsonr alarda
lendi kleri
ĠÃ§Ä±kar an
ĠÃ§Ä±kar tan
ĠÃ§Ä±kar larÄ±nÄ±n
ĠÃ§Ä±kar Ä±lacaÄŁÄ±nÄ±
ĠÃ§Ä±kar mayalÄ±m
ĠpaylaÅŁ mak
ĠpaylaÅŁ arak
ĠpaylaÅŁ Ä±lÄ±yor
ĠpaylaÅŁ makta
ĠpaylaÅŁ madÄ±ÄŁÄ±nÄ±
ĠpaylaÅŁ Ä±yoruz
ĠpaylaÅŁ acaÄŁÄ±z
ĠpaylaÅŁ Ä±ma
gÄ±n lÄ±klarÄ±nÄ±
udi ca
ĠTem in
ĠTem ir
Ġfark Ä±
Ġfark Ä±nÄ±
Ġfark Ä±na
Ġfark larÄ±
Ġfark sÄ±z
Ġfark lÄ±lÄ±k
Ġfark lÄ±l
Ġuygul ama
Ġuygul anÄ±yor
Ġuygul adÄ±ÄŁÄ±
Ġuygul anacak
Ġuygul ayacak
Ġuygul adÄ±ÄŁÄ±nÄ±
Ġuygul anÄ±ncaya
.' '
fa asÄ±
kat li
mar aÅŁ
Ġyet ki
Ġyet eri
Ġyet isini
Ġyet mez
Ġyet enekli
Ġyet tiÄŁince
Ġmet relik
Ġolmak la
Ġolmak tÄ±
Ġolmak ta
ĠaÄŁÄ±r ladÄ±
ĠaÄŁÄ±r lamak
ĠÄ°s r
ĠÄ°s ale
ĠÄ°s kender
ĠboÅŁ luÄŁu
ĠboÅŁ andÄ±
ĠboÅŁ boÄŁaz
bÃ¼s e
Ġkil osu
Ġsilah a
Ġsilah Ä±
Ġsilah Ä±nÄ±
Ġsilah larÄ±
Ġsilah Ä±nÄ±n
Ġsilah tan
Ġsilah lardan
Ġharek atÄ±yla
ĠAd Ä±nÄ±
ĠAd alarÄ±
ĠAd res
ĠAd rian
ĠÃ§ocuk lu
ĠÃ§ocuk lara
ĠÃ§ocuk larÄ±ndan
ĠÃ§ocuk lardan
ĠÃ§ocuk luÄŁunun
ĠSan Ä±k
ĠSan atÄ±
ĠSan cak
ĠSan caktepe
ĠSan mÄ±yorum
lÄ±ÄŁÄ± dÄ±r
ĠÃĸn ce
ĠÃĸn cÃ¼
ĠÃĸn emi
ĠÃĸn Ã¼mÃ¼ze
ĠkonuÅŁ maya
ĠkonuÅŁ masÄ±nÄ±
ĠkonuÅŁ manÄ±n
ĠkonuÅŁ mayÄ±
ĠkonuÅŁ uldu
ĠkonuÅŁ madan
ĠkonuÅŁ madÄ±ÄŁÄ±nÄ±
ĠkonuÅŁ malarÄ±nÄ±
ĠkonuÅŁ ulmaya
ĠdeÄŁer li
ĠdeÄŁer ini
ĠdeÄŁer lerine
tÃ¼ ÄŁÃ¼
Ġem in
Ġem ir
Ġem isyon
Ġem peryal
Ġkol u
Ġkol unda
Ġkol eksiyon
Ġkol tuÄŁ
ĠKar Ä±n
ĠKar man
ĠKar ara
ĠKar Ä±sÄ±
ĠKar gÄ±n
ĠKar deÅŁ
ĠKar tepe
ĠKar diy
ĠKar anam
ĠKar ahasanoÄŁlu
deniz i
ĠÅŁek li
ĠÅŁek illendiÄŁini
Ġzor a
Ġzor da
Ġzor lu
Ġzor ladÄ±
Ġzor ladÄ±ÄŁÄ±
Ġzor landÄ±ÄŁÄ±
Ġzor layacak
Ġzor luluk
Ġzor larÄ±z
Ġbilg ilerin
Ġbilg ilerine
Ġbilg ilendirdi
ĠdÃ¶nem ini
ĠdÃ¶nem inin
ĠdÃ¶nem leri
ĠseÃ§im li
ĠseÃ§im den
ĠseÃ§im ini
ĠseÃ§im lerde
Ġlider ler
Ġlider le
Ġlider lik
Ġlider lerle
Ġlider liÄŁinde
Ġlider liÄŁindeki
ĠhÃ¼kÃ¼met inde
ĠhÃ¼kÃ¼met ten
ĠhÃ¼kÃ¼met lerinin
uc uyu
ĠkÄ±s kÄ±
ĠkÄ±s mÄ±nÄ±n
ĠkÄ±s alÄ±nda
ĠkÄ±s acasÄ±
ĠkÄ±s kandÄ±m
Ġgit mesi
Ġgit miÅŁ
Ġgit meler
Ġgit tikleri
Ġgit miyor
Ġgit tim
Ġgit tiler
Ġgit tikÃ§e
Ġgit memeleri
Ġgit tikten
Ġail esine
Ġail eleri
Ġail esiyle
Ġail emi
ĠHak l
ĠHak larÄ±nÄ±n
ĠHak kÄ±
ĠHak imler
ĠÃ¶nc Ã¼
ĠÃ¶nc elikli
ĠÃ¶nc elikle
Ġdik ecekmiÅŁ
ĠkaldÄ±r dÄ±
ĠkaldÄ±r maya
ĠkaldÄ±r Ä±p
ĠkaldÄ±r Ä±lmasÄ±nÄ±
ĠkaldÄ±r Ä±lÄ±rken
ĠtoplantÄ± lar
ĠtoplantÄ± larÄ±
ĠtoplantÄ± sÄ±ndan
ĠgÃ¼Ã§ de
ĠgÃ¼Ã§ lerin
ĠgÃ¼Ã§ lerinden
ĠgÃ¼Ã§ lenmesinden
Ġzaman larÄ±
Ġzaman dÄ±r
Ġzaman larÄ±n
Ġzaman larÄ±nÄ±n
Ġzaman larda
Ġzaman larÄ±nda
ĠgerÃ§ekleÅŁtir ilmesi
ĠgerÃ§ekleÅŁtir eceÄŁi
ĠgerÃ§ekleÅŁtir ildiÄŁi
ĠgerÃ§ekleÅŁtir meyi
ĠgerÃ§ekleÅŁtir ilmiÅŁ
ĠgerÃ§ekleÅŁtir emiyor
ĠgerÃ§ekleÅŁtir miÅŁtir
Ġasker ler
Ġasker inin
Ġasker lerden
Ġasker imizle
Ġasker lerimize
ĠbÄ±r a
Ġsiyas ete
Ġsiyas etin
Ġgen ce
Ġgen ci
Ġgen eli
Ġgen eral
Ġgen etik
Ġav lanmasÄ±
Ġav lamasÄ±yla
Ġav luda
ĠDr or
ĠsonuÃ§ ta
ĠsonuÃ§ larÄ±n
ĠsonuÃ§ larÄ±nda
Ġhastan eler
Ġhastan elik
Ġhastan elerin
Ġdikkat ini
yar gÄ±
ĠvatandaÅŁ a
ĠvatandaÅŁ larÄ±
ĠvatandaÅŁ larÄ±nÄ±
ĠvatandaÅŁ larÄ±yla
ĠvatandaÅŁ larca
ĠvatandaÅŁ lÄ±ÄŁÄ±na
ĠBÃ¶ cek
ĠBÃ¶ lÃ¼mÃ¼
ĠAli ce
ĠAli can
ĠAli aÄŁa
ĠMar cel
ĠMar ÅŁÄ±
ĠMar iya
ĠMar iti
ĠMar cao
ĠMar io
ĠMar ija
ĠMar mor
ĠEn der
ĠEn ver
ĠEn diÅŁ
ĠEn doskopi
ĠEn ergi
ĠEn teg
ĠEn donezyalÄ±
ĠEn dÃ¼stri
ĠyÄ±lÄ±nda yÄ±z
ĠgeliÅŁ miÅŁ
ĠgeliÅŁ imi
ĠgeliÅŁ mesine
ĠgeliÅŁ mesinin
ĠgeliÅŁ ime
ĠgeliÅŁ ebilecek
Ġdestek le
Ġdestek lenen
Ġdestek leyen
Ġdestek Ã§isi
Ġdestek leyeceÄŁini
Ġdestek lerimizi
ĠyargÄ±lan ma
ĠyargÄ±lan amaz
ĠyargÄ±lan dÄ±ÄŁ
ĠbÄ±rak Ä±lan
ĠbÄ±rak masÄ±
ĠbÄ±rak maya
ĠbÄ±rak madÄ±
ĠbÄ±rak Ä±lmasÄ±
ĠbÄ±rak amaz
ĠbÄ±rak mÄ±ÅŁtÄ±
ĠbÄ±rak Ä±ldÄ±ÄŁÄ±nÄ±
ĠbÄ±rak Ä±lmÄ±ÅŁ
ĠbÄ±rak mÄ±ÅŁtÄ±r
ĠbÄ±rak mayanlara
ĠbÄ±rak abiliyorlar
Ġul aÅŁtÄ±rdÄ±
ĠyanÄ± yor
ĠkÄ±r ma
ĠkÄ±r mak
ĠkÄ±r dÄ±ÄŁÄ±nÄ±
ĠkÄ±r mÄ±zÄ±lÄ±
ĠkÄ±r gÄ±nlÄ±klarÄ±nÄ±
Ġmuh alefetin
Ġmuh aseb
Ġmuh temel
Ġmuh akeme
ĠTop ol
ĠTop kan
ĠTop lanma
ĠEm ma
ĠEm pir
uma dan
ĠyapÄ±l maya
ĠyapÄ±l abil
ĠyapÄ±l mÄ±ÅŁ
ĠyapÄ±l acaÄŁÄ±nÄ±
ĠyapÄ±l amaz
ĠyapÄ±l masÄ±nÄ±n
ĠyapÄ±l mamasÄ±
ĠyapÄ±l madan
ĠyapÄ±l abilecek
ĠyapÄ±l madÄ±ÄŁÄ±nÄ±
ĠyapÄ±l madÄ±ÄŁÄ±
ĠyapÄ±l abilmesi
ĠyapÄ±l mazsa
ĠyapÄ±l mÄ±ÅŁtÄ±r
ĠyapÄ±l acaÄŁÄ±ndan
ĠyapÄ±l abilmesini
ĠyapÄ±l mazken
Ġ30 8
ĠyaÅŁam Ä±
ĠyaÅŁam la
ĠyaÅŁam larÄ±
ĠAlt Ä±nÄ±n
ĠAlt yapÄ±
ĠAlt Ä±ndaÄŁ
ĠtakÄ±m lar
ĠtakÄ±m Ä±na
ĠtakÄ±m Ä±z
ĠtakÄ±m daki
Ġtamam Ä±nda
Ġtamam Ä±na
Ġtamam lanmasÄ±
Ġtamam lanmadan
Ġtamam lamasÄ±nÄ±
50 9
sÄ±z laÅŁmanÄ±n
yÄ± ÄŁÄ±
Ġko la
Ġko dest
ĠÄ°st ismar
ĠDÃ¼nya da
ĠDÃ¼nya daki
Ġ11 3
Ġ19 0
Ġ19 50
Ġ19 31
Ġ19 75
Ġ19 90
Ġ19 83
Ġ19 94
Ġ19 53
Ġ19 68
Ġ19 88
Ġ19 48
Ġ19 85
ĠgÃ¶Ã§ meni
ĠgÃ¶Ã§ Ã¼kte
Ġokul daki
Ġokul unda
Ġokul una
Ġokul unun
Ġokul larÄ±nÄ±n
Ġokul larÄ±na
Ġokul laÅŁma
ĠgÃ¼venlik Ã§i
ĠbazÄ± larÄ±
ĠbazÄ± larÄ±nÄ±n
ĠbazÄ± larÄ±mÄ±z
BB P
Ġbab alara
ĠbaÄŁ lar
ĠbaÄŁ landÄ±
ĠbaÄŁ larÄ±nÄ±
ĠbaÄŁ lanmÄ±ÅŁ
ĠbaÄŁ landÄ±ÄŁÄ±
ĠbaÄŁ lant
ĠbaÄŁ daÅŁam
ĠsÄ±k tÄ±ÄŁÄ±
ĠsÄ±k Ä±ntÄ±lar
ĠsÄ±k lÄ±kla
Ġsey yar
Ġsey retmeye
Ġgrup lar
Ġgrup larÄ±
Ġgrup larÄ±nda
Ġgrup larÄ±ndan
Ġgrup taki
ĠTur na
ĠTur han
ĠTur gut
ĠTur istin
ledi klerini
ledi ÄŁinin
din and
mer haba
min ator
min alde
suz luÄŁun
Ġon s
Ġon ur
Ġon larca
Ġon andÄ±ÄŁÄ±
Ġon baÅŁÄ±
Ġboy unda
Ġboy nu
Ġboy utlu
Ġboy utunu
ĠyatÄ±r dÄ±ÄŁÄ±
ĠyatÄ±r Ä±lmasÄ±
ĠyatÄ±r Ä±lacak
ĠyatÄ±r Ä±ma
ĠyatÄ±r Ä±mÄ±yla
Ġsen etlerinde
ĠÄ°ÅŁ e
ĠÄ°ÅŁ in
ĠÄ°ÅŁ ler
ĠÄ°ÅŁ ini
ĠÄ°ÅŁ Ã§i
ĠÄ°ÅŁ veren
ĠÄ°ÅŁ Ã§inin
ĠÄ°ÅŁ aretli
ĠDem okras
Ġediyor lar
Ġediyor sa
ĠaraÅŁtÄ±r dÄ±
ĠaraÅŁtÄ±r manÄ±n
ĠaraÅŁtÄ±r masÄ±nÄ±n
ĠaraÅŁtÄ±r Ä±lanlar
ĠaraÅŁtÄ±r malarÄ±nÄ±
ĠaraÅŁtÄ±r malarÄ±nÄ±n
Ġfilm de
Ġfilm inde
Ġfilm ine
Ġfilm ini
Ġfilm inin
Ġfilm lerini
Ġfilm lerden
ĠyaÅŁanan larÄ±n
ĠyaÅŁanan larla
Ġisteyen leri
Ġisim le
ĠÃľniversit elilerin
uÄŁ unu
yi ÄŁit
Ġben de
ĠMahkem esinin
Ġede lim
Ġede bilir
Ġede cektir
Ġede ceÄŁine
ahat imiz
ahat tin
Ġ17 2
Ġ17 3
Ġ17 5
Ġdair ede
Ġdair esinin
ĠgÃ¶rÃ¼n Ã¼m
ĠgÃ¶rÃ¼n dÃ¼
Ġoyn ar
Ġoyn ayan
Ġoyn ama
Ġoyn ayarak
Ġoyn anÄ±yor
Ġoyn amayÄ±n
Ġoyn amak
Ġoyn amÄ±ÅŁ
Ġoyn arsanÄ±z
Ġoyn amaya
ĠakÅŁam Ä±ndan
Ã¼ltÃ¼r el
ĠÅŁirket leri
ĠÅŁirket iyle
ĠÅŁirket lerin
ĠÅŁirket lere
ĠÅŁirket lerden
ĠÅŁirket lerindeki
Ġmetro pol
Ġmetro bÃ¼st
ag e
sil cimiz
Ġkuzey i
Ġkuzey den
Ġkuzey inden
Ġkend inden
Ġkend ileri
Ġkend ilerinin
Ġkend inizi
Ġkend inize
Ġkend iliklerinden
Ġim mÃ¼n
Ġit tiÄŁi
Ġit ham
ĠAt lÄ±
ĠAt las
ĠAt ina
ĠAt Ä±lgan
ĠAt kÄ±n
ĠAt ila
ĠAt akum
ĠAt talos
ĠSÃ¶z leÅŁmesi
ĠSÃ¶z Ã¼mÃ¼zÃ¼
ĠanlaÅŁ Ä±ldÄ±
ĠanlaÅŁ masÄ±na
ĠanlaÅŁ masÄ±nÄ±
ĠanlaÅŁ malarÄ±nÄ±
ĠanlaÅŁ masÄ±ndaki
Ġtoplam asÄ±nÄ±
Ġproj eler
Ġproj esinde
Ġproj eleri
Ġproj elerin
Ġproj elerinin
Ġproj elerinden
ĠgÃ¶steriler ek
ĠgÃ¶steriler inden
Ġotom atik
Ġeylem de
Ġeylem ci
Ġeylem lerinin
Ġeylem lerde
Ġeylem lerine
leyen lerin
Ġhesab a
Ġhesab Ä±nÄ±n
Ã¼ÅŁtÃ¼ ÄŁÃ¼nÃ¼z
Cumhur baÅŁkan
ĠaÅŁ Ä±ldÄ±
ĠaÅŁ mayacak
Ġkom iser
Ġkom binasyon
Ġkom plos
Ġkom utanlarÄ±
Ġsu da
Ġsu lar
Ġsu dan
Ġsu ya
Ġsu lara
Ġsu larda
Ġsu bay
Ġsu ikasta
ĠsÄ± fÄ±r
ĠsÄ± cacÄ±k
ĠsÄ± fatÄ±yla
ĠsÄ± vÄ±yla
ĠsÄ± yrÄ±k
ĠsÄ± ÄŁmadÄ±
Ġtel e
Ġtel lerden
Ġtel aÅŁÄ±nÄ±
Ġtel eskop
ĠKan yon
ĠKan ada
ĠKan ca
ĠKan alÄ±
ĠKad Ä±nÄ±n
ĠMerkez den
ĠGÃ¼ven liÄŁi
ĠHas ar
ĠHas alan
Ġ14 0
ĠkarÅŁÄ±l adÄ±
ĠkarÅŁÄ±l amaya
ĠkarÅŁÄ±l aÅŁtÄ±ran
ĠkarÅŁÄ±l aÅŁtÄ±rÄ±ldÄ±ÄŁÄ±nda
ĠkullandÄ± m
Ġprogram a
Ġprogram Ä±n
Ġprogram lar
Ġprogram la
Ġprogram dan
Ġprogram Ä±na
Ġprogram Ä±ndan
Ġprogram Ä±ndaki
Ġprogram larÄ±nÄ±n
Ġprogram larÄ±ndan
ĠWol ves
Av de
Av ustur
Av rasya
ch aft
fl iyor
ĠPo Ã§ta
ĠaraÃ§ larÄ±
ĠaraÃ§ larÄ±nda
Ġ26 00
Ġ26 60
Ġ26 11
ĠiÃ§er ir
ĠiÃ§er iye
ĠiÃ§er iyor
ĠiÃ§er ken
ĠiÃ§er isine
ĠiÃ§er meyen
Ġetkin liÄŁi
Ġetkin liÄŁine
Ġetkin liÄŁiyle
ĠÃĸr neÄŁin
ĠÃ§alÄ±ÅŁan larÄ±
ĠÃ§alÄ±ÅŁan larÄ±n
uÅŁtu ÄŁu
ĠgerÃ§ekleÅŁ mesini
ĠgerÃ§ekleÅŁ medi
ĠgerÃ§ekleÅŁ eceÄŁine
ĠgerÃ§ekleÅŁ irilen
Ġaday larda
Ġaday lÄ±ÄŁÄ±
Ġaday lardan
Ġaday lÄ±ÄŁÄ±nda
Ġaday lÄ±ktan
Ġaday lÄ±ÄŁÄ±ndan
eÄŁ e
eÄŁ im
eÄŁ inin
eÄŁ itime
Ä±ntÄ± dan
Ä±ntÄ± sÄ±yla
Ġsun uÅŁ
Ġsun masÄ±
Ġsun abileceÄŁini
Ġsun abilecek
Ġsun madÄ±ÄŁÄ±nÄ±
Ġsun ulmasÄ±
Ġsun abilirsiniz
Ġsun ulacaÄŁÄ±
esel ls
Ġmahkem esi
Ġmahkem enin
Ġmahkem elerin
Ġmahkem elere
Ġmahkem elerce
ĠGazet enin
ĠGazet ecinin
ĠarkadaÅŁ Ä±nÄ±n
ĠarkadaÅŁ larÄ±mla
ĠÅŁey ler
ĠÅŁey den
Ġverildi ÄŁi
ĠVal iyi
ĠVal iliÄŁinden
ĠVal entina
ĠbÃ¶lÃ¼m ler
ĠbÃ¶lÃ¼m le
ĠbÃ¶lÃ¼m lerinden
ĠbÃ¶lÃ¼m Ã¼yle
Ġkapat ma
Ġkapat arak
Ġkapat madÄ±
Ġkapat mayan
Ġkapat tÄ±ÄŁÄ±nÄ±
Ġkapat masÄ±ndan
ĠgiriÅŁ ler
ĠgiriÅŁ indeki
ĠgiriÅŁ eceÄŁi
ĠgiriÅŁ mesinden
Ġsahip ti
Ġsahip leri
Ġsahip tir
Ġsahip lerine
Ġsahip lenilmiÅŁ
ĠeleÅŁtir i
ĠeleÅŁtir iler
ĠeleÅŁtir ileri
ĠeleÅŁtir iyi
ĠeleÅŁtir isine
ĠeleÅŁtir isinde
ĠeleÅŁtir ilerine
ĠeleÅŁtir ilerini
ĠeleÅŁtir ilmesine
ĠeleÅŁtir menler
ĠgÃ¶Ã§men leri
any olu
ing ler
ing ine
Ġtur una
Ġtur istik
Ġtur uncu
ĠBaÄŁ lar
ĠBaÄŁ daÅŁ
ĠMeclis in
ĠMeclis imizin
ĠGÃ¼n gÃ¶ren
ĠGÃ¼n Ã¼mÃ¼zde
ĠÃ¶ner di
ĠÃ¶ner ilen
ĠÃ¶ner iyor
ĠÃ¶ner ilerin
ĠÃ¶ner ilecek
ĠÃ¶ner isini
ĠÃ¶ner gesi
ĠÃ¶ner isiyle
ĠyardÄ±m Ä±
ĠyardÄ±m Ä±nÄ±
Ġkurul da
Ġkurul un
Ġkurul maya
Ġkurul masÄ±nÄ±n
Ġkurul masÄ±yla
Ġkurul masÄ±ndan
ĠuyuÅŁtur ucuyu
Ġdevlet e
Ġdevlet i
Ġdevlet inin
Ġdevlet ten
Ġdevlet se
ĠdÃ¼nya ca
ĠgerekÃ§ eli
ĠgerekÃ§ esine
ĠdeÄŁiÅŁik liÄŁine
ĠdeÄŁiÅŁik liÄŁinin
Ġoyuncu lar
Ġoyuncu larÄ±n
Ġoyuncu larÄ±yla
ĠdeÄŁerlendir me
ĠdeÄŁerlendir ip
ĠdeÄŁerlendir diÄŁi
ĠdeÄŁerlendir ilmiÅŁ
ĠdeÄŁerlendir iriz
ĠdeÄŁerlendir ilmeli
ocu lar
andÄ±r a
andÄ±r Ä±ldÄ±ÄŁÄ±nÄ±
Ġkor kan
Ġkor uyan
Ġkor uyucu
Ġkor sanlarÄ±
Ġsistem ine
Ġsistem iyle
Ġsistem imiz
Ġsistem lerin
Ġsistem atik
Ġte olojik
Ġte amÃ¼l
Ġte dirgin
ĠtaÅŁÄ± yacak
Ġbiri dir
Ġ16 9
Ġ16 73
ĠdiÄŁer leri
Ġgiden i
ĠyÃ¼rÃ¼t eÃ§
ĠyÃ¼rÃ¼t mek
ĠyÃ¼rÃ¼t tÃ¼
ĠyÃ¼rÃ¼t Ã¼ldÃ¼
ĠyÃ¼rÃ¼t ecin
ĠyÃ¼rÃ¼t Ã¼lmesi
ĠyatÄ±rÄ±m Ä±nda
ĠyatÄ±rÄ±m la
ĠyatÄ±rÄ±m Ä±nÄ±n
ĠyatÄ±rÄ±m larÄ±nÄ±n
ĠyatÄ±rÄ±m lardaki
ĠyatÄ±rÄ±m cÄ±sÄ±na
ĠÃĸrgÃ¼t lÃ¼
ĠÃĸrgÃ¼t Ã¼nÃ¼n
las am
lek ette
lek etlerine
savc Ä±lÄ±ktan
van Ã§
van Ä±nÄ±
van Ä±na
van lara
Ġbor unun
Ġbor cunun
Ġbor ularÄ±ndan
Ġbor uhattÄ±
ĠyansÄ± tan
ĠyansÄ± tÄ±yor
ĠkÄ±z Ä±n
ĠkÄ±z Ä±l
ĠkÄ±z Ä±nÄ±
ĠkÄ±z Ä±yla
ĠkÄ±z arÄ±k
Ġkamp a
Ġkamp Ä±
Ġkamp Ä±n
Ġkamp Ä±ndan
Ġkamp ta
Ġkamp tan
ĠBor a
ĠBor as
ĠBor udan
ĠBor usan
ĠBor alÄ±oÄŁlu
Ġhan Ä±na
Ġhan elerin
Ġhizmet ler
Ġhizmet ine
Ġhizmet lerini
Ġhizmet lerinin
Ġhizmet lerden
Ġmal iy
Ġmal la
Ġmal larÄ±
Ġmal ikan
ĠSÃ¼r eÃ§
ĠSÃ¼r ekli
Ġilan larÄ±
Ġilan larÄ±nÄ±
Ġilan larÄ±nÄ±n
ĠÄ°mam o
ĠDen gelenme
ĠOk ay
ĠOk ul
ĠOk ulu
ĠOk ullarÄ±n
ĠOk yay
ĠOk sana
ĠOk umadan
Ġistedi ÄŁimiz
Ġistedi kleri
ĠÅŀampiyon alarÄ±
ĠmÃ¼da faasÄ±
Ġcinayet e
Ġcinayet ler
Ġcinayet le
Ġcinayet ine
Ġcinayet ini
Ġcinayet iyle
Ġkamyon dan
Ġkamyon etin
ĠsÄ±nÄ±f Ä±n
ĠsÄ±nÄ±f larÄ±
ĠsÄ±nÄ±f Ä±ndaki
ĠsÄ±nÄ±f larÄ±nÄ±
ĠsÄ±nÄ±f landÄ±rÄ±lacak
ĠsÄ±nÄ±f landÄ±rma
ĠbaÅŁvuru lar
ĠbaÅŁvuru ya
ĠbaÅŁvuru larÄ±na
ĠbaÅŁvuru larÄ±ndan
gin s
gin liÄŁi
kil leri
rik alÄ±
Ġci ci
Ġci hat
Ġci vanÄ±n
ĠyaÄŁÄ±ÅŁ Ä±n
ĠyaÄŁÄ±ÅŁ larÄ±
ĠgÃ¶n lÃ¼mÃ¼zde
dav acÄ±lÄ±k
Ġtale bi
ĠBay er
ĠBay sal
ĠBay kal
ĠBay darol
Ġhat la
Ġhat aya
Ġhat larÄ±nda
Ġhat larÄ±yla
ĠTar abya
ĠTar tÄ±ÅŁma
Ġyapmak ta
Ġyapmak tan
mada ÄŁlÄ±
ĠYal Ä±sÄ±
ĠYal aka
ĠYal anÄ±m
ĠYal vaÃ§
ĠYÃ¶n eticiler
ĠYÃ¶n etmeni
ĠFakÃ¼lt esinde
ĠyaÅŁayan lar
Ġdiye bilir
Ġdiye ceÄŁiz
Ġorman sÄ±zlaÅŁmanÄ±n
Ġprot okolÃ¼
Ġhasar lar
Ġhasar Ä±nÄ±n
Ġhasar lÄ±larÄ±n
ĠyayÄ±m layarak
ĠyayÄ±m lanamadÄ±
Ġkamu fle
Ġparti sin
Ġkredi yle
Ġkredi sinin
ĠgeÃ§irildi ÄŁi
ĠkarÅŁÄ±laÅŁ Ä±yor
ĠkarÅŁÄ±laÅŁ manÄ±n
ĠkarÅŁÄ±laÅŁ masÄ±yla
ĠkarÅŁÄ±laÅŁ Ä±ldÄ±ÄŁÄ±nÄ±
ĠkarÅŁÄ±laÅŁ malarda
ĠkarÅŁÄ±laÅŁ mamÄ±ÅŁ
ĠkarÅŁÄ±laÅŁ tÄ±m
ĠkarÅŁÄ±laÅŁ mayla
TO BB
Ãĩ ok
Ãĩ orlu
Ãĩ Ä°M
Ãĩ evre
Ãĩ iÄŁdem
Ãĩ etenin
Ãĩ ekmekÃ¶y
Ãĩ alÄ±ÅŁmalarÄ±na
ĠyoÄŁun luÄŁunu
Ġkoy d
Ġkoy u
Ġkoy arak
Ġkoy larda
Ġkoy masÄ±na
Ġkoy uyor
Ġkoy abilecek
Ġkoy mayanlara
Ġkoy maktÄ±
Ġkoy madÄ±lar
Ġkent in
Ġkent ine
Ġkent sel
Ġkent lerine
Ġkent teki
ĠSa it
ĠSa uli
ĠSa ireler
ĠDiyarbakÄ±r lÄ±
ĠYÄ±l dÃ¶nÃ¼m
ĠOt eli
ĠOt okar
ĠOt oyolu
ĠOt urduÄŁum
Ġziyaret inde
Ġziyaret te
Ġziyaret Ã§iler
Ġziyaret Ã§ilerini
Ġziyaret Ã§ilerine
Ġann enin
Ġann elerini
Ġann elerden
Ġanlat tÄ±ÄŁÄ±
Ġanlat Ä±ldÄ±ÄŁÄ±
Ġanlat tÄ±rmak
ĠsÃ¼rdÃ¼r mek
ĠsÃ¼rdÃ¼r eceÄŁiz
Ġinsan lar
Ġinsan larÄ±n
Ġincel eyen
Ġincel enmesine
Ġuyar lanan
Ġuyar ladÄ±ÄŁÄ±
Ġuyar mÄ±ÅŁtÄ±
Ġuyar lamasÄ±
Ġuyar Ä±nca
Ġdevr ilen
Ġdevr alÄ±n
Ġdevr alma
ĠJo el
ĠBaÅŁsavc Ä±lÄ±k
ĠBaÅŁsavc Ä±lÄ±ktan
ĠBÃ¶lg eye
ĠulaÅŁ an
ĠulaÅŁ Ä±ldÄ±
ĠulaÅŁ Ä±yor
ĠulaÅŁ maz
ĠulaÅŁ acaÄŁÄ±
ĠulaÅŁ masÄ±na
ĠulaÅŁ Ä±lacaÄŁÄ±nÄ±
ĠulaÅŁ Ä±lamam
ĠulaÅŁ Ä±rlar
Ġprotest ocunun
DÃ¼nya daki
DÃ¼nya ca
Ã¼Ã§ ay
Ġyen erken
Ġyen isini
Ġyen ildiÄŁi
Ġyen ilenen
Ġyen ilerek
Ġkab us
Ġkab los
Ġkab ininde
Ġkab ahatimiz
ĠteÅŁ ekkÃ¼r
ĠBab a
ĠBab bit
ĠBab Ã¼roÄŁlu
lerden dir
ĠmÄ± hlama
ĠmÄ± hlam
ĠKuvvet lerince
ĠSÄ±r adaki
Ġplan Ä±nÄ±
Ġplan lÄ±
Ġplan Ä±na
Ġplan landÄ±
Ġplan larÄ±na
Ġplan lanÄ±
Ġplan layan
Ġplan lanÄ±yor
Ġplan ladÄ±ÄŁÄ±nÄ±
ĠÃ¶lÃ¼m Ã¼
ĠÃ¶lÃ¼m Ã¼nde
ĠÃ¶lÃ¼m Ã¼ndeki
ĠÃ¶lÃ¼m Ã¼nden
ĠGÃ¶ lÃ¼
ĠGÃ¶ Ã§ek
ĠGÃ¶ Ã§e
ĠGÃ¶ cek
ĠGÃ¶ ÄŁÃ¼s
ĠGÃ¶ meÃ§
ĠGÃ¶ ÄŁsÃ¼m
Ġfutbol dan
ĠFet taoÄŁlu
ĠgÃ¶ren ler
Ġkonu ÄŁu
Ġkonu lardan
ĠBakan Ä±nÄ±n
ĠiÅŁlem e
ĠiÅŁlem ler
ĠiÅŁlem lerin
ĠiÅŁlem eyen
ĠiÅŁlem lerinin
ĠiÅŁlem lerde
ĠiÅŁlem leriyle
ĠiÅŁlem ediÄŁi
Ġbilin eni
Ġbilin mez
Ġbilin medi
Ġbilin cimiz
ĠÅŀu besi
Ġsorun lar
Ġsorun la
Ġsorun lu
Ġsorun unu
Ġsorun larÄ±n
Ġsorun larÄ±nÄ±
Ġsorun una
Ġsorun suz
ĠUz ay
Ġhaft aki
Ġhaft aya
Ġhaft asÄ±na
Ġhaft asÄ±ndaki
Ġhaft abaÅŁÄ±nda
Ġotur masÄ±
Ġotur muÅŁ
Ġotur masÄ±n
ĠbaÅŁkan larÄ±nÄ±n
ĠdÃ¼ÅŁÃ¼r en
ĠdÃ¼ÅŁÃ¼r meyi
ĠdÃ¼ÅŁÃ¼r elim
ĠyÃ¼ksel iyor
ĠyÃ¼ksel diÄŁi
ĠyÃ¼ksel irken
ĠyÃ¼ksel diÄŁini
ĠyÃ¼ksel tti
ĠKomut anlÄ±ÄŁÄ±ndaki
Ġhareket ler
Ġhareket le
Ġhareket ini
Ġhareket inin
Ġhareket lere
Ġhareket lerine
ĠyanÄ±t larÄ±nÄ±
ĠyanÄ±t layan
Ġprotesto larÄ±
Ġprotesto larÄ±nda
YT B
YT AP
Ġiyi dir
ort aya
ort men
ĠKo cijanci
ĠÃ§aÄŁ Ä±na
ĠSaÄŁ anak
ĠDoÄŁ a
ĠDoÄŁ um
Ġfa izi
Ġfa izli
Ġfa illerini
Ġyaralan masÄ±
Ġyaralan masÄ±na
Ġyaralan mÄ±ÅŁtÄ±
Ġyaralan madan
Ġenflasyon a
ĠyÃ¶netim ine
ĠyÃ¶netim ini
ĠyÃ¶netim inin
ĠmÃ¼cadele den
ĠÃ¶zgÃ¼r ce
Ġekonom iye
Ġekonom ileri
Ġekonom isine
Ġekonom isinin
Ġekonom ilerinden
Ġekonom istlerin
Ġekonom etri
Ġduyur uldu
ĠÄ°lk er
ĠÄ°lk okul
ĠÄ°lk bahar
ĠÄ°lk adÄ±m
ĠÄ°lk nur
ĠÃ¼Ã§ te
okrat i
Ġtedav iye
Ġtedav ilere
ĠgÃ¶nder diÄŁi
ĠgÃ¶nder mesi
ĠgÃ¶nder ilmesi
ĠgÃ¶nder ilmek
ĠgÃ¶nder diÄŁini
ĠgÃ¶nder eceÄŁiz
ĠgÃ¶nder mediÄŁini
ĠgÃ¶nder ilec
gel sk
son g
ĠbÄ± Ã§aÄŁÄ±
ĠbÄ± yÄ±ÄŁÄ±
Ġbas an
Ġbas tÄ±
Ġbas mak
Ġbas tÄ±rmak
Ġbas amaklÄ±
Ġbas tÄ±rmaya
ĠsektÃ¶r de
ĠsektÃ¶r Ã¼n
ĠsektÃ¶r lere
ĠsektÃ¶r Ã¼nÃ¼
ĠsektÃ¶r Ã¼nÃ¼n
Ġtaki be
Ġtaki ben
Ġtep eye
Ġtep elerini
Ġham asi
Ġham sinin
Ġham lesi
ĠKr alÄ±
ĠKr itik
ĠKr use
ĠKr aliÃ§e
ĠKr istine
ĠKr ipal
ĠÃ§ocu ÄŁumuz
ĠSel in
ĠSel en
ĠSel vi
ĠSel ena
ĠSel ahattin
Ġdetay lÄ±
Ġdetay larÄ±nÄ±
Ġdetay lara
Ġdetay larÄ±na
lÄ±yor uz
Ġart Ã§Ä±
Ġart maya
Ġart tÄ±ÄŁÄ±nÄ±
Ġart Ã§Ä±lar
ĠfotoÄŁraf a
ĠfotoÄŁraf lÄ±
ĠfotoÄŁraf Ã§Ä±
ĠfotoÄŁraf larÄ±yla
ĠfotoÄŁraf taki
Ġsonuc unu
ĠaÃ§Ä±l ma
ĠaÃ§Ä±l mÄ±ÅŁ
ĠaÃ§Ä±l masÄ±na
ĠaÃ§Ä±l masÄ±nÄ±
ĠaÃ§Ä±l masÄ±nÄ±n
ĠkatÄ±ldÄ± m
ĠkatÄ±ldÄ± ÄŁÄ±nda
ĠyangÄ±n larÄ±na
ĠgÃ¶sterdi ÄŁimiz
ĠdeÄŁiÅŁtir en
ĠdeÄŁiÅŁtir di
ĠdeÄŁiÅŁtir ildi
ĠdeÄŁiÅŁtir iyor
ĠdeÄŁiÅŁtir ip
ĠdeÄŁiÅŁtir ecek
ĠdeÄŁiÅŁtir meye
ĠdeÄŁiÅŁtir iliyor
ĠdeÄŁiÅŁtir ilmesine
ĠdeÄŁiÅŁtir ilmesini
Ġbeklen irken
Ġbeklen miyor
Ġbeklen tiler
Ġbeklen mektedir
Ġbeklen tisi
Ġbeklen tisini
ĠKomisyon da
ĠKomisyon un
ĠsÄ±nÄ±r Ä±nda
ĠsÄ±nÄ±r larÄ±
ĠsÄ±nÄ±r lama
Ġuygulam aya
Ġuygulam alarÄ±nda
Ġuygulam alarla
ĠEmniyet teki
ĠYÃ¶netim lerden
SP D
SP OR
iliÅŁ i
ĠsayÄ± ma
ĠsayÄ± yor
ĠsayÄ± daki
Ġhede fliyor
ĠAh i
ĠAh med
ĠAh ÅŁap
Ġdar beci
Ġdok ularÄ±n
Ġmem leketlerine
ulus al
ĠMan dal
ĠMan del
ĠMan astÄ±r
ĠMan chester
ĠMan avgat
ĠMan ukyan
ĠoluÅŁ unu
ĠoluÅŁ una
ĠoluÅŁ umuz
ĠoluÅŁ madÄ±ÄŁÄ±nÄ±
ĠoluÅŁ umun
ĠDur uma
ĠDur gut
ĠEl ini
ĠEl iyle
ĠEl bette
ĠEl bistan
ĠEl madaÄŁlÄ±
Ġpat ron
Ġpat lamayÄ±
ĠGeÃ§ iÅŁ
ĠGeÃ§ ici
landÄ±r Ä±cÄ±sÄ±nda
ĠaÃ§tÄ± ÄŁÄ±na
ĠCeza evinden
ĠÅŁeh re
Ġetmek te
Ġetmek tedir
omb erg
ĠbaÅŁlay acaÄŁÄ±
ĠbaÅŁlay acaÄŁÄ±nÄ±
ĠbaÅŁlay acaÄŁÄ±z
ĠbaÅŁlay Ä±nca
ĠbaÅŁlay amayan
Ġrapor uyla
Ġrapor tÃ¶rleri
ternet ten
ĠmÃ¼dÃ¼r Ã¼ne
ĠkatÄ±l ma
ĠkatÄ±l maktan
ĠkatÄ±l amayacaÄŁÄ±nÄ±
Ġgirdi kleri
Ġteklif e
Ġteklif ini
Ġteklif te
ĠÃ¼st te
ĠÃ¼st Ã¼ne
ĠÃ¼st lendiÄŁi
ĠÃ¼st lendiÄŁini
ĠboÅŁalt maya
ĠboÅŁalt Ä±ldÄ±ÄŁÄ±
ĠboÅŁalt Ä±lacak
ĠboÅŁalt Ä±lmÄ±ÅŁ
ĠboÅŁalt Ä±lÄ±yor
ĠboÅŁalt Ä±lacaÄŁÄ±
fet tiÄŁini
Ġas li
Ġas len
Ġas rÄ±n
Ġyitir diÄŁi
etmen in
etmen lerimizin
Ġtas fiye
Ġtas arÄ±ya
ĠBar o
ĠBar an
ĠBar dal
ĠBar olar
ĠBar zani
ĠBar ents
ĠBank asÄ±nÄ±n
ĠAb ant
ĠAb bas
ĠAb dÃ¼rrahim
ĠAb lukada
ĠKara oÄŁlu
ĠKara alioÄŁlu
ĠKara gÃ¶z
iÅŁim lerin
ĠDer a
ĠDer ik
ĠDer din
ĠDer dimiz
ĠDer neÄŁinin
olos luÄŁu
Ġ27 0
Ġ27 1
Ġ27 3
Ġfir ari
Ġfir malarda
ĠFat e
ĠgÃ¼nde lik
Ġkontr bas
ĠinÅŁ asÄ±
ĠinÅŁ allah
Ġdiz inin
Ġdiz ide
Ġdiz ilerden
Ġdiz isiyle
Ġkurum larÄ±nÄ±n
Ġkurum larÄ±na
Ġkurum larÄ±ndan
Ġkurum larca
ĠduruÅŁ masÄ±na
ĠduruÅŁ mada
ĠduruÅŁ masÄ±nda
Ġhast ayÄ±
Ġhast alarÄ±
Ġhast alarÄ±n
Ġhast abak
Ġuzak laÅŁtÄ±r
Ġuzak tayÄ±z
ĠparÃ§ alÄ±
ĠparÃ§ alanmÄ±ÅŁ
ĠKons eri
ĠKons olosluÄŁu
oloj ilerinin
Ġikti sat
Ġmesaj Ä±nÄ±
Ġmesaj Ä±na
Ġmesaj Ä±m
Ġmesaj larÄ±nÄ±
Ġmesaj larda
Ġmesaj laÅŁma
abilir im
Ġgazeteci den
ĠpaylaÅŁÄ±m Ä±nda
ĠpaylaÅŁÄ±m larÄ±
ĠpaylaÅŁÄ±m larÄ±na
ĠpaylaÅŁÄ±m lardan
Ġtehlik e
Ġtehlik esiyle
ĠPolis e
ĠPolis in
ĠPolis likten
Ġtelefon da
Ġtelefon un
Ġtelefon larÄ±
Ġtelefon unu
Ġtelefon larÄ±na
ĠbÄ±Ã§ak ladÄ±
ĠbÄ±Ã§ak layan
Ġhedef ler
Ġhedef inde
Ġhedef inin
Ġhedef leri
Ġhedef lerinin
Ġhedef lerine
Ġhedef lenirken
Ġhedef lediklerini
Al Ä±nan
YÄ° K
lak lar
nan do
nan dez
og es
ĠyÄ±k tÄ±
ĠyÄ±k Ä±lan
ĠyÄ±k Ä±mÄ±
ĠyÄ±k Ä±lmasÄ±
ĠyÄ±k Ä±cÄ±
ĠyÄ±k Ä±lmÄ±ÅŁ
ĠyÄ±k tÄ±ÄŁÄ±nÄ±
Ġgram Ä±
ĠtanÄ± ÄŁÄ±
ĠtanÄ± yor
ĠtanÄ± tan
ĠtanÄ± dÄ±klarÄ±
ĠtanÄ± tÄ±m
ĠtanÄ± yoruz
Ġoda da
Ġoda daki
Ġoda ÄŁÄ±na
Ġoda ÄŁÄ±nda
Ġoda mÄ±za
ĠBen li
ĠBen zi
ĠBen jamin
ĠAf ili
ĠAf rikalÄ±
ĠAs lÄ±
ĠAs for
ĠAs lÄ±nda
ĠAs rÄ±n
Ġmev kisinde
Ġmev simi
Ġmev duatÄ±
Ġmark a
Ġmark et
Ġmark asÄ±
Ġmark anÄ±n
Ġmark etin
Ġmark alarÄ±na
Ġmark alarÄ±n
Ġmark alarÄ±ndan
Ġmark ette
ĠKÄ± yÄ±
ĠKÄ± vanÃ§
ĠKal abalÄ±k
ĠKal ecilik
ĠKal iforn
ĠKay ser
ĠKay alÄ±pÄ±nar
ĠKÄ±r ÅŁehir
ĠKÄ±r Ä±khan
ĠMer al
ĠMer ter
ĠMer haba
ĠMer ve
ĠaÄŁ Ä±nÄ±n
ĠaÄŁ larÄ±nÄ±
ĠaÄŁ larÄ±nÄ±n
ĠaÄŁ aca
ĠEÅŁ ik
ĠEÅŁ kÄ±
ĠEÅŁ itliÄŁi
ĠEÅŁ eÄŁe
Ġpiyas a
Ġpiyas ayÄ±
Ġpiyas alarÄ±na
ĠÃ¶lÃ¼ me
ĠÃ¶lÃ¼ sÃ¼
ĠHav acÄ±lÄ±k
ĠYÃ¼ksek ova
ĠYÃ¼ksek okulu
ĠfÄ±r larken
ĠyarÄ±ÅŁ Ä±na
ĠyarÄ±ÅŁ Ä±nÄ±n
ĠyarÄ±ÅŁ masÄ±na
Ġgeril im
Ġgeril eyen
Ġgeril eme
Ġgeril ediÄŁini
Ġgeril eyerek
ĠiÅŁÃ§ il
ĠiÅŁÃ§ iye
ĠiÅŁÃ§ inin
ĠiÅŁÃ§ ilerin
ĠiÅŁÃ§ ilere
ĠiÅŁÃ§ iliÄŁi
ĠiÅŁÃ§ ilerine
Ġindir ebilir
Ġindir ilmesine
Ġindir ilmesini
Ġinternet te
ĠkullanÄ± p
ĠkullanÄ± r
ĠkullanÄ± ma
ĠkullanÄ± cÄ±lar
ĠkullanÄ± yorum
ĠkullanÄ± cÄ±sÄ±
ĠUlu Ã§
ĠUlu dÃ¼z
ĠateÅŁ lediÄŁi
Ġuzman dan
Ġuzman larÄ±nÄ±n
Ġuzman larÄ±ndan
Ġuzman lardan
ĠÃ¶ldÃ¼rÃ¼l mesi
ĠÃ¶ldÃ¼rÃ¼l dÃ¼ÄŁÃ¼nÃ¼
ĠÃ¶ldÃ¼rÃ¼l mesiyle
ĠÃ¶ldÃ¼rÃ¼l dÃ¼ÄŁÃ¼nde
Ġsanat Ä±nÄ±
Ġsanat sal
Ġsanat severlerle
Ġamac Ä±
ĠTurk ish
Ġrisk e
Ġrisk iyle
Ġberaber inde
Ġberaber lik
Ġberaber indeki
ĠÃ§aÄŁr Ä±ldÄ±
ĠÃ§aÄŁr Ä±sÄ±yla
ĠÃ§aÄŁr Ä±lmaz
ĠÃ§aÄŁr Ä±lmaktan
Ġkontrol lÃ¼
Ġkontrol Ã¼nde
Ġkontrol lerinin
Ġkontrol Ã¼ne
Ġkontrol Ã¼nÃ¼n
Ġkontrol Ã¼nden
19 89
19 32
Bir isi
Bir Ã§ok
Bir likte
of t
rol lerinde
Ä±t lar
Ġkan at
Ġkan daki
Ġkan unu
Ġkan unda
Ġkan alÄ±
Ġkan adÄ±
Ġkan unlarÄ±
Ġkan amasÄ±
Ġseb zenin
ĠsavaÅŁ Ä±n
ĠsavaÅŁ la
ĠsavaÅŁ Ã§Ä±lar
ĠsavaÅŁ Ã§Ä±larÄ±n
ĠtÃ¼r Ã¼nÃ¼
Ġhey etleri
Ġhey etiyle
Ġhey kel
Ġhey etteki
ĠmÃ¼z enin
ĠTerÃ¶r e
ĠTerÃ¶r le
ĠTerÃ¶r istlerin
ĠSin can
ĠSin car
ĠMal ezya
ĠMal tepe
ĠMal ena
ĠMal loy
ĠMes rur
ĠMes cid
ĠMuh alefetin
ĠMuh temel
ĠMuh akemesi
ĠMuh abirlerin
ĠMuh afÄ±z
Ġolacak sa
ĠyaptÄ±r mak
ĠyaptÄ±r arak
ĠyaptÄ±r malÄ±
ĠyaptÄ±r Ä±lmayan
ĠartÄ±ÅŁ larÄ±
ĠartÄ±ÅŁ larÄ±nÄ±
Ġ21 8
ĠkardeÅŁ im
Ġedilm ekten
Ġedilm ediÄŁini
Ġedilm ediÄŁi
Ġzarar la
Ġzarar Ä±na
Ġzarar larÄ±nÄ±
Ġzarar Ä±mÄ±z
ĠRus lar
ĠkaldÄ± i
ĠkaldÄ± k
ĠkaldÄ± ÄŁÄ±na
ĠMillet e
ĠotobÃ¼s Ã¼ne
Ġgereken ler
ĠLig a
ĠLig ue
ĠyÃ¼ksek liÄŁinde
ĠyÃ¼ksek likte
Ġtemsil cimiz
Ġsiyaset ine
Ġsiyaset ini
Ġsiyaset te
Ġsiyaset tir
Ġimz alandÄ±
Ġimz alamaya
ĠMerkezi CHP
Ġihlal lerine
Ġihlal leriyle
Ġistismar Ä±n
Ġkabul de
Ġpuan a
Ġpuan la
Ġpuan Ä±nÄ±
Ġpuan larÄ±
Ġpuan larÄ±nÄ±
Ġ0 1
Ġ0 2
Ġ0 4
Ġ0 10
ĠuÄŁr aÅŁ
ĠuÄŁr ayÄ±p
ĠuÄŁr atacak
ĠuÄŁr amÄ±ÅŁ
ĠuÄŁr atÄ±ÄŁÄ±nÄ±
Ġsit esi
Ġsit esine
Ġsit eleri
Ġsit elerinin
Ġgol Ã¼
Ġgol Ã¼nÃ¼
Ġgol lerle
Ġgol Ã¼yle
Ġgol sÃ¼z
Ġgez meye
Ġgez inen
Ġgez ileriyle
Ġgez ebilirsiniz
Ġvur uldu
Ġvur gu
Ġvur anlar
Ġvur ulmasÄ±nÄ±
Ġvur gusu
ĠBer fu
ĠBer gÃ¼z
ĠBer hem
ĠÃ§evr esi
ĠÃ§evr esine
ĠÃ§evr eleri
ĠÃ§evr enin
ĠÃ§evr elerin
ĠÃ§evr elerinde
ĠÃ§evr eleriyle
ĠÃ§evr ilmesini
ĠSim one
Ġdem eÃ§
Ġdem ecin
Ġdem okras
Ġdem ograf
Ġdem okrati
Ġbirin cili
Ġbirbir i
Ġbirbir ini
Ġbirbir lerini
ĠartÄ±r an
ĠartÄ±r Ä±yor
ĠartÄ±r maya
ĠartÄ±r mÄ±ÅŁ
ĠartÄ±r Ä±lmasÄ±
ĠartÄ±r mada
ĠartÄ±r masÄ±ndan
ĠartÄ±r dÄ±ÄŁÄ±nÄ±
ĠartÄ±r Ä±yoruz
Ġ22 9
Ġ25 3
Ġ25 8
ĠFar Ã§a
ĠFar rel
ĠÅŁart lar
ĠÅŁart larda
ĠÅŁart larÄ±na
ĠÅŁart larÄ±yla
ĠgÃ¶rÃ¼l Ã¼r
ĠgÃ¶rÃ¼l mesi
ĠgÃ¶rÃ¼l meye
ĠgÃ¶rÃ¼l dÃ¼ÄŁÃ¼
ĠgÃ¶rÃ¼l mesine
ĠgÃ¶rÃ¼l mesini
Ġreh ber
Ġreh abilitasyon
ĠÃĩalÄ±ÅŁ malar
ĠÃĩalÄ±ÅŁ kan
ĠÃĩalÄ±ÅŁ tay
ĠÃĩalÄ±ÅŁ mada
ĠÃĩalÄ±ÅŁ malarÄ±
ĠÃĩalÄ±ÅŁ anlar
ĠÃĩalÄ±ÅŁ mama
ĠÃĩalÄ±ÅŁ tayÄ±
Ġorgan larÄ±yla
Ġsoru larÄ±
Ġsoru larÄ±n
Ġsoru larÄ±nÄ±n
ĠyakÄ±n Ä±na
ĠyakÄ±n larÄ±nda
ĠyakÄ±n lÄ±ÄŁÄ±
ĠyakÄ±n larÄ±ndaki
ĠyakÄ±n laÅŁmasÄ±nÄ±n
Ġhaberimiz den
Ġortak larÄ±
Ġortak larÄ±ndan
ĠkaÃ§Ä±r Ä±ldÄ±ÄŁÄ±
ĠkaÃ§Ä±r dÄ±ÄŁÄ±nÄ±
ĠkaÃ§Ä±r malarÄ±na
ĠkaÃ§Ä±r Ä±lmasÄ±ndan
Ġkamer ada
Ġkamer alarÄ±
Ġkamer ala
Ġhalk Ä±
Ġhalk larÄ±nÄ±n
Ġtutuklu ydu
ĠayrÄ± larak
ĠayrÄ± calÄ±k
ĠbaÅŁvur an
ĠbaÅŁvur ma
ĠbaÅŁvur unca
ĠbaÅŁvur usuna
ĠbaÅŁvur usunun
ĠbaÅŁvur ulabilir
ĠtartÄ±ÅŁmalar a
ĠtartÄ±ÅŁmalar Ä±
Ġharekat a
Ġharekat larÄ±nda
ĠAltÄ±n Ã¶zÃ¼
ĠAltÄ±n dere
Ġbenz iyor
Ġbenz emez
Ġbenz eyebilir
Ġbenz eÅŁirken
ĠKadir li
ĠÃ¼niversit eli
ĠÃ¼niversit elerde
ĠSaÄŁlÄ±k sÄ±z
ĠÅŁikayet e
ĠÅŁikayet leri
ĠÅŁikayet te
ĠÅŁikayet lerle
GÃ¼n lÃ¼k
GÃ¼n lerdir
TÃľ FE
TÃľ RKÄ°
TÃľ SÄ°AD
ga dÄ±r
liy esinde
Ã¼b eli
Ġbal on
Ġbal larÄ±
Ġbal Ä±nÄ±n
Ġbal ta
Ġbal ina
Ġbal inaya
Ġsar an
Ġsar Ä±lÄ±
Ġsar san
Ġsar dal
Ġsar mal
Ġsab aha
Ġsab Ä±ka
Ġtat min
Ġtat ilin
Ġtat bikat
Ġtat lÄ±dÄ±r
Ä°T SO
ĠKÃ¶ tÃ¼
ĠKÃ¶ pek
ĠTh omp
ĠTh erap
ĠTh Ã¼ringen
ĠSon er
ĠSon larÄ±
ĠSon ra
ĠMa alesef
ĠoluÅŁtur arak
ĠoluÅŁtur maya
ĠoluÅŁtur uyor
ĠoluÅŁtur duÄŁu
ĠoluÅŁtur muÅŁtu
ĠadÄ±m Ä±nÄ±
ĠadÄ±m larÄ±nÄ±
Ġpak lar
Ġpark larda
ĠHay al
ĠHay dar
ĠHay Ä±rlÄ±
ĠHarek eti
ĠHarek atÄ±yla
ĠHarek etlenen
ĠHalk Ä±n
ĠHalk tan
ĠyapÄ±ldÄ± ktan
ĠyapÄ±ldÄ± ÄŁÄ±nÄ±n
Ġalacak tÄ±
Ġalacak larÄ±n
ĠYap an
ĠYap tÄ±ÄŁÄ±
ĠYap Ä±ldÄ±ÄŁÄ±
ĠYap Ä±lmasÄ±na
ĠYap Ä±mÄ±nÄ±n
ĠYap Ä±tlar
Ġetm eyen
Ġetm esinin
Ġetm ektir
Ġetm emeleri
Ġetm elidir
ĠÃ§Ä±kacak larÄ±nÄ±
Ġbina dan
ĠsÃ¼rec inde
ĠsÃ¼rec ine
Ġcam i
Ġcam isi
Ġcam ileri
Ġcam ide
Ġcam isinde
Ġcam ilerde
Ġintih ara
Ġintih arÄ±
erkek lerle
Ġhafif e
ĠBaÅŁkonsolos u
ĠBaÅŁkonsolos lar
ĠBaÅŁkonsolos luk
ĠBaÅŁkonsolos luÄŁunu
Ġetkil edi
Ġetkil eyecek
Ġetkil ediÄŁi
Ġetkil emiyor
Ġetkil emeyecek
Ġetkil eyebilir
Ġetkil emeyi
Ġetkil eyebildiÄŁi
ĠsuÃ§lam alar
ĠsuÃ§lam alarÄ±n
Ġazal acaÄŁÄ±
Ġuzun luÄŁunda
Ġsevk iyatlarÄ±nÄ±n
ĠÃ§arptÄ±r Ä±lmasÄ±nÄ±n
ĠgenÃ§ lik
ĠgenÃ§ lerin
Ġavukat larÄ±n
Ġavukat larÄ±nÄ±
Ġavukat larÄ±nÄ±n
Ġavukat larla
Ġavukat lÄ±ÄŁÄ±nÄ±
Ġavukat lÄ±ÄŁa
Ġonay Ä±na
Ġonay Ä±nÄ±n
Ġsene dir
ĠHastan esine
ĠHastan esindeki
ĠHastan edeki
ĠSÃ¼per moto
Ġbelediye deki
Ġincelem eye
Ġincelem esinin
Ġincelem elerin
Ġincelem elerden
Ġincelem eleriyle
Ġfaaliyet e
Ġfaaliyet in
Ġfaaliyet lere
Ġsezon da
Ġsezon un
Ġsezon ki
eg al
eg rap
hn ologies
kaÃ§ ak
tu da
Ġerkek lerden
erli ÄŁini
Ġyalan lar
Ġyalan dÄ±r
Ġyalan lama
Ġyalan cÄ±lÄ±k
Ġkav uÅŁtu
Ġkav ÅŁak
Ġkav rayÄ±ÅŁ
Ġsavun an
Ġsavun urken
ĠBey ler
ĠBey koz
ĠBey tullah
Ġdin lenecek
Ġdin lemeye
Ġdin leye
Ġdin lenmesi
Ġdin lenmeye
Ġdin letisine
ĠKul Ã¼pten
ĠKaz anÄ±n
ĠÃ§iz di
ĠÃ§iz meye
ĠÃ§iz miÅŁ
ĠÃ§Ã¶k ert
ĠSev gi
ĠSev enleri
ĠSev ilay
ĠSev gilimden
Ġolum suzluk
ĠÄ°r ÅŁad
ĠPr omet
Ġ13 0
ĠFutbol cular
ĠÅŁark Ä±larÄ±
Ġner elidir
Ġveren e
Ġyarat ma
Ġyarat acaÄŁÄ±
Ġyarat abileceÄŁini
Ġyarat abiliyor
ĠgÃ¼ncel lendi
ĠgÃ¼ncel lenecek
ĠÃĩocuk luk
ĠÃĩocuk larÄ±mÄ±z
Ġkonuk larÄ±
Ġkaynak larÄ±
Ġkaynak larla
Ġkaynak larÄ±yla
Ġkaynak landÄ±rdÄ±ÄŁÄ±
Ġ45 1
Ġkaybeden ler
Ġkaybeden lerin
ĠÃ¶ÄŁrenildi ÄŁi
Ġtest inden
Ġiht iÅŁamlÄ±
ĠÅŁÃ¼phel iler
ĠÅŁÃ¼phel ileri
ĠÅŁÃ¼phel iyi
ĠÅŁÃ¼phel ilere
ĠÅŁÃ¼phel ilerden
ĠÅŁÃ¼phel enen
Ġboz arak
Ġboz maya
Ġboz uldu
Ġboz abilecek
Ġboz uluyor
ĠsatÄ±ÅŁ lar
ĠsatÄ±ÅŁ Ä±nÄ±
ĠsatÄ±ÅŁ larÄ±
ĠsatÄ±ÅŁ lardan
Ġtahmin ler
Ġtahmin leri
ĠeÅŁi ÄŁinden
ĠDemokrat ik
Ġkitap lar
Ġkitap larÄ±
Ġkitap larÄ±nÄ±n
Ġkitap larÄ±nda
Ġkitap laÅŁtÄ±rdÄ±
Ġtakip leri
Ġtakip lerine
Ġtakip Ã§isi
Ġtakip Ã§ilerini
ĠalÄ±ÅŁveriÅŁ inde
tin son
Ġbit ti
Ġbit mez
Ġbit iÅŁi
Ġbit mem
Ġyorum um
Ġyorum landÄ±
Ġyorum larÄ±n
Ġyorum layan
Ġyorum layarak
Ġyorum cusu
Ġkas asÄ±na
Ġkas asÄ±ndan
Ġkas aplarÄ±
Ġkas abalÄ±
Ġkas tederek
Ġses leri
Ġses lerin
Ġses tir
Ġses lendi
Ġgem inin
Ġgem ileri
Ġgem ilerden
Ġgem ideki
Ġgecik tirilmesi
asi a
ĠtaÅŁ Ä±r
ĠtaÅŁ Ä±nan
ĠtaÅŁ Ä±rken
ĠtaÅŁ ranÄ±n
ĠtaÅŁ ralÄ±
ĠtaÅŁ Ä±nacaÄŁÄ±nÄ±
ĠBal yoz
ĠBal veren
ĠBal lÄ±kÃ¶y
ĠTV F
ĠÃ§eÅŁ me
ĠÃ§eÅŁ idi
ĠÃ§if te
ĠÃ§if tin
ĠÃ§Ã¶z mesini
ĠÃ§Ã¶z Ã¼le
ĠÃ§Ã¶z Ã¼lemez
ĠÃ§Ã¶z meyeceÄŁini
ĠSah te
ĠSah nesiyle
ĠSuÃ§ lar
ĠMur ic
ĠMad den
ĠMad uro
Ġolmayan lara
ĠGÃ¶r evi
ĠGÃ¶r eve
ĠGÃ¶r Ã¼ÅŁtÃ¼ÄŁÃ¼nÃ¼z
Ġyapacak tÄ±
Ġyapacak mÄ±ÅŁ
ĠPen be
ĠPen tagon
Ġalmak ta
Ġalmak tan
Ġ24 8
ĠaÃ§Ä±ldÄ± ÄŁÄ±na
ĠaÃ§Ä±ldÄ± ktan
ĠCan er
ĠbuluÅŁ an
ĠbuluÅŁ malar
ĠbuluÅŁ larla
ĠbuluÅŁ up
ĠbuluÅŁ uyor
Ġyarar lanarak
ĠOn ay
ĠOn larÄ±
ĠOn gur
ĠOn koloji
Ġengel leri
Ġengel lenen
Ġengel lendi
Ġengel leyeceÄŁini
ĠiÅŁlet ilen
ĠiÅŁlet iyor
ĠiÅŁlet meye
ĠiÅŁlet ilmesi
Ġmillet e
Ġmillet in
Ġmillet le
Ġmillet imizin
Ġmillet indir
Ġbelirlen diÄŁi
Ġbelirlen mektedir
Ġism ine
Ġism imin
Ġ70 9
Ġpolitik asÄ±
Ġpolitik asÄ±na
Ġpolitik alarÄ±na
Ġpolitik alarÄ±nÄ±
ĠÃ¼ret en
ĠÃ¼ret ip
ĠÃ¼ret iliyor
ĠÃ¼ret tiÄŁini
ĠÃ¼ret emiyor
ĠÃ¼ret mezsen
ĠÃ¼ret iyorsa
ĠÃ¼ret medeki
ĠÃ¼rÃ¼n lerin
ĠÃ¼rÃ¼n lere
ĠÃ¼rÃ¼n lerde
ĠÃ¼rÃ¼n lerinden
ĠÃľnlÃ¼ ler
ĠsÃ¶zleÅŁ mesine
ĠsÃ¶zleÅŁ mesini
ĠsÃ¶zleÅŁ meli
ĠsÃ¶zleÅŁ melerini
Ġkriz in
Ġkriz den
Ġkriz inin
Ġkriz lere
Ġmeslek le
Ġmeslek leri
Ġmeslek lerden
Ġseviy esinde
Ġseviy eye
Ġseviy esiz
ĠAdalet in
ĠgÃ¶rÃ¼ntÃ¼ lerini
ĠgÃ¶rÃ¼ntÃ¼ lere
ĠgÃ¶rÃ¼ntÃ¼ lerinin
ĠgÃ¶rÃ¼ntÃ¼ leyen
ĠgÃ¶rÃ¼ntÃ¼ leriyle
ĠgÃ¶rÃ¼ntÃ¼ lediÄŁi
ĠoÄŁlu yum
ĠDoÄŁu dan
ĠAhmet li
Ġmadde de
Ġmadde leri
Ġmadde yi
Ġmadde sinin
Ġmadde sine
ĠsÃ¶ylem i
ĠsÃ¶ylem ek
ĠsÃ¶ylem esi
ĠsÃ¶ylem eye
ĠsÃ¶ylem lerle
ĠsÃ¶ylem ekten
ĠsÃ¶ylem iyordu
ĠsÃ¶ylem edim
Ġiktidar da
Ġiktidar dan
Ġherkes e
Ġherkes Ã§e
31 8
Bor do
Bor ussia
En ders
En donezyalÄ±
Yeni den
form asyonla
kr edi
erim ler
Ġbar onu
Ġbar iyer
Ġbar daÄŁÄ±
Ġbar onlarÄ±ndan
Ġbar Ä±nacak
Ġbar barlÄ±ÄŁÄ±na
ĠyaÄŁ dÄ±ÄŁÄ±
ĠyaÄŁ acaÄŁÄ±
ĠyaÄŁ mal
ĠyaÄŁ dÄ±ÄŁÄ±nda
ĠsÃ¶n mekte
Ã¶l ye
Ġvil lasÄ±nda
Ġvil lalarÄ±nÄ±n
ĠBek lenen
ĠBur un
ĠBur ada
ĠBur nu
ĠBur salÄ±
ĠBahÃ§eli evler
ĠdÃ¼ÅŁtÃ¼ ÄŁÃ¼
Ġma aÅŁÄ±
Ġma alesef
Ġmu amelenin
ĠÄ°d il
ĠÄ°t tifak
ĠÄ°t tiakÄ±n
ĠEv den
ĠEv leri
ĠEv ran
ĠGrup ta
ĠGrup taki
ĠHar am
ĠHar ald
ĠHar ikalar
ĠHer rmann
ĠHer nandez
ĠPer forman
Ġfestiv ale
Ġfestiv ali
Ġnit eledi
Ġettir ilen
Ġettir iyor
Ġettir meye
Ġettir iliyor
ĠbaÅŁlÄ±k lar
elerden dir
ros u
ros kopi
ros oft
Ġ31 0
Ġ31 3
Ġ31 4
ĠendiÅŁ eye
ĠendiÅŁ esiyle
ĠendiÅŁ elerini
ĠendiÅŁ esinden
ĠendiÅŁ elendir
ĠendiÅŁ eliyiz
ĠendiÅŁ elendi
Ġ200 5
Ġ200 7
ĠdÃ¼zenlem ede
ĠdÃ¼zenlem esinin
ĠdÃ¼zenlem enin
ĠdÃ¼zenlem esinden
ĠdÃ¼zenlem iÅŁti
ĠdÃ¼zenleyen lerin
Ġcan Ä±na
Ġcan Ä±ndan
Ġcan lanmÄ±ÅŁ
Ġcan avara
Ġistem ek
Ġistem leri
Ġistem iyorlar
Ġkurtar dÄ±
Ġkurtar mak
Ġkurtar maz
Ġkurtar Ä±lmasÄ±
Ġkurtar Ä±ÅŁla
Ġkurtar Ä±lmadÄ±
Ġsorgul amanÄ±n
Ġsorgul amalÄ±
ĠbÃ¶yle ce
ĠbÃ¶yle dir
ĠÃ¶ÄŁretmen lik
ĠiliÅŁk ili
ĠiliÅŁk isi
ĠiliÅŁk imiz
ĠiliÅŁk ileri
ĠiliÅŁk ilerin
ĠiliÅŁk ilerine
ĠiliÅŁk ilerini
ĠiliÅŁk ilerinin
ĠiliÅŁk imizi
ĠIn c
ĠIn St
Ġekib im
Ġekib inin
Ġekib iyle
Ġekib indeki
ĠbaÅŁkent in
ĠbaÅŁkent liler
ĠÄ°nsan lar
ĠÄ°nsan lÄ±k
ĠÄ°nsan larda
ĠkÃ¶y ler
ĠkÃ¶y lerinde
ĠkÃ¶y Ã¼nÃ¼n
ĠkÃ¶y deki
ĠÃ¼c ra
ĠuÃ§ak larla
Ġgitti ÄŁine
ĠkÄ±rsal Ä±ndaki
ĠgÃ¶rÃ¼nt Ã¼lÃ¼
ĠgÃ¶rÃ¼nt Ã¼sÃ¼nÃ¼n
ĠaÅŁam anÄ±n
ĠsÄ±cak lÄ±ÄŁÄ±
ĠsÄ±cak lÄ±klar
ĠsÄ±cak lÄ±klarÄ±nÄ±n
ĠKadÄ±n lar
ĠKadÄ±n larÄ±nÄ±n
ĠKadÄ±n lardan
ĠdeÄŁiÅŁiklik ler
ĠdeÄŁiÅŁiklik lerini
ĠdeÄŁiÅŁiklik lere
ĠdeÄŁiÅŁiklik lerinde
ĠborÃ§ larÄ±n
Ġciddi yeti
Ġciddi yet
Ġtaleb in
Ġtaleb ine
Ġtaleb ini
Ġtaleb inden
ĠmÃ¼dahal eler
ĠmÃ¼dahal eyi
ĠmÃ¼dahal elerle
Ġsebeb ini
Ġsebeb iyet
ĠÅŁiddet inde
ĠÅŁiddet iyle
ĠÅŁiddet indeki
Bil kent
oÃ§ lar
ruk lar
sen iz
Ġap ar
iner isi
Ġbask Ä±lÄ±
Ġbask Ä±sÄ±yla
Ġbask Ä±ya
alam aca
ĠkÄ± yafet
Ġkir iÅŁ
Ġkir alara
Ġkir letilen
Ġspor a
Ġspor un
Ġspor cunun
Ġtaz yik
ĠtÃ¼k etici
ĠtÃ¼k enme
ĠtÃ¼k etmenin
ĠBin asÄ±
ĠBin Ã¶z
ĠBin lerce
ĠBin lercesinin
ĠBul varÄ±
ĠBul unmaz
ĠBul gus
Ġhar Ã§
Ġhar calam
Ġhar ikasÄ±
Ġman ada
Ġman tar
Ġman evi
Ġman astÄ±r
Ġman asÄ±z
Ġman zar
Ġman ÅŁeti
Ġman evra
Ġman kenlerle
Ġmez un
Ġmez rasÄ±
ĠÃ§et esi
ĠÃ§et esine
ĠÃ§et esinin
ĠÃ§et enin
ĠMansur i
ĠDeprem i
Ġper akende
Ġper oksit
Ġpek iÅŁtir
Ġpazar Ä±na
Ġpazar lara
Ġara dan
ĠYÄ±ldÄ±z lar
ĠYÄ±ldÄ±z eli
ĠFilm in
ĠFilm de
avi da
ĠaÃ§Ä± larak
ĠaÃ§Ä± ÄŁÄ±nÄ±n
ĠaÃ§Ä± ÄŁÄ±z
ĠgÃ¶rÃ¼ÅŁtÃ¼ ÄŁÃ¼nÃ¼
ĠgÃ¶rÃ¼ÅŁtÃ¼ ÄŁÃ¼nÃ¼z
ĠyÄ±ldÄ±z Ä±
ĠyÄ±ldÄ±z lararasÄ±
ĠbaÅŁar Ä±sÄ±yla
ĠbaÅŁar dÄ±k
ĠbaÅŁar Ä±lamam
ĠzanlÄ± dan
ĠzanlÄ± larÄ±n
ĠRe is
ĠRe asÃ¼r
ĠyaÅŁadÄ± ÄŁÄ±nÄ±
ĠyaÅŁadÄ± klarÄ±nÄ±
Ġanlam ak
Ġanlam Ä±nda
Ġanlam Ä±na
ĠkiÅŁiler den
ĠNur daÄŁÄ±
ĠNur ettin
Ġdiy ecek
Ġdiy eyim
ĠÅŀah ika
Ġkurt larla
Ġkurt uldu
Ġkurt ulmasÄ±
rag imova
ĠVer ona
ĠVer mon
Ġtoplum da
Ġtoplum lar
ĠyÃ¶net ilen
ĠyÃ¶net ecek
ĠyÃ¶net eceÄŁim
ĠyÃ¶net enler
Ġdeplas e
Ġdeplas manÄ±nda
Ġdeplas manlarÄ±nda
Ġyakalan ma
Ġyakalan dÄ±ÄŁÄ±
Ġyakalan arak
Ġgider mek
Ġgider ilmesine
Ġgider eceÄŁiz
Ġgider emiyor
Ġcev iz
Ġcev abÄ±nÄ±
Ġyolcu larÄ±
Ġyolcu larÄ±n
Ġyolcu ÄŁuna
ĠÃ¶ÄŁrenc isinin
ĠÃ¶ÄŁrenc iyken
Ġaktar dÄ±ÄŁÄ±
Ġaktar masÄ±
Ġaktar mak
Ġaktar Ä±ldÄ±ÄŁÄ±
Ġaktar Ä±rken
ĠKurul uÅŁ
ĠKurul unda
ĠÃ§eken ler
Ġyazar lÄ±ÄŁÄ±
ĠdoÄŁum unda
ĠdoÄŁum una
ĠdoÄŁum undan
Ġgazetec ilik
Ġgazetec ilere
lanÄ±yor uz
Ġizin ler
ĠBilim sel
Ġhesap larÄ±
Ġhesap larÄ±nÄ±n
Ġhesap larÄ±nda
Ġhesap larÄ±yla
Ġetkinlik lere
Ġihrac Ä±na
Ġihrac atÄ±
Ġintihar lar
Ġintihar Ä±na
Ġintihar Ä±nÄ±n
ĠÃ¼cret ini
ĠÃ¼cret lerinin
ĠÃ¼cret siz
br ick
bac Ä±
kÄ±r Ä±m
mat a
ode dov
pr om
tÃ¶r Ã¼
ĠbÃ¼y Ã¼yor
ĠbÃ¼y Ã¼yen
ĠbÃ¼y Ã¼ttÃ¼
ĠbÃ¼y Ã¼dÃ¼ÄŁ
Ġbaraj Ä±
Ġbaraj daki
Ġsak ini
Ġsak lanan
Ġsak Ä±nca
Ġsak lanÄ±rken
Ġsak lamak
Ġsak Ä±zÄ±
ĠsanÄ± ÄŁÄ±na
Ġsig ortaya
Ġsefer e
Ġsefer ler
Ġsefer inde
Ġsefer ini
Ġsefer leri
Ġter asÄ±
Ġter leme
Ġter tip
Ġter mik
Ġtaban a
ĠtÃ¶ren de
ĠtÃ¶ren leri
amet li
amet ine
Ġhiss esini
Ġhiss ediyor
Ġhiss etmelerini
Ä°n san
Ä°n ÅŁallah
Ä°n ternetten
ĠTak sim
ĠTak Ä±mÄ±mÄ±z
ĠTak Ä±lanlanlar
ĠÃ§at laklar
ĠSoy er
ĠSoy dan
ĠSoy kan
ĠSekret eri
Ġiler leme
Ġiler lemek
Ġiler leyecek
Ġiler leyeceÄŁini
Ġiler lediÄŁinin
Ġadet lik
Ġadet ten
ĠDÃ¼n yaya
ĠDÃ¼n yasÄ±
ĠEmek lilik
ĠÃ¶de dik
ĠÃ¶de mede
ĠHaf ta
ĠHaf if
ĠHaf tasonu
Ġ29 6
ĠÅŁah sÄ±
ĠOy undan
ĠOy unlarÄ±
ĠyaÅŁÄ±nda yken
ĠyaÅŁÄ±nda ydÄ±
Ġrahat Ã§a
Ġ42 2
Ġ42 4
Ġ42 9
Ġkalma dan
Ġsorum luk
Ġsorum luluÄŁu
[...]
