{
  "version": "1.0",
  "truncation": null,
  "padding": null,
  "added_tokens": [
    {
      "id": 0,
      "content": "<|endoftext|>",
      "single_word": false,
      "lstrip": false,
      "rstrip": false,
      "normalized": true,
      "special": true
    }
  ],
  "normalizer": null,
  "pre_tokenizer": {
    "type": "ByteLevel",
    "add_prefix_space": false,
    "trim_offsets": true,
    "use_regex": true
  },
  "post_processor": {
    "type": "ByteLevel",
    "add_prefix_space": true,
    "trim_offsets": false,
    "use_regex": true
  },
  "decoder": {
    "type": "ByteLevel",
    "add_prefix_space": true,
    "trim_offsets": true,
    "use_regex": true
  },
  "model": {
    "type": "BPE",
    "dropout": null,
    "unk_token": null,
    "continuing_subword_prefix": "",
    "end_of_word_suffix": "",
    "fuse_unk": false,
    "byte_fallback": false,
    "vocab": {
      "<|endoftext|>": 0,
      "!": 1,
      "\"": 2,
      "#": 3,
      "$": 4,
      "%": 5,
      "&": 6,
      "'": 7,
      "(": 8,
      ")": 9,
      "*": 10,
      "+": 11,
      ",": 12,
      "-": 13,
      ".": 14,
      "/": 15,
      "0": 16,
      "1": 17,
      "2": 18,
      "3": 19,
      "4": 20,
      "5": 21,
      "6": 22,
      "7": 23,
      "8": 24,
      "9": 25,
      ":": 26,
      ";": 27,
      "<": 28,
      "=": 29,
      ">": 30,
      "?": 31,
      "@": 32,
      "A": 33,
      "B": 34,
      "C": 35,
      "D": 36,
      "E": 37,
      "F": 38,
      "G": 39,
      "H": 40,
      "I": 41,
      "J": 42,
      "K": 43,
      "L": 44,
      "M": 45,
      "N": 46,
      "O": 47,
      "P": 48,
      "Q": 49,
      "R": 50,
      "S": 51,
      "T": 52,
      "U": 53,
      "V": 54,
      "W": 55,
      "X": 56,
      "Y": 57,
      "Z": 58,
      "[": 59,
      "\\": 60,
      "]": 61,
      "^": 62,
      "_": 63,
      "`": 64,
      "a": 65,
      "b": 66,
      "c": 67,
      "d": 68,
      "e": 69,
      "f": 70,
      "g": 71,
      "h": 72,
      "i": 73,
      "j": 74,
      "k": 75,
      "l": 76,
      "m": 77,
      "n": 78,
      "o": 79,
      "p": 80,
      "q": 81,
      "r": 82,
      "s": 83,
      "t": 84,
      "u": 85,
      "v": 86,
      "w": 87,
      "x": 88,
      "y": 89,
      "z": 90,
      "{": 91,
      "|": 92,
      "}": 93,
      "~": 94,
      "¡": 95,
      "¢": 96,
      "£": 97,
      "¤": 98,
      "¥": 99,
      "¦": 100,
      "§": 101,
      "¨": 102,
      "©": 103,
      "ª": 104,
      "«": 105,
      "¬": 106,
      "®": 107,
      "¯": 108,
      "°": 109,
      "±": 110,
      "²": 111,
      "³": 112,
      "´": 113,
      "µ": 114,
      "¶": 115,
      "·": 116,
      "¸": 117,
      "¹": 118,
      "º": 119,
      "»": 120,
      "¼": 121,
      "½": 122,
      "¾": 123,
      "¿": 124,
      "À": 125,
      "Á": 126,
      "Â": 127,
      "Ã": 128,
      "Ä": 129,
      "Å": 130,
      "Æ": 131,
      "Ç": 132,
      "È": 133,
      "É": 134,
      "Ê": 135,
      "Ë": 136,
      "Ì": 137,
      "Í": 138,
      "Î": 139,
      "Ï": 140,
      "Ð": 141,
      "Ñ": 142,
      "Ò": 143,
      "Ó": 144,
      "Ô": 145,
      "Õ": 146,
      "Ö": 147,
      "×": 148,
      "Ø": 149,
      "Ù": 150,
      "Ú": 151,
      "Û": 152,
      "Ü": 153,
      "Ý": 154,
      "Þ": 155,
      "ß": 156,
      "à": 157,
      "á": 158,
      "â": 159,
      "ã": 160,
      "ä": 161,
      "å": 162,
      "æ": 163,
      "ç": 164,
      "è": 165,
      "é": 166,
      "ê": 167,
      "ë": 168,
      "ì": 169,
      "í": 170,
      "î": 171,
      "ï": 172,
      "ð": 173,
      "ñ": 174,
      "ò": 175,
      "ó": 176,
      "ô": 177,
      "õ": 178,
      "ö": 179,
      "÷": 180,
      "ø": 181,
      "ù": 182,
      "ú": 183,
      "û": 184,
      "ü": 185,
      "ý": 186,
      "þ": 187,
      "ÿ": 188,
      "Ā": 189,
      "ā": 190,
      "Ă": 191,
      "ă": 192,
      "Ą": 193,
      "ą": 194,
      "Ć": 195,
      "ć": 196,
      "Ĉ": 197,
      "ĉ": 198,
      "Ċ": 199,
      "ċ": 200,
      "Č": 201,
      "č": 202,
      "Ď": 203,
      "ď": 204,
      "Đ": 205,
      "đ": 206,
      "Ē": 207,
      "ē": 208,
      "Ĕ": 209,
      "ĕ": 210,
      "Ė": 211,
      "ė": 212,
      "Ę": 213,
      "ę": 214,
      "Ě": 215,
      "ě": 216,
      "Ĝ": 217,
      "ĝ": 218,
      "Ğ": 219,
      "ğ": 220,
      "Ġ": 221,
      "ġ": 222,
      "Ģ": 223,
      "ģ": 224,
      "Ĥ": 225,
      "ĥ": 226,
      "Ħ": 227,
      "ħ": 228,
      "Ĩ": 229,
      "ĩ": 230,
      "Ī": 231,
      "ī": 232,
      "Ĭ": 233,
      "ĭ": 234,
      "Į": 235,
      "į": 236,
      "İ": 237,
      "ı": 238,
      "Ĳ": 239,
      "ĳ": 240,
      "Ĵ": 241,
      "ĵ": 242,
      "Ķ": 243,
      "ķ": 244,
      "ĸ": 245,
      "Ĺ": 246,
      "ĺ": 247,
      "Ļ": 248,
      "ļ": 249,
      "Ľ": 250,
      "ľ": 251,
      "Ŀ": 252,
      "ŀ": 253,
      "Ł": 254,
      "ł": 255,
      "Ń": 256,
      "Ä±": 257,
      "an": 258,
      "Ã¼": 259,
      "ar": 260,
      "er": 261,
      "in": 262,
      "ÅŁ": 263,
      "Ä±n": 264,
      "en": 265,
      "il": 266,
      "ÄŁ": 267,
      "Ã§": 268,
      "Ġb": 269,
      "al": 270,
      "Ġy": 271,
      "Ġk": 272,
      "de": 273,
      "ak": 274,
      "Ġs": 275,
      "Ã¶": 276,
      "ir": 277,
      "Ġg": 278,
      "da": 279,
      "el": 280,
      "et": 281,
      "ay": 282,
      "as": 283,
      "lar": 284,
      "di": 285,
      "ek": 286,
      "aÅŁ": 287,
      "on": 288,
      "Ġt": 289,
      "Ġo": 290,
      "dÄ±": 291,
      "es": 292,
      "iy": 293,
      "un": 294,
      "Ġi": 295,
      "Ġv": 296,
      "at": 297,
      "ĠB": 298,
      "am": 299,
      "Ġh": 300,
      "ur": 301,
      "Ä±l": 302,
      "ler": 303,
      "li": 304,
      "ĠA": 305,
      "Ġd": 306,
      "or": 307,
      "Ġm": 308,
      "Ã¼r": 309,
      "ul": 310,
      "em": 311,
      "Ä±k": 312,
      "Ã¼n": 313,
      "Ġve": 314,
      "Ä°": 315,
      "st": 316,
      "ĠK": 317,
      "ĠT": 318,
      "ĠÃ§": 319,
      "ĠS": 320,
      "ik": 321,
      "ap": 322,
      "ĠM": 323,
      "le": 324,
      "Ġil": 325,
      "Ġde": 326,
      "Ġbir": 327,
      "im": 328,
      "Ġol": 329,
      "'d": 330,
      "Ġa": 331,
      "ey": 332,
      "Ä±nda": 333,
      "la": 334,
      "ÄŁÄ±": 335,
      "Ã¶r": 336,
      "iÅŁ": 337,
      "tÄ±": 338,
      "ĠÄ°": 339,
      "anÄ±": 340,
      "ti": 341,
      "az": 342,
      "dan": 343,
      "den": 344,
      "ĠD": 345,
      "inde": 346,
      "ĠE": 347,
      "is": 348,
      "iz": 349,
      "Ã¼z": 350,
      "Ġp": 351,
      "ab": 352,
      "um": 353,
      "ĠÃ¶": 354,
      "du": 355,
      "Ġe": 356,
      "ĠG": 357,
      "Ä±nÄ±": 358,
      "ol": 359,
      "lÄ±": 360,
      "ĠH": 361,
      "aÅŁk": 362,
      "ah": 363,
      "iye": 364,
      "asÄ±": 365,
      "ĠÃ": 366,
      "Ġyap": 367,
      "ĠP": 368,
      "Ġar": 369,
      "Ġal": 370,
      "ine": 371,
      "esi": 372,
      "ma": 373,
      "ce": 374,
      "it": 375,
      "ya": 376,
      "Ä±na": 377,
      "Ġ2": 378,
      "oÄŁ": 379,
      "Ä±r": 380,
      "Ã¼l": 381,
      "ini": 382,
      "Ġ1": 383,
      "lan": 384,
      "larÄ±": 385,
      "Ä±ÅŁ": 386,
      "Ã¼rk": 387,
      "ac": 388,
      "ĠY": 389,
      "Ġf": 390,
      "lu": 391,
      "Ã¼k": 392,
      "inin": 393,
      "ĠiÃ§": 394,
      "ĠF": 395,
      "af": 396,
      "av": 397,
      "Ġson": 398,
      "ĠaÃ§": 399,
      "ok": 400,
      "ĠC": 401,
      "ĠÅŁ": 402,
      "ki": 403,
      "Ġda": 404,
      "alar": 405,
      "leri": 406,
      "Ä±ndan": 407,
      "ÄŁi": 408,
      "iler": 409,
      "ĠgÃ¶r": 410,
      "Ġn": 411,
      "yon": 412,
      "nin": 413,
      "aÄŁ": 414,
      "eÃ§": 415,
      "Ġet": 416,
      "stan": 417,
      "len": 418,
      "Ã¼rkiye": 419,
      "Ä±s": 420,
      "ev": 421,
      "Ġile": 422,
      "us": 423,
      "yor": 424,
      "ÅŁt": 425,
      "Ã¶n": 426,
      "lÃ¼": 427,
      "aÅŁkanÄ±": 428,
      "ad": 429,
      "ildi": 430,
      "Ġkar": 431,
      "ĠiÃ§in": 432,
      "lam": 433,
      "Ä±nÄ±n": 434,
      "uz": 435,
      "ut": 436,
      "Ġbul": 437,
      "aki": 438,
      "Ġoldu": 439,
      "om": 440,
      "Ġ-": 441,
      "ec": 442,
      "ĠyÄ±l": 443,
      "ĠbaÅŁ": 444,
      "Ä±m": 445,
      "Ġgel": 446,
      "ĠaÃ§Ä±k": 447,
      "ez": 448,
      "eler": 449,
      "lik": 450,
      "uk": 451,
      "Ä±lan": 452,
      "aya": 453,
      "Ġed": 454,
      "uy": 455,
      "ĠÃ¶n": 456,
      "dÄ±r": 457,
      "ĠgÃ¶": 458,
      "ili": 459,
      "Ġver": 460,
      "Ġ'": 461,
      "Ġyar": 462,
      "aÃ§": 463,
      "Ġtar": 464,
      "ĠO": 465,
      "dir": 466,
      "Ġbu": 467,
      "ta": 468,
      "aber": 469,
      "ro": 470,
      "Ã¼y": 471,
      "dÄ±ÄŁÄ±": 472,
      "ru": 473,
      "Ġ3": 474,
      "Ġbulun": 475,
      "edi": 476,
      "Ġay": 477,
      "ĠgÃ¼n": 478,
      "iyle": 479,
      "lÄ±k": 480,
      "Ġ5": 481,
      "Ä±z": 482,
      "ĠÃ§Ä±k": 483,
      "Ġz": 484,
      "ĠR": 485,
      "let": 486,
      "bul": 487,
      "ĠyaÅŁ": 488,
      "eki": 489,
      "ĠÃĸ": 490,
      "stanbul": 491,
      "ÄŁu": 492,
      "Ã¼m": 493,
      "Ġbel": 494,
      "esinde": 495,
      "Ġan": 496,
      "Ġr": 497,
      "op": 498,
      "ĠTÃ¼rkiye": 499,
      "Åŀ": 500,
      "Ġ(": 501,
      "Ġger": 502,
      "man": 503,
      "nÄ±n": 504,
      "ika": 505,
      "ilen": 506,
      "ĠkiÅŁ": 507,
      "ĠgeÃ§": 508,
      "laÅŁ": 509,
      "os": 510,
      "cu": 511,
      "anlÄ±": 512,
      "eni": 513,
      "ĠÃĩ": 514,
      "Ġen": 515,
      "Ã¼ÅŁ": 516,
      "Ġbin": 517,
      "ci": 518,
      "yla": 519,
      "ara": 520,
      "Ġkon": 521,
      "ĠBaÅŁkanÄ±": 522,
      "eli": 523,
      "alÄ±ÅŁ": 524,
      "asÄ±nda": 525,
      "iyor": 526,
      "dÃ¼r": 527,
      "daki": 528,
      "Ã¼t": 529,
      "ĠBak": 530,
      "ade": 531,
      "ilm": 532,
      "akika": 533,
      "eh": 534,
      "uÅŁ": 535,
      "kin": 536,
      "masÄ±": 537,
      "ĠL": 538,
      "te": 539,
      "ĠdÃ¼z": 540,
      "Ġ20": 541,
      "mak": 542,
      "ĠsÃ¼r": 543,
      "eye": 544,
      "BD": 545,
      "ĠiÅŁ": 546,
      "Ä±ldÄ±": 547,
      "ye": 548,
      "enel": 549,
      "uÃ§": 550,
      "Ġne": 551,
      "hur": 552,
      "ĠÃ§alÄ±ÅŁ": 553,
      "ĠdÃ¼zen": 554,
      "ĠEr": 555,
      "Ġc": 556,
      "acak": 557,
      "asyon": 558,
      "Ġyer": 559,
      "umhur": 560,
      "lis": 561,
      "Son": 562,
      "ĠN": 563,
      "Ã¼s": 564,
      "eÅŁ": 565,
      "me": 566,
      "ans": 567,
      "Ġmil": 568,
      "Ġkad": 569,
      "Ġist": 570,
      "ter": 571,
      "Ġolan": 572,
      "tan": 573,
      "ĠyÃ¼z": 574,
      "rem": 575,
      "inden": 576,
      "larak": 577,
      "'t": 578,
      "ken": 579,
      "Ġkay": 580,
      "ĠPar": 581,
      "ist": 582,
      "Ġin": 583,
      "Ġdi": 584,
      "Ġbelir": 585,
      "Ġ4": 586,
      "ÄŁr": 587,
      "Ġor": 588,
      "ĠÄ°stanbul": 589,
      "Ġkal": 590,
      "unu": 591,
      "ĠaÃ§Ä±klam": 592,
      "ĠsÃ¶": 593,
      "isi": 594,
      "oÄŁlu": 595,
      "Ä±sÄ±": 596,
      "der": 597,
      "ece": 598,
      "Ġbil": 599,
      "ĠilÃ§": 600,
      "ĠAn": 601,
      "Ġel": 602,
      "lem": 603,
      "per": 604,
      "ĠdeÄŁ": 605,
      "ĠÅŀ": 606,
      "Ġhak": 607,
      "Ġkur": 608,
      "ÄŁini": 609,
      "cÄ±": 610,
      "ĠÃ¼z": 611,
      "Ä±ndaki": 612,
      "ra": 613,
      "ĠV": 614,
      "erÃ¶r": 615,
      "ĠkarÅŁ": 616,
      "Ġolarak": 617,
      "Ġ6": 618,
      "Ġuy": 619,
      "unda": 620,
      "ladÄ±": 621,
      "rup": 622,
      "Ġsor": 623,
      "Ġdedi": 624,
      "Ã¼yÃ¼k": 625,
      "ada": 626,
      "ĠGenel": 627,
      "ark": 628,
      "elik": 629,
      "tÄ±ÄŁÄ±": 630,
      "Ġdev": 631,
      "Ġbulundu": 632,
      "ĠÃ¼zer": 633,
      "ĠbÃ¶": 634,
      "alan": 635,
      "tÄ±r": 636,
      "ih": 637,
      "ĠCumhur": 638,
      "Ġtaraf": 639,
      "ale": 640,
      "Ġtop": 641,
      "aÄŁÄ±": 642,
      "ĠyÃ¶n": 643,
      "endi": 644,
      "dÃ¼": 645,
      "Ġdur": 646,
      "landÄ±": 647,
      "ĠyÃ¼zde": 648,
      "ne": 649,
      "eri": 650,
      "Ġkul": 651,
      "Ġkap": 652,
      "iyet": 653,
      "lenen": 654,
      "doÄŁ": 655,
      "arÄ±": 656,
      "ĠterÃ¶r": 657,
      "uÅŁt": 658,
      "Ġyeni": 659,
      "Ġoy": 660,
      "Ġdep": 661,
      "ekt": 662,
      "lÃ¼ÄŁ": 663,
      "ip": 664,
      "Ġis": 665,
      "ĠEk": 666,
      "rak": 667,
      "lg": 668,
      "ĠU": 669,
      "erk": 670,
      "doÄŁan": 671,
      "ĠilÃ§esinde": 672,
      "anÄ±n": 673,
      "ers": 674,
      "Ġyak": 675,
      "ĠAk": 676,
      "eb": 677,
      "ot": 678,
      "arak": 679,
      "ĠDakika": 680,
      "ĠHaber": 681,
      "ĠParti": 682,
      "ĠtarafÄ±ndan": 683,
      "TÃ¼rkiye": 684,
      "malar": 685,
      "Ä±lÄ±": 686,
      "ed": 687,
      "lat": 688,
      "Ġgi": 689,
      "Ġetti": 690,
      "HP": 691,
      "ayan": 692,
      "ddi": 693,
      "yle": 694,
      "eti": 695,
      "dÄ±m": 696,
      "ĠmÃ¼": 697,
      "Ã¼nde": 698,
      "ca": 699,
      "larÄ±n": 700,
      "Ġhaf": 701,
      "ĠÃ¶ÄŁr": 702,
      "sa": 703,
      "Ġilg": 704,
      "ĠErdoÄŁan": 705,
      "alÄ±": 706,
      "ĠiliÅŁ": 707,
      "Ġ201": 708,
      "oy": 709,
      "Ġkat": 710,
      "ĠgÃ¶re": 711,
      "anlÄ±ÄŁÄ±": 712,
      "dar": 713,
      "Ġ7": 714,
      "Ġhaber": 715,
      "ĠAv": 716,
      "Ġev": 717,
      "ĠBaÅŁk": 718,
      "mas": 719,
      "ram": 720,
      "imiz": 721,
      "ven": 722,
      "ĠÃľ": 723,
      "ĠyapÄ±lan": 724,
      "ecek": 725,
      "bi": 726,
      "gi": 727,
      "Ġyan": 728,
      "Ġhay": 729,
      "Ġetk": 730,
      "ĠkiÅŁi": 731,
      "ĠBakanÄ±": 732,
      "ĠgÃ¼": 733,
      "Ġpro": 734,
      "ĠgÃ¶st": 735,
      "Ġdeprem": 736,
      "Ġtut": 737,
      "Ġhas": 738,
      "ĠÃ§ok": 739,
      "baÅŁkanÄ±": 740,
      "nde": 741,
      "ĠAK": 742,
      "Ġpo": 743,
      "ĠalÄ±n": 744,
      "ĠABD": 745,
      "Ġdah": 746,
      "Ġhakk": 747,
      "ÄŁÄ±nÄ±": 748,
      "Ġgir": 749,
      "larÄ±nÄ±": 750,
      "Ġat": 751,
      "Ġiddi": 752,
      "ĠAl": 753,
      "Ġneden": 754,
      "ĠgÃ¶ster": 755,
      "ede": 756,
      "Ġsal": 757,
      "ayÄ±": 758,
      "rupa": 759,
      "ĠI": 760,
      "Ġes": 761,
      "Ġce": 762,
      "amp": 763,
      "ĠMil": 764,
      "perasyon": 765,
      "Ġilgili": 766,
      "Ä±yor": 767,
      "Ġsah": 768,
      "una": 769,
      "gÃ¼t": 770,
      "mek": 771,
      "si": 772,
      "alt": 773,
      "Ġgelen": 774,
      "Ġilk": 775,
      "uÅŁtur": 776,
      "ĠiliÅŁkin": 777,
      "Ġeki": 778,
      "Ã§ek": 779,
      "Ġot": 780,
      "ĠgÃ¶z": 781,
      "Ġkayb": 782,
      "ĠbÃ¶lg": 783,
      "Ġ9": 784,
      "etir": 785,
      "ĠdÃ¶n": 786,
      "ĠMÃ¼": 787,
      "Ġyol": 788,
      "ĠolduÄŁ": 789,
      "Ġmilyon": 790,
      "ĠÃ¶ÄŁren": 791,
      "kara": 792,
      "etim": 793,
      "atÄ±": 794,
      "azet": 795,
      "Ġ10": 796,
      "ĠÃĸz": 797,
      "ĠHaberler": 798,
      "ucu": 799,
      "ĠbaÅŁk": 800,
      "ask": 801,
      "Ġoperasyon": 802,
      "lerin": 803,
      "ĠAr": 804,
      "Ġalan": 805,
      "ĠolduÄŁu": 806,
      "ĠdÃ¼zenlenen": 807,
      "re": 808,
      "yal": 809,
      "Ġtes": 810,
      "ĠdÃ¼n": 811,
      "ĠdÃ¼ÅŁ": 812,
      "ten": 813,
      "ĠbÃ¼yÃ¼k": 814,
      "ĠBel": 815,
      "ĠJ": 816,
      "Ã¼p": 817,
      "ĠÃ¶l": 818,
      "Ġgerek": 819,
      "dÄ±ndan": 820,
      "Ġak": 821,
      "ĠKur": 822,
      "ĠLi": 823,
      "Ġgetir": 824,
      "unun": 825,
      "Ġif": 826,
      "ulu": 827,
      "ĠsaldÄ±r": 828,
      "sel": 829,
      "Ã§Ä±": 830,
      "Ġyay": 831,
      "liÄŁi": 832,
      "Ġsonra": 833,
      "men": 834,
      "ĠÃ¶r": 835,
      "ĠÃ§ek": 836,
      "Ġedildi": 837,
      "if": 838,
      "diÄŁi": 839,
      "lanan": 840,
      "Ġdaha": 841,
      "met": 842,
      "ama": 843,
      "ĠmaÃ§": 844,
      "leÅŁ": 845,
      "ĠÄ°n": 846,
      "Ġzam": 847,
      "maya": 848,
      "uh": 849,
      "ĠardÄ±ndan": 850,
      "tir": 851,
      "ĠZ": 852,
      "lara": 853,
      "Ġtek": 854,
      "azÄ±r": 855,
      "avun": 856,
      "ÅŁtir": 857,
      "ehir": 858,
      "ĠEkim": 859,
      "erkez": 860,
      "iv": 861,
      "art": 862,
      "Ġser": 863,
      "ĠseÃ§": 864,
      "ĠSur": 865,
      "ĠkarÅŁÄ±": 866,
      "ĠAvrupa": 867,
      "ABD": 868,
      "ef": 869,
      "na": 870,
      "Ġl": 871,
      "ĠÃ¼l": 872,
      "Ã§e": 873,
      "larÄ±nÄ±n": 874,
      "esine": 875,
      "Ġhav": 876,
      "ĠarasÄ±nda": 877,
      "Ġhayat": 878,
      "aat": 879,
      "ic": 880,
      "ĠsuÃ§": 881,
      "dana": 882,
      "Ġort": 883,
      "ĠCumhurbaÅŁkanÄ±": 884,
      "Ġpolis": 885,
      "anda": 886,
      "erek": 887,
      "Ġyaz": 888,
      "Ġtak": 889,
      "iyas": 890,
      "Ġiki": 891,
      "Ã¼lt": 892,
      "Ġdevam": 893,
      "lÃ¼l": 894,
      "iyat": 895,
      "lerini": 896,
      "Ġeden": 897,
      "ahk": 898,
      "Ġgeldi": 899,
      "Ġifade": 900,
      "maz": 901,
      "aret": 902,
      "ent": 903,
      "ĠkaÃ§": 904,
      "larda": 905,
      "Ġdakika": 906,
      "ileri": 907,
      "Ġcez": 908,
      "han": 909,
      "ob": 910,
      "ĠBir": 911,
      "nda": 912,
      "ri": 913,
      "Ġey": 914,
      "anan": 915,
      "ĠhazÄ±r": 916,
      "ĠdoÄŁ": 917,
      "ÅŁte": 918,
      "ĠgerÃ§ek": 919,
      "osyal": 920,
      "Ġcin": 921,
      "alandÄ±": 922,
      "Ġih": 923,
      "ĠyaptÄ±ÄŁÄ±": 924,
      "Ġkadar": 925,
      "lÃ¼ÄŁÃ¼": 926,
      "ĠolduÄŁunu": 927,
      "vek": 928,
      "ali": 929,
      "Ġaz": 930,
      "Ġalt": 931,
      "ĠsÃ¶yle": 932,
      "Ġ8": 933,
      "Ġuz": 934,
      "Ġkaz": 935,
      "Ġkendi": 936,
      "ĠsaÄŁ": 937,
      "ĠÃ¶z": 938,
      "gul": 939,
      "Ġek": 940,
      "Ġkam": 941,
      "ĠYar": 942,
      "Ġdav": 943,
      "Ġbelirt": 944,
      "Ġdurum": 945,
      "Ġ2019": 946,
      "ĠÃ¶rgÃ¼t": 947,
      "ĠSuriye": 948,
      "ĠÃ¼lk": 949,
      "gÃ¼n": 950,
      "lere": 951,
      "Ä°stanbul": 952,
      "Ġbulunan": 953,
      "gil": 954,
      "nun": 955,
      "por": 956,
      "Ġyas": 957,
      "ĠBaÅŁ": 958,
      "Ġdo": 959,
      "eyen": 960,
      "Ġpar": 961,
      "ĠCHP": 962,
      "usu": 963,
      "ĠÃ§Ä±ktÄ±": 964,
      "Ġele": 965,
      "ĠhakkÄ±nda": 966,
      "ĠÃ¶ldÃ¼r": 967,
      "oc": 968,
      "ĠW": 969,
      "Ġli": 970,
      "ĠÃ¼r": 971,
      "asÄ±na": 972,
      "ĠKon": 973,
      "ĠAnkara": 974,
      "ĠÃľn": 975,
      "raf": 976,
      "Ġsay": 977,
      "ley": 978,
      "indeki": 979,
      "olo": 980,
      "Ġhafta": 981,
      "Ġkaybet": 982,
      "avunma": 983,
      "lay": 984,
      "mesi": 985,
      "Ġduy": 986,
      "ĠkadÄ±n": 987,
      "ĠsÃ¶z": 988,
      "dÄ±mc": 989,
      "Ġekip": 990,
      "ira": 991,
      "larÄ±nda": 992,
      "esinin": 993,
      "Ã¼nÃ¼": 994,
      "ĠÄ°ÅŁte": 995,
      "Ġedilen": 996,
      "ĠyÃ¶nelik": 997,
      "ĠBeledi": 998,
      "Ã¼ph": 999,
      "gram": 1000,
      "istan": 1001,
      "sÄ±": 1002,
      "tik": 1003,
      "ank": 1004,
      "dem": 1005,
      "Ã¶z": 1006,
      "Ġmed": 1007,
      "ĠÄ°l": 1008,
      "ĠgÃ¶rÃ¼ÅŁ": 1009,
      "ĠterÃ¶rist": 1010,
      "ER": 1011,
      "FA": 1012,
      "cak": 1013,
      "Ġask": 1014,
      "ĠyÃ¼k": 1015,
      "ayet": 1016,
      "ĠBu": 1017,
      "iÅŁleri": 1018,
      "Ġtarih": 1019,
      "letvek": 1020,
      "20": 1021,
      "tal": 1022,
      "aÅŁÄ±": 1023,
      "liÄŁ": 1024,
      "tÄ±ÅŁ": 1025,
      "tiv": 1026,
      "Ġverdi": 1027,
      "Ġetkis": 1028,
      "ĠMÃ¼dÃ¼r": 1029,
      "ran": 1030,
      "Ãĸ": 1031,
      "Ġkr": 1032,
      "lerinin": 1033,
      "ĠAy": 1034,
      "Ġad": 1035,
      "ĠdeÄŁiÅŁ": 1036,
      "Ġgibi": 1037,
      "ĠBaÅŁkan": 1038,
      "Ġeski": 1039,
      "ahkem": 1040,
      "sam": 1041,
      "dÄ±ÅŁ": 1042,
      "Ġik": 1043,
      "Ġmes": 1044,
      "ĠTÃ¼rk": 1045,
      "abil": 1046,
      "ĠFlaÅŁ": 1047,
      "ĠÅŁÃ¼ph": 1048,
      "evlet": 1049,
      "Ġkarar": 1050,
      "eleri": 1051,
      "00": 1052,
      "bir": 1053,
      "arp": 1054,
      "Ġbo": 1055,
      "ĠkÃ¶": 1056,
      "larÄ±na": 1057,
      "Ġok": 1058,
      "Ġhal": 1059,
      "lerinde": 1060,
      "emal": 1061,
      "Ã¼nya": 1062,
      "ĠgÃ¶rev": 1063,
      "ĠÃ¶nce": 1064,
      "ĠOr": 1065,
      "Ġise": 1066,
      "dÄ±mcÄ±sÄ±": 1067,
      "bu": 1068,
      "bak": 1069,
      "kan": 1070,
      "ov": 1071,
      "tar": 1072,
      "Ġdest": 1073,
      "Ã¼len": 1074,
      "lÃ¼m": 1075,
      "ĠgÃ¼ven": 1076,
      "ĠalÄ±ndÄ±": 1077,
      "ĠLigi": 1078,
      "ĠhayatÄ±nÄ±": 1079,
      "bar": 1080,
      "iÃ§": 1081,
      "ji": 1082,
      "ĠÃ¼": 1083,
      "ile": 1084,
      "Ġbek": 1085,
      "Ġgazet": 1086,
      "onom": 1087,
      "ĠSavunma": 1088,
      "ÄŁÄ±r": 1089,
      "Ã¼kÃ¼m": 1090,
      "Ä±mÄ±": 1091,
      "Ġnedeniyle": 1092,
      "altÄ±na": 1093,
      "ĠdÄ±ÅŁ": 1094,
      "Ġsat": 1095,
      "luk": 1096,
      "lendir": 1097,
      "ĠbugÃ¼n": 1098,
      "ĠBakanlÄ±ÄŁÄ±": 1099,
      "Ġtutuk": 1100,
      "ĠgÃ¶zaltÄ±na": 1101,
      "ocuk": 1102,
      "meye": 1103,
      "san": 1104,
      "arek": 1105,
      "Ġsev": 1106,
      "ĠKor": 1107,
      "ĠKom": 1108,
      "Ġolay": 1109,
      "ĠDevlet": 1110,
      "ĠbulunduÄŁu": 1111,
      "cel": 1112,
      "miÅŁ": 1113,
      "mÄ±z": 1114,
      "tr": 1115,
      "Ġer": 1116,
      "irk": 1117,
      "Ġhale": 1118,
      "Ä±ldÄ±ÄŁÄ±": 1119,
      "lerde": 1120,
      "lerine": 1121,
      "ĠEy": 1122,
      "Ġsonucu": 1123,
      "Ġbildir": 1124,
      "Ġkapsam": 1125,
      "mir": 1126,
      "mam": 1127,
      "Ġkim": 1128,
      "Ġtah": 1129,
      "iyon": 1130,
      "ĠBÃ¼yÃ¼k": 1131,
      "Ġher": 1132,
      "Ġder": 1133,
      "madÄ±": 1134,
      "acaÄŁÄ±": 1135,
      "Ã¼sÃ¼": 1136,
      "Ġkullan": 1137,
      "ektÃ¶r": 1138,
      "ĠIrak": 1139,
      "letvekili": 1140,
      "AB": 1141,
      "An": 1142,
      "gen": 1143,
      "ĠÃ¼y": 1144,
      "ĠsÄ±nÄ±": 1145,
      "ayy": 1146,
      "Ġhap": 1147,
      "ĠeÅŁ": 1148,
      "ĠÃ¶nem": 1149,
      "ĠkiÅŁinin": 1150,
      "ĠsaldÄ±rÄ±": 1151,
      "bol": 1152,
      "ep": 1153,
      "ilah": 1154,
      "asÄ±l": 1155,
      "aÅŁtÄ±r": 1156,
      "Ġmey": 1157,
      "Ġbirlik": 1158,
      "ĠyaptÄ±": 1159,
      "alarÄ±": 1160,
      "uzey": 1161,
      "ĠÃ§alÄ±ÅŁmalar": 1162,
      "ĠsÃ¶yledi": 1163,
      "Ġmedya": 1164,
      "ET": 1165,
      "adÄ±": 1166,
      "tay": 1167,
      "Ãľ": 1168,
      "ÅŁehir": 1169,
      "ÄŁimiz": 1170,
      "Ġyok": 1171,
      "Ġvar": 1172,
      "eci": 1173,
      "Ġayr": 1174,
      "dÃ¼ÄŁ": 1175,
      "ersit": 1176,
      "iversit": 1177,
      "ĠYardÄ±mcÄ±sÄ±": 1178,
      "DP": 1179,
      "KK": 1180,
      "mÄ±ÅŁ": 1181,
      "taÅŁ": 1182,
      "ver": 1183,
      "ilik": 1184,
      "ĠsÄ±r": 1185,
      "Ġsaat": 1186,
      "Ġtem": 1187,
      "Ġdol": 1188,
      "ĠTayy": 1189,
      "ĠPro": 1190,
      "usya": 1191,
      "ĠgeÃ§en": 1192,
      "Ġoyun": 1193,
      "ĠÄ°ngil": 1194,
      "Ġdolar": 1195,
      "Ġkaybetti": 1196,
      "may": 1197,
      "siz": 1198,
      "uv": 1199,
      "alÄ±k": 1200,
      "est": 1201,
      "Ġden": 1202,
      "ĠÃ§arp": 1203,
      "leÅŁtir": 1204,
      "Ġfiyat": 1205,
      "ĠgeÃ§ir": 1206,
      "ĠÃĩelik": 1207,
      "Ġiddia": 1208,
      "Ġmeydana": 1209,
      "ĠTayyip": 1210,
      "aray": 1211,
      "Ġbak": 1212,
      "Ġbaz": 1213,
      "Ã¶k": 1214,
      "undan": 1215,
      "atanda": 1216,
      "ursa": 1217,
      "Ġada": 1218,
      "Ġpay": 1219,
      "Ġyapan": 1220,
      "ĠaldÄ±": 1221,
      "ĠaÃ§Ä±kladÄ±": 1222,
      "tere": 1223,
      "ĠdeÄŁil": 1224,
      "Ä±lÄ±Ã§": 1225,
      "Ġortaya": 1226,
      "ĠEylÃ¼l": 1227,
      "atandaÅŁ": 1228,
      "iliyor": 1229,
      "alet": 1230,
      "Ġsan": 1231,
      "Ġsosyal": 1232,
      "urdu": 1233,
      "Ġmer": 1234,
      "Ġmerkez": 1235,
      "ĠTr": 1236,
      "ĠSu": 1237,
      "Ġ50": 1238,
      "ĠsoruÅŁtur": 1239,
      "ĠKurulu": 1240,
      "Ġlira": 1241,
      "cade": 1242,
      "yan": 1243,
      "Ġam": 1244,
      "ĠyÃ¼r": 1245,
      "iyi": 1246,
      "Ġhem": 1247,
      "ĠhÃ¼kÃ¼m": 1248,
      "uru": 1249,
      "ĠTek": 1250,
      "Ġarac": 1251,
      "lantÄ±": 1252,
      "ilmesi": 1253,
      "ĠAKP": 1254,
      "Ġhava": 1255,
      "be": 1256,
      "gan": 1257,
      "enin": 1258,
      "Ġsok": 1259,
      "Ä±lÄ±k": 1260,
      "Ġ15": 1261,
      "ĠbaÅŁlat": 1262,
      "ĠkapsamÄ±nda": 1263,
      "id": 1264,
      "lanÄ±": 1265,
      "ret": 1266,
      "tÄ±k": 1267,
      "ĠuÃ§": 1268,
      "end": 1269,
      "Ġkez": 1270,
      "eme": 1271,
      "eyi": 1272,
      "usunda": 1273,
      "ĠyaÅŁÄ±ndaki": 1274,
      "ĠgeÃ§ti": 1275,
      "kinci": 1276,
      "ĠyayÄ±n": 1277,
      "ĠÃ¶nemli": 1278,
      "Ġbirlikte": 1279,
      "se": 1280,
      "sal": 1281,
      "Ã¼ven": 1282,
      "ÄŁer": 1283,
      "larla": 1284,
      "ĠtÃ¼m": 1285,
      "Ġiz": 1286,
      "atÄ±r": 1287,
      "ĠBil": 1288,
      "Ġhes": 1289,
      "Ã¼ne": 1290,
      "ĠKaÅŁ": 1291,
      "ĠSer": 1292,
      "ĠEs": 1293,
      "ĠnasÄ±l": 1294,
      "ĠbaÅŁv": 1295,
      "Ġyarg": 1296,
      "ĠtartÄ±ÅŁ": 1297,
      "rubu": 1298,
      "Ġhapis": 1299,
      "AK": 1300,
      "EFA": 1301,
      "cisi": 1302,
      "cÃ¼sÃ¼": 1303,
      "Ã§i": 1304,
      "Ġkes": 1305,
      "Ġtam": 1306,
      "esini": 1307,
      "Ä±kÃ§Ä±": 1308,
      "Ã¼nÃ¼n": 1309,
      "ĠPeki": 1310,
      "Ġsonr": 1311,
      "ĠÅŁirk": 1312,
      "lendi": 1313,
      "ĠÃ§Ä±kar": 1314,
      "ĠpaylaÅŁ": 1315,
      "gÄ±n": 1316,
      "udi": 1317,
      "Ä±lmasÄ±": 1318,
      "ĠKÄ±lÄ±Ã§": 1319,
      "ĠTL": 1320,
      "ĠTem": 1321,
      "Ġfark": 1322,
      "ilerin": 1323,
      "Ġuygul": 1324,
      "daroÄŁlu": 1325,
      "Ġetkisiz": 1326,
      "ĠÄ°ngiltere": 1327,
      ".'": 1328,
      "fa": 1329,
      "kat": 1330,
      "layan": 1331,
      "mar": 1332,
      "sek": 1333,
      "Ġyet": 1334,
      "diyor": 1335,
      "urt": 1336,
      "Ġmet": 1337,
      "imi": 1338,
      "Ġolmak": 1339,
      "ĠaÄŁÄ±r": 1340,
      "ĠÄ°s": 1341,
      "ĠPKK": 1342,
      "aÄŁÄ±nÄ±": 1343,
      "ampiyon": 1344,
      "Ġtesp": 1345,
      "ĠBelediye": 1346,
      "ĠMÃ¼dÃ¼rlÃ¼ÄŁÃ¼": 1347,
      "ĠboÅŁ": 1348,
      "dÃ¼ÄŁÃ¼": 1349,
      "ĠKaÅŁÄ±kÃ§Ä±": 1350,
      "),": 1351,
      "bÃ¼s": 1352,
      "klarÄ±": 1353,
      "alat": 1354,
      "Ġkil": 1355,
      "Ġsilah": 1356,
      "Ġharek": 1357,
      "ĠAd": 1358,
      "orm": 1359,
      "orum": 1360,
      "ĠÃ§ocuk": 1361,
      "ĠSan": 1362,
      "ump": 1363,
      "ĠGrubu": 1364,
      "lÄ±ÄŁÄ±": 1365,
      "ĠÃĸn": 1366,
      "ĠkonuÅŁ": 1367,
      "ĠdeÄŁer": 1368,
      "ĠÃ¼zerine": 1369,
      "masÄ±na": 1370,
      "talya": 1371,
      "BM": 1372,
      "nik": 1373,
      "oz": 1374,
      "tÃ¼": 1375,
      "Ġem": 1376,
      "ÅŁam": 1377,
      "illi": 1378,
      "Ġkol": 1379,
      "larÄ±ndan": 1380,
      "esiyle": 1381,
      "Ġikinci": 1382,
      "ĠKar": 1383,
      "deniz": 1384,
      "ĠÅŁek": 1385,
      "utbol": 1386,
      "ĠayÄ±nda": 1387,
      "Ġzor": 1388,
      "ĠRece": 1389,
      "Ġbilg": 1390,
      "ĠÃ¼zerinden": 1391,
      "ĠCumhuriyet": 1392,
      "ĠMilletvekili": 1393,
      "ĠdÃ¶nem": 1394,
      "ĠseÃ§im": 1395,
      "Ġlider": 1396,
      "ĠhÃ¼kÃ¼met": 1397,
      "ĠRecep": 1398,
      "rans": 1399,
      "uc": 1400,
      "ĠkÄ±s": 1401,
      "Ġgit": 1402,
      "asÄ±nÄ±n": 1403,
      "iyar": 1404,
      "Ġail": 1405,
      "ĠHak": 1406,
      "ĠbaÅŁladÄ±": 1407,
      "ĠÃ¶nc": 1408,
      "ansÄ±": 1409,
      "istem": 1410,
      "Ġdik": 1411,
      "ĠkaldÄ±r": 1412,
      "ĠtoplantÄ±": 1413,
      "ĠgÃ¼Ã§": 1414,
      "Ġzaman": 1415,
      "ĠgerÃ§ekleÅŁtir": 1416,
      "oloji": 1417,
      "Ġasker": 1418,
      "ĠBÃ¼yÃ¼kÅŁehir": 1419,
      "ETÃĸ": 1420,
      "ciler": 1421,
      "ide": 1422,
      "vet": 1423,
      "Ä±p": 1424,
      "ĠbÄ±r": 1425,
      "Ġsiyas": 1426,
      "Ġgen": 1427,
      "Ġav": 1428,
      "ĠDr": 1429,
      "ize": 1430,
      "ĠsonuÃ§": 1431,
      "Ä±sÄ±nda": 1432,
      "ĠyaralandÄ±": 1433,
      "Ġhastan": 1434,
      "ĠMilli": 1435,
      "ĠÅŁÃ¼pheli": 1436,
      "ova": 1437,
      "Ġdikkat": 1438,
      "dur": 1439,
      "mi": 1440,
      "ust": 1441,
      "yar": 1442,
      "asaray": 1443,
      "estiv": 1444,
      "ĠvatandaÅŁ": 1445,
      "ĠBÃ¶": 1446,
      "ĠAli": 1447,
      "ĠMar": 1448,
      "ĠEn": 1449,
      "acaÄŁÄ±nÄ±": 1450,
      "ĠyÄ±lÄ±nda": 1451,
      "ĠgeliÅŁ": 1452,
      "ĠÃ¶zel": 1453,
      "ĠÃ¶rgÃ¼tÃ¼": 1454,
      "Ġdestek": 1455,
      "ĠyargÄ±lan": 1456,
      "ĠKÄ±lÄ±Ã§daroÄŁlu": 1457,
      "Ġtespit": 1458,
      "alatasaray": 1459,
      "ĠbÄ±rak": 1460,
      "cÃ¼": 1461,
      "Ġul": 1462,
      "erb": 1463,
      "ĠyanÄ±": 1464,
      "ĠkÄ±r": 1465,
      "Ġmuh": 1466,
      "ĠTop": 1467,
      "ĠEm": 1468,
      "izmet": 1469,
      "uma": 1470,
      "ĠHDP": 1471,
      "asÄ±yla": 1472,
      "ĠyapÄ±l": 1473,
      "avaÅŁ": 1474,
      "Ġ30": 1475,
      "ĠyaÅŁam": 1476,
      "ĠAlt": 1477,
      "ĠtakÄ±m": 1478,
      "cadele": 1479,
      "Ġtamam": 1480,
      "50": 1481,
      "manÄ±": 1482,
      "sÄ±z": 1483,
      "yÄ±": 1484,
      "Ġko": 1485,
      "Ġgenel": 1486,
      "Ġteh": 1487,
      "lerinden": 1488,
      "Ġait": 1489,
      "ladÄ±ÄŁÄ±": 1490,
      "ĠÄ°st": 1491,
      "ĠDÃ¼nya": 1492,
      "isyon": 1493,
      "Ġ11": 1494,
      "Ġ19": 1495,
      "alarda": 1496,
      "ĠgÃ¶Ã§": 1497,
      "Ġmilyar": 1498,
      "ĠyakalandÄ±": 1499,
      "Ã¼ndeki": 1500,
      "Ġokul": 1501,
      "ĠgÃ¼venlik": 1502,
      "ĠbazÄ±": 1503,
      "Ġmerak": 1504,
      "BB": 1505,
      "gÄ±": 1506,
      "rÄ±": 1507,
      "Ã¼yor": 1508,
      "Ã¼ÅŁt": 1509,
      "Ġbab": 1510,
      "ĠbaÄŁ": 1511,
      "ĠsÄ±k": 1512,
      "Ġsey": 1513,
      "Ġgrup": 1514,
      "dat": 1515,
      "Ġiti": 1516,
      "ĠTur": 1517,
      "ledi": 1518,
      "Ã¼ldÃ¼": 1519,
      "eclis": 1520,
      "Ġ40": 1521,
      "ĠaÃ§Ä±klama": 1522,
      "ĠÃ¼zere": 1523,
      "Ġcinsel": 1524,
      "ĠTrump": 1525,
      "ĠSuudi": 1526,
      "din": 1527,
      "liye": 1528,
      "mer": 1529,
      "min": 1530,
      "nÄ±": 1531,
      "niyet": 1532,
      "suz": 1533,
      "Ġon": 1534,
      "Ä±yla": 1535,
      "ÄŁine": 1536,
      "Ġboy": 1537,
      "alim": 1538,
      "ĠyatÄ±r": 1539,
      "Ġsen": 1540,
      "ete": 1541,
      "lif": 1542,
      "ulan": 1543,
      "iktaÅŁ": 1544,
      "ĠÄ°ÅŁ": 1545,
      "ĠDem": 1546,
      "izi": 1547,
      "Ġediyor": 1548,
      "ĠaraÅŁtÄ±r": 1549,
      "Ġfilm": 1550,
      "okr": 1551,
      "ĠyaÅŁanan": 1552,
      "eÅŁiktaÅŁ": 1553,
      "Ġisteyen": 1554,
      "Ġisim": 1555,
      "erson": 1556,
      "masÄ±nÄ±": 1557,
      "ĠÃľniversit": 1558,
      "bakÄ±r": 1559,
      "iyarbakÄ±r": 1560,
      "ton": 1561,
      "up": 1562,
      "uÄŁ": 1563,
      "yi": 1564,
      "ÄŁÄ±na": 1565,
      "Ã§iÅŁleri": 1566,
      "Ġben": 1567,
      "ons": 1568,
      "ĠMahkem": 1569,
      "Ġede": 1570,
      "ahat": 1571,
      "Ġ17": 1572,
      "Ġfaz": 1573,
      "Ġdair": 1574,
      "ĠgÃ¶rÃ¼n": 1575,
      "ĠÃ§Ä±kan": 1576,
      "ĠaÃ§Ä±klamada": 1577,
      "eceÄŁi": 1578,
      "Ġoyn": 1579,
      "ĠAkar": 1580,
      "ĠakÅŁam": 1581,
      "Ã¼ltÃ¼r": 1582,
      "ĠBirliÄŁi": 1583,
      "ĠsonrasÄ±": 1584,
      "ĠÅŁirket": 1585,
      "Ġmetro": 1586,
      "ĠÃľniversitesi": 1587,
      "CHP": 1588,
      "ag": 1589,
      "sil": 1590,
      "tÃ¼rk": 1591,
      "yen": 1592,
      "zmir": 1593,
      "Ġbur": 1594,
      "Ġkuzey": 1595,
      "Ġkend": 1596,
      "det": 1597,
      "Ġim": 1598,
      "Ġit": 1599,
      "ĠAt": 1600,
      "ĠSÃ¶z": 1601,
      "apor": 1602,
      "tif": 1603,
      "ĠEt": 1604,
      "isine": 1605,
      "ĠiÃ§inde": 1606,
      "ĠgÃ¼ndem": 1607,
      "ĠanlaÅŁ": 1608,
      "Ġris": 1609,
      "ilmek": 1610,
      "Ġtoplam": 1611,
      "Ġproj": 1612,
      "ĠgÃ¶steriler": 1613,
      "Ġotom": 1614,
      "ĠmaÃ§Ä±nda": 1615,
      "Ġeylem": 1616,
      "leyen": 1617,
      "Ġhesab": 1618,
      "BMM": 1619,
      "Ã¼ÅŁtÃ¼": 1620,
      "Cumhur": 1621,
      "eden": 1622,
      "gÃ¼r": 1623,
      "uyor": 1624,
      "ĠaÅŁ": 1625,
      "Ä±cÄ±": 1626,
      "inci": 1627,
      "ilir": 1628,
      "Ġkom": 1629,
      "Ġsu": 1630,
      "ĠsÄ±": 1631,
      "Ġtel": 1632,
      "ĠKan": 1633,
      "ĠKad": 1634,
      "ĠMerkez": 1635,
      "isinde": 1636,
      "ĠGÃ¼ven": 1637,
      "ĠHas": 1638,
      "oÄŁun": 1639,
      "Ġ12": 1640,
      "Ġ14": 1641,
      "avc": 1642,
      "laÅŁÄ±k": 1643,
      "ĠkarÅŁÄ±l": 1644,
      "ĠkullandÄ±": 1645,
      "Ġprogram": 1646,
      "Ġgetirildi": 1647,
      "ĠWol": 1648,
      "uvvet": 1649,
      "Ġfazla": 1650,
      "Av": 1651,
      "YK": 1652,
      "baÅŁk": 1653,
      "ch": 1654,
      "can": 1655,
      "fl": 1656,
      "kada": 1657,
      "yesi": 1658,
      "ÄŁÄ±nda": 1659,
      "Ã§ok": 1660,
      "Ã¼zel": 1661,
      "ĠPo": 1662,
      "ĠaraÃ§": 1663,
      "Ġ26": 1664,
      "oÄŁraf": 1665,
      "Ä±ÅŁiÅŁleri": 1666,
      "ĠiÃ§er": 1667,
      "Ġetkin": 1668,
      "ĠÃĸr": 1669,
      "ĠÃ§alÄ±ÅŁan": 1670,
      "uÅŁtu": 1671,
      "ĠgerÃ§ekleÅŁ": 1672,
      "Ġbelirtildi": 1673,
      "Ġaday": 1674,
      "kadaÅŁ": 1675,
      "Irak": 1676,
      "KE": 1677,
      "eÄŁ": 1678,
      "ĠÃ¼n": 1679,
      "Ä±ntÄ±": 1680,
      "alk": 1681,
      "Ġsun": 1682,
      "dasÄ±": 1683,
      "esel": 1684,
      "unca": 1685,
      "Ġmahkem": 1686,
      "lah": 1687,
      "Ġpara": 1688,
      "Ġperson": 1689,
      "ĠGazet": 1690,
      "ĠarkadaÅŁ": 1691,
      "ĠCemal": 1692,
      "ĠÅŁey": 1693,
      "ecik": 1694,
      "Ġverildi": 1695,
      "ĠVal": 1696,
      "ĠbÃ¶lÃ¼m": 1697,
      "Ġkapat": 1698,
      "Ġyana": 1699,
      "ĠgiriÅŁ": 1700,
      "Ġsahip": 1701,
      "icaret": 1702,
      "ĠeleÅŁtir": 1703,
      "Ġekipleri": 1704,
      "onomi": 1705,
      "Ġbildirildi": 1706,
      "ABER": 1707,
      "ĠgÃ¶Ã§men": 1708,
      "flasyon": 1709,
      "mayan": 1710,
      "nden": 1711,
      "yanÄ±n": 1712,
      "any": 1713,
      "andar": 1714,
      "ing": 1715,
      "ÄŁÄ±n": 1716,
      "akÃ¼lt": 1717,
      "lardan": 1718,
      "Ġtur": 1719,
      "unan": 1720,
      "ĠBaÄŁ": 1721,
      "ĠKemal": 1722,
      "ĠMeclis": 1723,
      "ĠolmadÄ±": 1724,
      "iss": 1725,
      "ĠGÃ¼n": 1726,
      "olu": 1727,
      "luÄŁu": 1728,
      "eza": 1729,
      "ĠÃ¶ner": 1730,
      "ĠyardÄ±m": 1731,
      "ĠRusya": 1732,
      "ĠÃ§alÄ±ÅŁma": 1733,
      "ĠParis": 1734,
      "Ġkurul": 1735,
      "ĠuyuÅŁtur": 1736,
      "Ġdevlet": 1737,
      "ĠÃĸzel": 1738,
      "ĠdÃ¼nya": 1739,
      "ĠgerekÃ§": 1740,
      "ĠcezasÄ±": 1741,
      "ĠdeÄŁiÅŁik": 1742,
      "Ġoyuncu": 1743,
      "ĠgeÃ§tiÄŁimiz": 1744,
      "ĠÃĸnder": 1745,
      "ĠdeÄŁerlendir": 1746,
      "Ġitibar": 1747,
      "'s": 1748,
      "HABER": 1749,
      "ZÄ°": 1750,
      "aj": 1751,
      "ks": 1752,
      "lÃ¼k": 1753,
      "ocu": 1754,
      "Ġ`": 1755,
      "Ġj": 1756,
      "andÄ±r": 1757,
      "arasÄ±": 1758,
      "enti": 1759,
      "Ġyurt": 1760,
      "Ġkor": 1761,
      "Ġsistem": 1762,
      "irektÃ¶r": 1763,
      "etin": 1764,
      "Ġte": 1765,
      "ĠtaÅŁÄ±": 1766,
      "ĠMER": 1767,
      "Ġbiri": 1768,
      "ĠDon": 1769,
      "abistan": 1770,
      "umu": 1771,
      "Ġ16": 1772,
      "ĠFrans": 1773,
      "ĠkararÄ±": 1774,
      "Ã¼tÃ¼n": 1775,
      "ĠdiÄŁer": 1776,
      "aÄŁÄ±ÅŁ": 1777,
      "otoÄŁraf": 1778,
      "Ġgiden": 1779,
      "Ġoperasyonda": 1780,
      "ĠArabistan": 1781,
      "Ġceza": 1782,
      "Ġihl": 1783,
      "Ġyasa": 1784,
      "ĠsayÄ±sÄ±": 1785,
      "ĠProf": 1786,
      "ĠyÃ¼rÃ¼t": 1787,
      "ĠyatÄ±rÄ±m": 1788,
      "ĠSÃ¶zcÃ¼sÃ¼": 1789,
      "ĠÃĸrgÃ¼t": 1790,
      "KEZÄ°": 1791,
      "ĠuyuÅŁturucu": 1792,
      "ĠMERKEZÄ°": 1793,
      "cek": 1794,
      "kÃ¼": 1795,
      "las": 1796,
      "lek": 1797,
      "sun": 1798,
      "savc": 1799,
      "van": 1800,
      "wit": 1801,
      "andÄ±": 1802,
      "ilecek": 1803,
      "ÄŁe": 1804,
      "Ġbor": 1805,
      "Ġya": 1806,
      "ĠyansÄ±": 1807,
      "ĠkÄ±z": 1808,
      "Ġkamp": 1809,
      "ayi": 1810,
      "ĠBor": 1811,
      "ĠBursa": 1812,
      "Ġhan": 1813,
      "ĠhiÃ§": 1814,
      "Ġhizmet": 1815,
      "lerle": 1816,
      "Ġmal": 1817,
      "ĠSÃ¼": 1818,
      "ĠSÃ¼r": 1819,
      "Ġilan": 1820,
      "ĠbirÃ§ok": 1821,
      "ĠÄ°mam": 1822,
      "azi": 1823,
      "ĠDen": 1824,
      "izm": 1825,
      "ĠYeni": 1826,
      "elerin": 1827,
      "ĠOk": 1828,
      "Ġistis": 1829,
      "Ġistedi": 1830,
      "ĠÅŀampiyon": 1831,
      "cÄ±lar": 1832,
      "ĠmÃ¼da": 1833,
      "ĠsuÃ§undan": 1834,
      "Ġcinayet": 1835,
      "Ġkamyon": 1836,
      "Ġduyurdu": 1837,
      "ĠsÄ±nÄ±f": 1838,
      "ĠbaÅŁvuru": 1839,
      "witter": 1840,
      ".,": 1841,
      "bay": 1842,
      "fer": 1843,
      "ge": 1844,
      "gin": 1845,
      "kil": 1846,
      "mÄ±": 1847,
      "net": 1848,
      "ndan": 1849,
      "rik": 1850,
      "Ġci": 1851,
      "erken": 1852,
      "Ã§ak": 1853,
      "ĠyaÄŁÄ±ÅŁ": 1854,
      "Ġkit": 1855,
      "ĠgÃ¶n": 1856,
      "dav": 1857,
      "asÄ±ndaki": 1858,
      "Ġtale": 1859,
      "iyaret": 1860,
      "ĠBay": 1861,
      "Ġhat": 1862,
      "Ġmak": 1863,
      "ĠTar": 1864,
      "eyin": 1865,
      "ĠÄ°ran": 1866,
      "anÄ±ÅŁ": 1867,
      "Ġyapmak": 1868,
      "ĠaldÄ±ÄŁÄ±": 1869,
      "mada": 1870,
      "larÄ±yla": 1871,
      "ĠYal": 1872,
      "ĠYÃ¶n": 1873,
      "ĠFakÃ¼lt": 1874,
      "afa": 1875,
      "ilere": 1876,
      "ĠyaÅŁayan": 1877,
      "Ġbeledi": 1878,
      "manya": 1879,
      "Ġdiye": 1880,
      "Ġorman": 1881,
      "eceÄŁini": 1882,
      "Ġprot": 1883,
      "Ġhasar": 1884,
      "ĠbÃ¶lge": 1885,
      "ĠbaÅŁkenti": 1886,
      "ĠyayÄ±m": 1887,
      "Ġifadelerini": 1888,
      "obÃ¼s": 1889,
      "Ġkamu": 1890,
      "Ġparti": 1891,
      "Ġkredi": 1892,
      "ĠdÄ±ÅŁÄ±": 1893,
      "Ankara": 1894,
      "ĠgeÃ§irildi": 1895,
      "ĠkarÅŁÄ±laÅŁ": 1896,
      "ĠmÃ¼dah": 1897,
      "TO": 1898,
      "bet": 1899,
      "meler": 1900,
      "nak": 1901,
      "od": 1902,
      "sin": 1903,
      "Ãĩ": 1904,
      "ilde": 1905,
      "ald": 1906,
      "ĠyoÄŁun": 1907,
      "Ġkoy": 1908,
      "Ġkent": 1909,
      "irken": 1910,
      "ast": 1911,
      "asÄ±nÄ±": 1912,
      "ĠmaÄŁ": 1913,
      "ĠSa": 1914,
      "azar": 1915,
      "ĠDiyarbakÄ±r": 1916,
      "aban": 1917,
      "Ã¼lÃ¼": 1918,
      "ĠYÄ±l": 1919,
      "evr": 1920,
      "lama": 1921,
      "ĠaÃ§Ä±klandÄ±": 1922,
      "ukat": 1923,
      "Ġediliyor": 1924,
      "ĠOt": 1925,
      "Ġziyaret": 1926,
      "Ġann": 1927,
      "Ġanlat": 1928,
      "ĠsÃ¼rdÃ¼r": 1929,
      "Ġinsan": 1930,
      "Ġincel": 1931,
      "Ġuyar": 1932,
      "Ġdevr": 1933,
      "ĠyaklaÅŁÄ±k": 1934,
      "ĠAkdeniz": 1935,
      "Ġhaberleri": 1936,
      "ĠalÄ±nan": 1937,
      "ĠJo": 1938,
      "ĠsaÄŁlÄ±k": 1939,
      "Ġdurumu": 1940,
      "ĠBaÅŁsavc": 1941,
      "mÄ±zÄ±": 1942,
      "ĠsonuÃ§larÄ±": 1943,
      "ĠBÃ¶lg": 1944,
      "ĠulaÅŁ": 1945,
      "ĠmetrobÃ¼s": 1946,
      "ĠBaÄŁdat": 1947,
      "Ġitibaren": 1948,
      "Ġprotest": 1949,
      "DÃ¼nya": 1950,
      "Rusya": 1951,
      "eder": 1952,
      "hamp": 1953,
      "lilik": 1954,
      "nos": 1955,
      "anak": 1956,
      "Ã¼Ã§": 1957,
      "ens": 1958,
      "Ġyen": 1959,
      "Ġkab": 1960,
      "deÅŁ": 1961,
      "ekli": 1962,
      "ĠteÅŁ": 1963,
      "ĠoÄŁ": 1964,
      "ĠBab": 1965,
      "lerden": 1966,
      "ĠmÄ±": 1967,
      "ĠKuvvet": 1968,
      "ĠSÄ±r": 1969,
      "ĠMust": 1970,
      "Ã¼ze": 1971,
      "Ġplan": 1972,
      "ĠÃ¶lÃ¼m": 1973,
      "ĠGÃ¶": 1974,
      "Ġfutbol": 1975,
      "ĠFet": 1976,
      "ĠFestiv": 1977,
      "alarÄ±nda": 1978,
      "ĠgÃ¶ren": 1979,
      "elerinin": 1980,
      "iliÄŁi": 1981,
      "ĠgÃ¼nÃ¼": 1982,
      "manÄ±n": 1983,
      "Ġkonu": 1984,
      "ĠBakan": 1985,
      "ĠiÅŁlem": 1986,
      "Ġbilin": 1987,
      "ĠÅŀu": 1988,
      "Ġsorun": 1989,
      "ĠUz": 1990,
      "ĠUEFA": 1991,
      "oto": 1992,
      "Ġhaft": 1993,
      "Ġotur": 1994,
      "ĠbaÅŁkan": 1995,
      "ĠdÃ¼ÅŁÃ¼r": 1996,
      "ĠbÃ¼yÃ¼klÃ¼ÄŁ": 1997,
      "ĠeylÃ¼l": 1998,
      "ĠBaÅŁbak": 1999,
      "ĠyÃ¼ksel": 2000,
      "ĠtutuklandÄ±": 2001,
      "ĠKore": 2002,
      "ĠKomut": 2003,
      "Ġtahliye": 2004,
      "verhamp": 2005,
      "Ġsokak": 2006,
      "Ġkilo": 2007,
      "Ġhareket": 2008,
      "ĠyanÄ±t": 2009,
      "Ġgenelinde": 2010,
      "ĠEtnos": 2011,
      "andarma": 2012,
      "ĠÄ°mamoÄŁlu": 2013,
      "ĠFakÃ¼ltesi": 2014,
      "Ġprotesto": 2015,
      "ĠMustafa": 2016,
      "verhampton": 2017,
      "ĠEtnospor": 2018,
      "YT": 2019,
      "ig": 2020,
      "rah": 2021,
      "wa": 2022,
      "Ġiyi": 2023,
      "enerb": 2024,
      "ÄŁa": 2025,
      "ÄŁit": 2026,
      "Ġber": 2027,
      "onu": 2028,
      "ĠAB": 2029,
      "ort": 2030,
      "ĠKo": 2031,
      "ĠTBMM": 2032,
      "ĠÃ§aÄŁ": 2033,
      "ĠSaÄŁ": 2034,
      "ĠSosyal": 2035,
      "eyya": 2036,
      "ĠDoÄŁ": 2037,
      "Ġpu": 2038,
      "Ġ18": 2039,
      "Ġfa": 2040,
      "Ã¼ksek": 2041,
      "ilerine": 2042,
      "ĠbaÅŁlayan": 2043,
      "ĠyarÄ±n": 2044,
      "Ġyaralan": 2045,
      "Ġenflasyon": 2046,
      "Ġkonusu": 2047,
      "ĠyÃ¶netim": 2048,
      "ĠmÃ¼cadele": 2049,
      "Ġdepremin": 2050,
      "ĠbÃ¶lgesinde": 2051,
      "Ġgetirilen": 2052,
      "ĠkarÅŁÄ±tÄ±": 2053,
      "ĠÃ¶zgÃ¼r": 2054,
      "Ġekonom": 2055,
      "Ġduyur": 2056,
      "ĠÄ°lk": 2057,
      "Ġaskeri": 2058,
      "ĠÃ¼Ã§": 2059,
      "ĠÃ¼yesi": 2060,
      "ĠsÄ±rasÄ±nda": 2061,
      "Ġlideri": 2062,
      "okrat": 2063,
      "Ġotomob": 2064,
      "CumhurbaÅŁkanÄ±": 2065,
      "Ġtelef": 2066,
      "ĠWolverhampton": 2067,
      "baÅŁkanlÄ±ÄŁÄ±": 2068,
      "unanistan": 2069,
      "Ġtedav": 2070,
      "ĠDonald": 2071,
      "ĠÃĸrgÃ¼tÃ¼": 2072,
      "ĠSÃ¼reyya": 2073,
      "ĠgÃ¶nder": 2074,
      "ĠSÄ±rrÄ±": 2075,
      "enerbah": 2076,
      "SG": 2077,
      "dÄ±n": 2078,
      "gel": 2079,
      "idi": 2080,
      "mesine": 2081,
      "ook": 2082,
      "otiv": 2083,
      "son": 2084,
      "uÄŁr": 2085,
      "arar": 2086,
      "indi": 2087,
      "ĠbÄ±": 2088,
      "Ġbas": 2089,
      "akÄ±": 2090,
      "Ġsez": 2091,
      "ĠsektÃ¶r": 2092,
      "asa": 2093,
      "lararasÄ±": 2094,
      "Ġtaki": 2095,
      "Ġtep": 2096,
      "esmi": 2097,
      "Ġham": 2098,
      "leriyle": 2099,
      "lim": 2100,
      "ullah": 2101,
      "ĠKr": 2102,
      "ĠÃ§ocu": 2103,
      "ĠSel": 2104,
      "Ġdetay": 2105,
      "ĠÄ°Ã§iÅŁleri": 2106,
      "tiÄŁi": 2107,
      "abz": 2108,
      "olks": 2109,
      "lÄ±yor": 2110,
      "Ġart": 2111,
      "itir": 2112,
      "ĠfotoÄŁraf": 2113,
      "avuÅŁ": 2114,
      "Ġsonuc": 2115,
      "ĠaÃ§Ä±l": 2116,
      "Ġnok": 2117,
      "aÄŁa": 2118,
      "elerine": 2119,
      "ĠÃ¶ne": 2120,
      "ĠÃ¶nÃ¼nde": 2121,
      "ĠaynÄ±": 2122,
      "Ġancak": 2123,
      "terek": 2124,
      "Ġbelirterek": 2125,
      "leme": 2126,
      "Ä±lÄ±ÄŁÄ±": 2127,
      "ĠettiÄŁi": 2128,
      "ĠkatÄ±ldÄ±": 2129,
      "ĠyangÄ±n": 2130,
      "ĠgÃ¶sterdi": 2131,
      "ĠÃ¶ÄŁrenci": 2132,
      "ĠdoÄŁru": 2133,
      "ĠdeÄŁiÅŁtir": 2134,
      "Ġbeklen": 2135,
      "ĠKomisyon": 2136,
      "ĠsÄ±nÄ±r": 2137,
      "Ġuygulam": 2138,
      "ĠEmniyet": 2139,
      "ĠYÃ¶netim": 2140,
      "ĠFestivali": 2141,
      "wagen": 2142,
      "olkswagen": 2143,
      "ATO": 2144,
      "SP": 2145,
      "UEFA": 2146,
      "sÄ±nda": 2147,
      "iliÅŁ": 2148,
      "ÄŁun": 2149,
      "deki": 2150,
      "ĠsayÄ±": 2151,
      "ĠgÃ¼zel": 2152,
      "aÅŁa": 2153,
      "amaz": 2154,
      "Ġhede": 2155,
      "litik": 2156,
      "ĠAh": 2157,
      "Ġdar": 2158,
      "Ġdok": 2159,
      "Ġmem": 2160,
      "Ġmad": 2161,
      "ulus": 2162,
      "ĠTwitter": 2163,
      "ĠMan": 2164,
      "Ġolma": 2165,
      "ĠoluÅŁ": 2166,
      "ĠDur": 2167,
      "ĠDÄ±ÅŁiÅŁleri": 2168,
      "ĠEl": 2169,
      "Ġpat": 2170,
      "duÄŁu": 2171,
      "ĠGeÃ§": 2172,
      "ĠGalatasaray": 2173,
      "ahal": 2174,
      "landÄ±r": 2175,
      "Ä±ÅŁÄ±": 2176,
      "ĠFETÃĸ": 2177,
      "ĠaÃ§tÄ±": 2178,
      "ĠCeza": 2179,
      "ĠÅŁu": 2180,
      "ĠÅŁeh": 2181,
      "alarÄ±na": 2182,
      "Ġetmek": 2183,
      "omb": 2184,
      "ĠbaÅŁlay": 2185,
      "Ġrapor": 2186,
      "Ġkonusunda": 2187,
      "ĠsÃ¼rÃ¼": 2188,
      "Ġistiyor": 2189,
      "ternet": 2190,
      "ĠsÃ¶y": 2191,
      "Ġyeniden": 2192,
      "ĠPartisi": 2193,
      "ĠmÃ¼dÃ¼r": 2194,
      "ĠkatÄ±l": 2195,
      "Ġgirdi": 2196,
      "ĠiddiasÄ±yla": 2197,
      "Ġteklif": 2198,
      "Ġkendis": 2199,
      "layarak": 2200,
      "ĠBelediyesi": 2201,
      "liÄŁinde": 2202,
      "ĠÃ¼st": 2203,
      "ĠboÅŁalt": 2204,
      "ĠSanayi": 2205,
      "ĠkÄ±sa": 2206,
      "ĠMahkemesi": 2207,
      "ĠGÃ¼venlik": 2208,
      "Avrupa": 2209,
      "ĠgerekÃ§esiyle": 2210,
      "irektÃ¶rÃ¼": 2211,
      "ÄŁitim": 2212,
      "enerbahÃ§e": 2213,
      "Milli": 2214,
      "fet": 2215,
      "klarÄ±nÄ±": 2216,
      "Ġas": 2217,
      "Ä±da": 2218,
      "ant": 2219,
      "ari": 2220,
      "Ġyitir": 2221,
      "eter": 2222,
      "etmen": 2223,
      "ayasa": 2224,
      "Ġtas": 2225,
      "Ġtalim": 2226,
      "ĠBar": 2227,
      "ĠBank": 2228,
      "ĠBeÅŁiktaÅŁ": 2229,
      "ĠAb": 2230,
      "ĠKara": 2231,
      "ĠTicaret": 2232,
      "Ġolur": 2233,
      "iÅŁim": 2234,
      "ĠÄ°zmir": 2235,
      "ĠDer": 2236,
      "ĠGÃ¶k": 2237,
      "olos": 2238,
      "ĠHulus": 2239,
      "ĠyaptÄ±k": 2240,
      "Ġ27": 2241,
      "Ġfir": 2242,
      "ĠFat": 2243,
      "ĠÅŁik": 2244,
      "ilerini": 2245,
      "usuna": 2246,
      "ĠyÄ±ldÄ±r": 2247,
      "Ä±mÄ±z": 2248,
      "likle": 2249,
      "uyla": 2250,
      "ĠgÃ¼nde": 2251,
      "Ġbelli": 2252,
      "Ġkontr": 2253,
      "tep": 2254,
      "Ġ2020": 2255,
      "asyonu": 2256,
      "ĠinÅŁ": 2257,
      "Ġdiz": 2258,
      "Ġkurum": 2259,
      "ĠduruÅŁ": 2260,
      "ĠEkrem": 2261,
      "masÄ±nÄ±n": 2262,
      "Ġhast": 2263,
      "ĠAlmanya": 2264,
      "ĠkaÃ§ak": 2265,
      "Ġazil": 2266,
      "ĠaltÄ±nda": 2267,
      "Ġuzak": 2268,
      "Ġbelirtti": 2269,
      "ĠÃ¼lke": 2270,
      "ĠparÃ§": 2271,
      "ĠKons": 2272,
      "oloj": 2273,
      "Ġikti": 2274,
      "Ġmesaj": 2275,
      "abilir": 2276,
      "Ġgazeteci": 2277,
      "ĠpaylaÅŁÄ±m": 2278,
      "ĠfarklÄ±": 2279,
      "Ġhastaneye": 2280,
      "Ġtehlik": 2281,
      "ĠbaÄŁlÄ±": 2282,
      "eteor": 2283,
      "uÄŁla": 2284,
      "ĠPolis": 2285,
      "ĠÅŀampiyonlar": 2286,
      "Ġtelefon": 2287,
      "ĠbÄ±Ã§ak": 2288,
      "Ġhedef": 2289,
      "ĠHulusi": 2290,
      "Al": 2291,
      "FETÃĸ": 2292,
      "YÄ°": 2293,
      "best": 2294,
      "lak": 2295,
      "muz": 2296,
      "mesini": 2297,
      "nan": 2298,
      "ner": 2299,
      "og": 2300,
      "rar": 2301,
      "ina": 2302,
      "ĠyÄ±k": 2303,
      "Ġgram": 2304,
      "diÅŁ": 2305,
      "one": 2306,
      "ĠtanÄ±": 2307,
      "Ġoda": 2308,
      "ĠBen": 2309,
      "lerce": 2310,
      "ĠAf": 2311,
      "ĠAs": 2312,
      "Ġmev": 2313,
      "Ġmark": 2314,
      "Ġveya": 2315,
      "ĠKÄ±": 2316,
      "ĠKal": 2317,
      "ĠKay": 2318,
      "ĠKÄ±r": 2319,
      "ĠMer": 2320,
      "ĠaÄŁ": 2321,
      "ĠEÅŁ": 2322,
      "Ġpiyas": 2323,
      "ĠÃ¶lÃ¼": 2324,
      "ĠHav": 2325,
      "acan": 2326,
      "ĠYÃ¼ksek": 2327,
      "ĠfÄ±r": 2328,
      "Ġsona": 2329,
      "alara": 2330,
      "uyu": 2331,
      "ĠyarÄ±ÅŁ": 2332,
      "lÄ±klarÄ±": 2333,
      "ĠÃĸmer": 2334,
      "Ġgeril": 2335,
      "adece": 2336,
      "ehmet": 2337,
      "masÄ±yla": 2338,
      "ĠsÃ¼re": 2339,
      "ĠiÅŁÃ§": 2340,
      "Ġyerine": 2341,
      "istik": 2342,
      "Ġindir": 2343,
      "Ġinternet": 2344,
      "ĠaÃ§Ä±klamalarda": 2345,
      "Ġelekt": 2346,
      "ĠCumhurbaÅŁkanlÄ±ÄŁÄ±": 2347,
      "ĠkullanÄ±": 2348,
      "ĠEkonomi": 2349,
      "ĠUlu": 2350,
      "ĠmÃ¼h": 2351,
      "Ġdepremde": 2352,
      "ĠateÅŁ": 2353,
      "efer": 2354,
      "Ġihr": 2355,
      "ĠaltÄ±n": 2356,
      "Ġuzman": 2357,
      "ĠÃ¶ldÃ¼rÃ¼l": 2358,
      "ĠÃ¼retim": 2359,
      "Ġsanat": 2360,
      "Ġamac": 2361,
      "ĠÅŁekilde": 2362,
      "ĠyaÅŁamÄ±nÄ±": 2363,
      "ĠTurk": 2364,
      "Ġrisk": 2365,
      "Ġpersonel": 2366,
      "Ã¼Ã§Ã¼k": 2367,
      "Ġberaber": 2368,
      "ĠÃ§aÄŁr": 2369,
      "Ġkontrol": 2370,
      "19": 2371,
      "Bir": 2372,
      "go": 2373,
      "mayÄ±": 2374,
      "of": 2375,
      "rol": 2376,
      "vri": 2377,
      "Ä±t": 2378,
      "Ä±larÄ±": 2379,
      "aliyet": 2380,
      "Ġkan": 2381,
      "Ġseb": 2382,
      "ĠsavaÅŁ": 2383,
      "Ã¶y": 2384,
      "ĠtÃ¼r": 2385,
      "atÃ¶r": 2386,
      "Ġhey": 2387,
      "ĠmÃ¼z": 2388,
      "ĠKÃ¼ltÃ¼r": 2389,
      "ĠTerÃ¶r": 2390,
      "ĠSin": 2391,
      "ĠMal": 2392,
      "ĠMes": 2393,
      "ĠMuh": 2394,
      "Ġolacak": 2395,
      "isel": 2396,
      "ahÃ§": 2397,
      "ĠyaptÄ±r": 2398,
      "ĠyapacaÄŁÄ±": 2399,
      "ĠartÄ±ÅŁ": 2400,
      "Ġ21": 2401,
      "ĠFa": 2402,
      "aÄŁmen": 2403,
      "Ä±sÄ±nÄ±": 2404,
      "Ä±sÄ±na": 2405,
      "adolu": 2406,
      "ĠkardeÅŁ": 2407,
      "ĠyÄ±lÄ±n": 2408,
      "Ġedilm": 2409,
      "ĠgÃ¼nlerde": 2410,
      "Ġzarar": 2411,
      "ĠRus": 2412,
      "Ġanne": 2413,
      "ĠraÄŁmen": 2414,
      "Ä±ldÄ±z": 2415,
      "lisi": 2416,
      "ĠkaldÄ±": 2417,
      "ĠAntalya": 2418,
      "Ġhaberine": 2419,
      "ĠMillet": 2420,
      "ĠotobÃ¼s": 2421,
      "ĠÃ¶ÄŁrenciler": 2422,
      "Ġgereken": 2423,
      "ĠLig": 2424,
      "ĠÃ§ekiliÅŁ": 2425,
      "Ġlir": 2426,
      "iyaset": 2427,
      "Ġeyalet": 2428,
      "ĠÃľnal": 2429,
      "ĠyÃ¼ksek": 2430,
      "Ġtarihi": 2431,
      "Ġderece": 2432,
      "Ġtemsil": 2433,
      "ĠfiyatlarÄ±": 2434,
      "ĠTeknik": 2435,
      "ĠaracÄ±n": 2436,
      "ĠsilahlÄ±": 2437,
      "Ġsiyaset": 2438,
      "ĠyargÄ±lanan": 2439,
      "Ġimz": 2440,
      "ĠhesabÄ±ndan": 2441,
      "ĠMerkezi": 2442,
      "Ġihlal": 2443,
      "ĠhiÃ§bir": 2444,
      "Ġistismar": 2445,
      "Ġkabul": 2446,
      "ĠBabacan": 2447,
      "Ġpuan": 2448,
      "ĠKomisyonu": 2449,
      "ĠsayÄ±da": 2450,
      "eteoroloji": 2451,
      "Galatasaray": 2452,
      "book": 2453,
      "cusu": 2454,
      "nÃ¼n": 2455,
      "yÄ±z": 2456,
      "Ġ0": 2457,
      "ĠuÄŁr": 2458,
      "int": 2459,
      "illa": 2460,
      "Ã§Ä±n": 2461,
      "ĠbÃ¼tÃ¼n": 2462,
      "Ġsit": 2463,
      "irin": 2464,
      "Ġgol": 2465,
      "Ġgez": 2466,
      "ayÄ±n": 2467,
      "larÄ±ndaki": 2468,
      "onya": 2469,
      "dÄ±klarÄ±": 2470,
      "uniz": 2471,
      "Ġvur": 2472,
      "ĠBer": 2473,
      "uldu": 2474,
      "ĠÃ§evr": 2475,
      "ĠSim": 2476,
      "Ġdem": 2477,
      "Ġbirin": 2478,
      "Ġbirbir": 2479,
      "tih": 2480,
      "isinin": 2481,
      "izli": 2482,
      "ĠHat": 2483,
      "ĠartÄ±r": 2484,
      "cebook": 2485,
      "Ġ22": 2486,
      "Ġ25": 2487,
      "ĠFar": 2488,
      "ĠÅŁart": 2489,
      "alarÄ±nÄ±": 2490,
      "ĠgÃ¶rÃ¼l": 2491,
      "ĠyÄ±llÄ±k": 2492,
      "ĠaÃ§Ä±klarÄ±nda": 2493,
      "ilivri": 2494,
      "ĠRas": 2495,
      "Ġreh": 2496,
      "ĠÃĩalÄ±ÅŁ": 2497,
      "adet": 2498,
      "ĠiÅŁÃ§i": 2499,
      "ĠNATO": 2500,
      "Ġorgan": 2501,
      "Ġsoru": 2502,
      "endis": 2503,
      "ĠyakÄ±n": 2504,
      "Ġhaberimiz": 2505,
      "Ġevinde": 2506,
      "ĠBaÅŁkanlÄ±ÄŁÄ±": 2507,
      "Ġekibi": 2508,
      "atÄ±yla": 2509,
      "Ġortak": 2510,
      "ĠkaÃ§Ä±r": 2511,
      "ĠcezasÄ±na": 2512,
      "Ġkamer": 2513,
      "Ġdava": 2514,
      "ĠAydÄ±n": 2515,
      "Ġhalk": 2516,
      "Ġtutuklu": 2517,
      "ĠayrÄ±": 2518,
      "ĠsoruÅŁturma": 2519,
      "ĠbaÅŁvur": 2520,
      "ĠtartÄ±ÅŁmalar": 2521,
      "ĠTemel": 2522,
      "Ġharekat": 2523,
      "ĠÃ¶nceki": 2524,
      "ĠAltÄ±n": 2525,
      "Ġboyunca": 2526,
      "Ġbenz": 2527,
      "onsolos": 2528,
      "Ġburs": 2529,
      "ĠKadir": 2530,
      "ĠÃ¼niversit": 2531,
      "Ä±ntÄ±lar": 2532,
      "ĠValiliÄŁi": 2533,
      "ĠFransa": 2534,
      "ĠmaÄŁlu": 2535,
      "ĠSaÄŁlÄ±k": 2536,
      "Ġduyurusunda": 2537,
      "ĠÅŁikayet": 2538,
      "unizade": 2539,
      "Adana": 2540,
      "GÃ¼n": 2541,
      "TÃľ": 2542,
      "bank": 2543,
      "ga": 2544,
      "kut": 2545,
      "liy": 2546,
      "lum": 2547,
      "liyor": 2548,
      "nci": 2549,
      "paÅŁa": 2550,
      "Ġama": 2551,
      "Ã¼b": 2552,
      "arlÄ±k": 2553,
      "ince": 2554,
      "ÅŁÄ±": 2555,
      "Ġbal": 2556,
      "Ġyaya": 2557,
      "Ġsar": 2558,
      "Ġsab": 2559,
      "ond": 2560,
      "Ġtat": 2561,
      "Ġtraf": 2562,
      "Ġherk": 2563,
      "ĠdÃ¶r": 2564,
      "Ã¼nden": 2565,
      "Ä°T": 2566,
      "Ä°BB": 2567,
      "ĠKÃ¶": 2568,
      "ĠTh": 2569,
      "ĠSon": 2570,
      "ĠMa": 2571,
      "ĠMehmet": 2572,
      "lediÄŁi": 2573,
      "ĠoluÅŁtur": 2574,
      "ĠadÄ±m": 2575,
      "Ã¶ren": 2576,
      "izyon": 2577,
      "Ġpak": 2578,
      "Ġpark": 2579,
      "abÄ±": 2580,
      "lÄ±ÄŁÄ±nÄ±": 2581,
      "ĠHay": 2582,
      "ĠHarek": 2583,
      "ĠHalk": 2584,
      "asÄ±m": 2585,
      "ĠyapÄ±ldÄ±": 2586,
      "ĠarasÄ±ndaki": 2587,
      "Ġalacak": 2588,
      "ĠYap": 2589,
      "ĠYunanistan": 2590,
      "ĠfÃ¼ze": 2591,
      "Ġetm": 2592,
      "yorum": 2593,
      "omp": 2594,
      "elere": 2595,
      "elerini": 2596,
      "Ġverilen": 2597,
      "Ã¼yle": 2598,
      "ĠÃ§Ä±kacak": 2599,
      "Ã¼mr": 2600,
      "Ġana": 2601,
      "Ġbina": 2602,
      "ĠsÃ¼rec": 2603,
      "Ġnedir": 2604,
      "Ġcam": 2605,
      "Ġintih": 2606,
      "eceÄŁ": 2607,
      "ĠVolkswagen": 2608,
      "ĠÃ¼zerinde": 2609,
      "erkek": 2610,
      "Ġhafif": 2611,
      "Ġhaberi": 2612,
      "ĠBaÅŁkonsolos": 2613,
      "Ġetkil": 2614,
      "Ġsahi": 2615,
      "ĠKurumu": 2616,
      "Ġserin": 2617,
      "ĠsuÃ§lam": 2618,
      "Ġazal": 2619,
      "Ġuzun": 2620,
      "Ġdavada": 2621,
      "ĠKong": 2622,
      "Ġhalinde": 2623,
      "Ġsevk": 2624,
      "Ġbildirdi": 2625,
      "ĠsaldÄ±rÄ±da": 2626,
      "mÄ±ÅŁtÄ±": 2627,
      "ĠÃ§arptÄ±r": 2628,
      "orumlu": 2629,
      "ideo": 2630,
      "ĠgenÃ§": 2631,
      "Ġavukat": 2632,
      "Ġtehdi": 2633,
      "Ġseyahat": 2634,
      "Ġonay": 2635,
      "Ġsene": 2636,
      "ĠHastan": 2637,
      "ĠSÃ¼per": 2638,
      "Ġbelediye": 2639,
      "ĠYÄ±lmaz": 2640,
      "Ġincelem": 2641,
      "Ġfaaliyet": 2642,
      "Ġsezon": 2643,
      "Ġtepki": 2644,
      "ĠbaÅŁlayacak": 2645,
      "ĠFatih": 2646,
      "ĠamacÄ±yla": 2647,
      "ĠFacebook": 2648,
      "35": 2649,
      "Bursa": 2650,
      "SK": 2651,
      "ba": 2652,
      "eg": 2653,
      "hn": 2654,
      "kÄ±": 2655,
      "kaÃ§": 2656,
      "lin": 2657,
      "mara": 2658,
      "tu": 2659,
      "vis": 2660,
      "yaya": 2661,
      "Ġlis": 2662,
      "Ġerkek": 2663,
      "ana": 2664,
      "eral": 2665,
      "erli": 2666,
      "errah": 2667,
      "Ã§a": 2668,
      "Ġbiz": 2669,
      "Ġbomb": 2670,
      "aladÄ±": 2671,
      "Ġyalan": 2672,
      "Ġkav": 2673,
      "dek": 2674,
      "Ġsavun": 2675,
      "ayla": 2676,
      "larca": 2677,
      "ĠBey": 2678,
      "ĠBiz": 2679,
      "Ä±lÄ±r": 2680,
      "ĠAÄŁÄ±r": 2681,
      "Ġdin": 2682,
      "Ġmi": 2683,
      "ultan": 2684,
      "emlik": 2685,
      "emeyen": 2686,
      "ĠKul": 2687,
      "ĠKaz": 2688,
      "ĠKYK": 2689,
      "ĠÃ§iz": 2690,
      "ĠÃ§Ã¶k": 2691,
      "ĠSev": 2692,
      "Ġileri": 2693,
      "Ġolum": 2694,
      "ĠÄ°r": 2695,
      "ĠÄ°BB": 2696,
      "ĠÄ°YÄ°": 2697,
      "ĠDi": 2698,
      "ĠDirektÃ¶rÃ¼": 2699,
      "isa": 2700,
      "isini": 2701,
      "ĠPr": 2702,
      "ĠalÄ±ÅŁ": 2703,
      "Ġ23": 2704,
      "Ä±rat": 2705,
      "Ġ13": 2706,
      "ĠFutbol": 2707,
      "avuz": 2708,
      "ĠÅŁark": 2709,
      "ĠÅŁid": 2710,
      "alarÄ±nÄ±n": 2711,
      "Ġner": 2712,
      "aÄŁÄ±nda": 2713,
      "Ġgelecek": 2714,
      "Ġveri": 2715,
      "Ġveren": 2716,
      "ĠverdiÄŁi": 2717,
      "Ġyarat": 2718,
      "ĠOdasÄ±": 2719,
      "ĠgÃ¼ncel": 2720,
      "ĠÃĩocuk": 2721,
      "ĠbinasÄ±": 2722,
      "Ġkonuk": 2723,
      "ĠLoto": 2724,
      "Ġyerel": 2725,
      "Ġmilletvekili": 2726,
      "Ġkaynak": 2727,
      "Ġ45": 2728,
      "ĠilÃ§esi": 2729,
      "ĠAnadolu": 2730,
      "ĠÅŀirin": 2731,
      "ihbar": 2732,
      "ebek": 2733,
      "Ġesn": 2734,
      "Ġkaybeden": 2735,
      "ĠdÃ¶nÃ¼m": 2736,
      "ĠÃ¶ÄŁrenildi": 2737,
      "ĠbaÅŁka": 2738,
      "lerince": 2739,
      "Ġtest": 2740,
      "ĠdÃ¼nyanÄ±n": 2741,
      "Ġteknik": 2742,
      "hane": 2743,
      "Ġiht": 2744,
      "FAD": 2745,
      "ĠÅŁÃ¼phel": 2746,
      "Ġboz": 2747,
      "ĠgÃ¶revlisi": 2748,
      "ĠsatÄ±n": 2749,
      "ĠsatÄ±ÅŁ": 2750,
      "Ġtahmin": 2751,
      "ĠeÅŁi": 2752,
      "eprem": 2753,
      "veriÅŁ": 2754,
      "ĠsokaÄŁa": 2755,
      "ĠTemmuz": 2756,
      "ĠKaram": 2757,
      "ĠgeniÅŁ": 2758,
      "ĠyargÄ±landÄ±ÄŁÄ±": 2759,
      "ĠDemokrat": 2760,
      "ĠtaÅŁÄ±yan": 2761,
      "ĠyÃ¼rÃ¼tÃ¼len": 2762,
      "ĠyaÄŁÄ±ÅŁlÄ±": 2763,
      "Ġkitap": 2764,
      "ĠYalÃ§Ä±n": 2765,
      "ederasyonu": 2766,
      "ĠbÃ¼yÃ¼klÃ¼ÄŁÃ¼ndeki": 2767,
      "Ġtakip": 2768,
      "ĠÅŁehit": 2769,
      "ĠTurkey": 2770,
      "Ġrehin": 2771,
      "ĠKadirova": 2772,
      "ĠalÄ±ÅŁveriÅŁ": 2773,
      "BeÅŁiktaÅŁ": 2774,
      "Siyaset": 2775,
      "Tr": 2776,
      "adi": 2777,
      "bey": 2778,
      "dal": 2779,
      "dÃ¼l": 2780,
      "ej": 2781,
      "gun": 2782,
      "gileri": 2783,
      "hlÄ±": 2784,
      "mez": 2785,
      "medi": 2786,
      "malÄ±": 2787,
      "ni": 2788,
      "noloji": 2789,
      "seri": 2790,
      "tin": 2791,
      "tÃ¼r": 2792,
      "xit": 2793,
      "ani": 2794,
      "antep": 2795,
      "Ã¼f": 2796,
      "ilin": 2797,
      "Ġbit": 2798,
      "Ġyine": 2799,
      "Ġyorum": 2800,
      "Ġkas": 2801,
      "Ġkans": 2802,
      "akat": 2803,
      "Ġses": 2804,
      "Ġsadece": 2805,
      "Ġgem": 2806,
      "Ġgecik": 2807,
      "ayarak": 2808,
      "asi": 2809,
      "ĠtaÅŁ": 2810,
      "esir": 2811,
      "uncu": 2812,
      "ĠBal": 2813,
      "Ġhen": 2814,
      "liÄŁini": 2815,
      "ĠAdana": 2816,
      "Ã¼resel": 2817,
      "ĠKasÄ±m": 2818,
      "ĠTV": 2819,
      "ĠÃ§eÅŁ": 2820,
      "ĠÃ§if": 2821,
      "ĠÃ§Ã¶z": 2822,
      "ĠSah": 2823,
      "ĠSuÃ§": 2824,
      "ĠSorumlu": 2825,
      "ikay": 2826,
      "ĠMur": 2827,
      "ĠMad": 2828,
      "Ġolmayan": 2829,
      "laoÄŁlu": 2830,
      "azine": 2831,
      "aba": 2832,
      "ĠGÃ¶r": 2833,
      "ollaoÄŁlu": 2834,
      "Ġyapacak": 2835,
      "ĠPen": 2836,
      "Ġalmak": 2837,
      "ceÄŁini": 2838,
      "ite": 2839,
      "Ġ24": 2840,
      "Ġ28": 2841,
      "Ä±rhlÄ±": 2842,
      "landa": 2843,
      "larÄ±mÄ±z": 2844,
      "ĠYavaÅŁ": 2845,
      "ĠYavuz": 2846,
      "Ġfin": 2847,
      "ĠaÃ§Ä±lan": 2848,
      "ĠaÃ§Ä±ldÄ±": 2849,
      "ĠCan": 2850,
      "Ġneler": 2851,
      "lenecek": 2852,
      "ĠbuluÅŁ": 2853,
      "Ġyarar": 2854,
      "ĠOn": 2855,
      "taj": 2856,
      "ĠayÄ±": 2857,
      "Ġengel": 2858,
      "Ġbinlerce": 2859,
      "ĠiÅŁlet": 2860,
      "Ġmillet": 2861,
      "Ġbelirlen": 2862,
      "Ġbile": 2863,
      "Ġ60": 2864,
      "Ġtoprak": 2865,
      "Ġkullanan": 2866,
      "Ġism": 2867,
      "ĠHaberleri": 2868,
      "Ġ70": 2869,
      "Ġpolitik": 2870,
      "Ġgiren": 2871,
      "ĠMÃ¼cadele": 2872,
      "rexit": 2873,
      "Ġserbest": 2874,
      "ĠÃ¶ldÃ¼ren": 2875,
      "ĠÃ¼ret": 2876,
      "ĠÃ¼rÃ¼n": 2877,
      "ĠÃľnlÃ¼": 2878,
      "ĠsÃ¶zleÅŁ": 2879,
      "Ġkriz": 2880,
      "Ġmeslek": 2881,
      "abileceÄŁini": 2882,
      "Ġseviy": 2883,
      "ĠsÄ±rada": 2884,
      "ĠProgram": 2885,
      "alÄ±kesir": 2886,
      "Ġmerkezinde": 2887,
      "ĠbaÅŁlatÄ±lan": 2888,
      "maris": 2889,
      "ĠAdalet": 2890,
      "ĠÅŁekl": 2891,
      "Ġsiyasi": 2892,
      "ĠAltunizade": 2893,
      "suzluk": 2894,
      "ĠgÃ¶rÃ¼ntÃ¼": 2895,
      "Ġkuzeyindeki": 2896,
      "Ġitfa": 2897,
      "ĠGazete": 2898,
      "aziantep": 2899,
      "ĠJohn": 2900,
      "ĠoÄŁlu": 2901,
      "ĠKuvvetleri": 2902,
      "Ġoturma": 2903,
      "ĠDoÄŁu": 2904,
      "ĠyaralandÄ±ÄŁÄ±": 2905,
      "Ġsonucunda": 2906,
      "ĠAhmet": 2907,
      "Ġmadde": 2908,
      "ĠoluÅŁan": 2909,
      "ĠsÃ¶ylem": 2910,
      "Ġiktidar": 2911,
      "ĠUlus": 2912,
      "ahÃ§eli": 2913,
      "ĠmaÄŁlup": 2914,
      "Ġherkes": 2915,
      "Ã¼mrÃ¼k": 2916,
      "ihbarat": 2917,
      "31": 2918,
      "Bor": 2919,
      "En": 2920,
      "TÃ¼rk": 2921,
      "Yeni": 2922,
      "eÄŁi": 2923,
      "form": 2924,
      "gesi": 2925,
      "kr": 2926,
      "kleri": 2927,
      "kale": 2928,
      "mur": 2929,
      "masÄ±nda": 2930,
      "muÅŁ": 2931,
      "oda": 2932,
      "pag": 2933,
      "sÄ±nÄ±": 2934,
      "tem": 2935,
      "tre": 2936,
      "anÄ±nÄ±n": 2937,
      "erim": 2938,
      "eng": 2939,
      "ilt": 2940,
      "ÄŁunu": 2941,
      "Ġbar": 2942,
      "alama": 2943,
      "ĠyaÄŁ": 2944,
      "ĠsÃ¶n": 2945,
      "Ã¶l": 2946,
      "irv": 2947,
      "ĠgÃ¼mrÃ¼k": 2948,
      "daÄŁ": 2949,
      "ele": 2950,
      "elen": 2951,
      "ayeti": 2952,
      "iya": 2953,
      "iyatÄ±": 2954,
      "Ġvil": 2955,
      "ĠBek": 2956,
      "ĠBur": 2957,
      "ĠBrexit": 2958,
      "ĠBahÃ§eli": 2959,
      "ĠdÃ¼k": 2960,
      "ĠdÃ¼ÅŁtÃ¼": 2961,
      "ordin": 2962,
      "Ġma": 2963,
      "Ġmu": 2964,
      "Ã¼ncÃ¼": 2965,
      "sta": 2966,
      "ĠKuzey": 2967,
      "ĠSal": 2968,
      "ĠMark": 2969,
      "ĠMiss": 2970,
      "ĠolmasÄ±": 2971,
      "ĠÄ°d": 2972,
      "ĠÄ°t": 2973,
      "anÄ±yor": 2974,
      "ĠEv": 2975,
      "umuz": 2976,
      "ĠGrup": 2977,
      "ĠHar": 2978,
      "ĠHer": 2979,
      "ĠHÃ¼s": 2980,
      "aha": 2981,
      "ĠPer": 2982,
      "ĠPort": 2983,
      "ĠaralarÄ±nda": 2984,
      "Ġfestiv": 2985,
      "ĠFÄ±rat": 2986,
      "avut": 2987,
      "Ġnit": 2988,
      "Ġettir": 2989,
      "adira": 2990,
      "ildiÄŁi": 2991,
      "omotiv": 2992,
      "ĠbaÅŁlÄ±k": 2993,
      "Ġgeliyor": 2994,
      "elerden": 2995,
      "ros": 2996,
      "Ġ31": 2997,
      "ĠÃ§Ä±kma": 2998,
      "manda": 2999,
      "ĠendiÅŁ": 3000,
      "Ġ200": 3001,
      "Ä±ldÄ±ÄŁÄ±nÄ±": 3002,
      "ĠdÃ¼zenlem": 3003,
      "ĠdÃ¼zenleyen": 3004,
      "Ġcan": 3005,
      "ansur": 3006,
      "Ġistem": 3007,
      "Ġbelirlendi": 3008,
      "ĠaÃ§Ä±klamasÄ±": 3009,
      "Ä±sÄ±yla": 3010,
      "Ġhakaret": 3011,
      "Ġkurtar": 3012,
      "Ġsorgul": 3013,
      "ĠbÃ¶yle": 3014,
      "neÄŁi": 3015,
      "arÄ±yla": 3016,
      "ekten": 3017,
      "ebilir": 3018,
      "ĠÃ¶ÄŁretmen": 3019,
      "ĠiliÅŁk": 3020,
      "Ġ2018": 3021,
      "Ġpropag": 3022,
      "Ġdahil": 3023,
      "ĠAlbay": 3024,
      "Ġnedenle": 3025,
      "ĠIn": 3026,
      "Ġsahte": 3027,
      "Ġekib": 3028,
      "Ġyollarla": 3029,
      "ĠolduÄŁuna": 3030,
      "Ġ100": 3031,
      "ĠbaÅŁkent": 3032,
      "ĠJandarma": 3033,
      "ĠmaÃ§ta": 3034,
      "ĠÄ°nsan": 3035,
      "ivil": 3036,
      "mazlÄ±k": 3037,
      "tikleri": 3038,
      "ĠadlÄ±": 3039,
      "ĠkÃ¶y": 3040,
      "ĠkÃ¶tÃ¼": 3041,
      "ĠÃ¼c": 3042,
      "miÅŁti": 3043,
      "Ġmerkezli": 3044,
      "ĠuÃ§ak": 3045,
      "Ġemekli": 3046,
      "Ġgitti": 3047,
      "ĠMarmaris": 3048,
      "ĠkÄ±rsal": 3049,
      "onspor": 3050,
      "ĠgÃ¶rÃ¼nt": 3051,
      "Ġriski": 3052,
      "ĠaÅŁam": 3053,
      "ĠsÄ±cak": 3054,
      "ĠKadÄ±n": 3055,
      "ĠiÃ§erisinde": 3056,
      "ĠGÃ¼ney": 3057,
      "ĠdeÄŁiÅŁiklik": 3058,
      "ĠborÃ§": 3059,
      "ĠyansÄ±dÄ±": 3060,
      "Ġciddi": 3061,
      "Ġtaleb": 3062,
      "ĠmÃ¼dahal": 3063,
      "ĠSaint": 3064,
      "ĠBaÅŁsavcÄ±lÄ±ÄŁÄ±": 3065,
      "ĠBÃ¶lge": 3066,
      "Ġbilinen": 3067,
      "ĠÅŀube": 3068,
      "ĠBaÅŁbakanÄ±": 3069,
      "ĠKomutanlÄ±ÄŁÄ±": 3070,
      "Ġtedavi": 3071,
      "indistan": 3072,
      "ullahÃ§Ä±": 3073,
      "abzonspor": 3074,
      "Ġdarbe": 3075,
      "ĠManisa": 3076,
      "ĠKonseyi": 3077,
      "Ġsebeb": 3078,
      "ĠFaruk": 3079,
      "Ġsahibi": 3080,
      "ĠÅŁiddet": 3081,
      "ĠKaramollaoÄŁlu": 3082,
      "ĠHÃ¼seyin": 3083,
      "Ġpropaganda": 3084,
      "Bu": 3085,
      "Bil": 3086,
      "Ph": 3087,
      "Par": 3088,
      "RT": 3089,
      "adÄ±ÄŁÄ±": 3090,
      "ber": 3091,
      "beti": 3092,
      "cil": 3093,
      "cut": 3094,
      "oÃ§": 3095,
      "pp": 3096,
      "pek": 3097,
      "ruk": 3098,
      "sen": 3099,
      "sinin": 3100,
      "we": 3101,
      "Ġap": 3102,
      "erma": 3103,
      "iner": 3104,
      "intÃ¼rk": 3105,
      "Ġbask": 3106,
      "alam": 3107,
      "Ġki": 3108,
      "ĠkÄ±": 3109,
      "Ġkir": 3110,
      "aka": 3111,
      "akta": 3112,
      "Ġspor": 3113,
      "iri": 3114,
      "Ġtaz": 3115,
      "ĠtÃ¼k": 3116,
      "Ġob": 3117,
      "dÄ±z": 3118,
      "esinden": 3119,
      "Ġitir": 3120,
      "ĠBin": 3121,
      "ĠBul": 3122,
      "Ġhar": 3123,
      "urken": 3124,
      "Ġman": 3125,
      "Ġmez": 3126,
      "Ġmahk": 3127,
      "Ä°zmir": 3128,
      "ĠÃ§et": 3129,
      "ĠMetin": 3130,
      "ĠMeteoroloji": 3131,
      "ĠMansur": 3132,
      "imdi": 3133,
      "ĠadÄ±": 3134,
      "eyne": 3135,
      "iÅŁehir": 3136,
      "tiÄŁini": 3137,
      "ĠDeprem": 3138,
      "Ã¼zde": 3139,
      "Ġper": 3140,
      "Ġpek": 3141,
      "Ġpazar": 3142,
      "ĠGemlik": 3143,
      "Ġyaparak": 3144,
      "ĠyapÄ±mÄ±": 3145,
      "ĠPut": 3146,
      "Ġara": 3147,
      "ĠalÄ±mÄ±": 3148,
      "ĠYÄ±ldÄ±z": 3149,
      "ĠFilm": 3150,
      "ĠFenerbahÃ§e": 3151,
      "avi": 3152,
      "ĠaÃ§Ä±": 3153,
      "alarÄ±n": 3154,
      "ĠgÃ¶rÃ¼ÅŁtÃ¼": 3155,
      "Ä±sÄ±ndan": 3156,
      "ĠyÄ±lÄ±": 3157,
      "ĠyÄ±ldÄ±z": 3158,
      "ĠbaÅŁar": 3159,
      "ĠzanlÄ±": 3160,
      "ĠRe": 3161,
      "ĠyaÅŁadÄ±": 3162,
      "Ġanda": 3163,
      "Ġanlam": 3164,
      "Ġgeri": 3165,
      "ĠkiÅŁiler": 3166,
      "ĠÃĩin": 3167,
      "araj": 3168,
      "ĠkonuÅŁtu": 3169,
      "ĠÃ§alÄ±ÅŁanÄ±": 3170,
      "ĠNur": 3171,
      "ĠNadira": 3172,
      "Ġdiy": 3173,
      "Ġbelirlenen": 3174,
      "Ġbelirten": 3175,
      "ÄŁretim": 3176,
      "ĠÅŀah": 3177,
      "Ġhakim": 3178,
      "Ġkurt": 3179,
      "rag": 3180,
      "ĠVer": 3181,
      "Ġtoplum": 3182,
      "ĠyÃ¶net": 3183,
      "Ġdeplas": 3184,
      "ersin": 3185,
      "Ġyakalan": 3186,
      "malarÄ±": 3187,
      "latform": 3188,
      "Ġgider": 3189,
      "Ġevde": 3190,
      "ĠyanÄ±nda": 3191,
      "ĠattÄ±": 3192,
      "Ġcev": 3193,
      "ĠsahasÄ±nda": 3194,
      "Ġyolcu": 3195,
      "ĠÃ¶ÄŁrenc": 3196,
      "ĠÃ¶ÄŁrencisi": 3197,
      "Ġaktar": 3198,
      "ĠKurul": 3199,
      "ĠÃ§eken": 3200,
      "ĠhavanÄ±n": 3201,
      "Ġyazar": 3202,
      "ĠyazarÄ±": 3203,
      "ĠhazÄ±rlanan": 3204,
      "ĠdoÄŁum": 3205,
      "ĠaltÄ±na": 3206,
      "ĠdavanÄ±n": 3207,
      "ĠÃ¶rgÃ¼tÃ¼ne": 3208,
      "Ġekiplerince": 3209,
      "2019": 3210,
      "Ġgazetesi": 3211,
      "Ġgazetec": 3212,
      "ĠKoruma": 3213,
      "ĠÃ¼yeleri": 3214,
      "ĠdolayÄ±": 3215,
      "ĠsanÄ±k": 3216,
      "lanÄ±yor": 3217,
      "Ã¼venli": 3218,
      "Ġizin": 3219,
      "ĠBilim": 3220,
      "ĠBilecik": 3221,
      "Ġhesap": 3222,
      "ĠSerintÃ¼rk": 3223,
      "ĠHakan": 3224,
      "ĠgÃ¼Ã§lÃ¼": 3225,
      "ĠyapÄ±lacak": 3226,
      "Ġedecek": 3227,
      "Ġetkinlik": 3228,
      "ĠÃ¼nlÃ¼": 3229,
      "ĠolmadÄ±ÄŁÄ±nÄ±": 3230,
      "ĠmÃ¼dahale": 3231,
      "ĠOtomotiv": 3232,
      "anakkale": 3233,
      "ĠhaftasÄ±nda": 3234,
      "Ġkilogram": 3235,
      "Ġekonomik": 3236,
      "ĠKredi": 3237,
      "ĠtalimatÄ±yla": 3238,
      "ĠBankasÄ±": 3239,
      "Ġihrac": 3240,
      "Ġhaberimizde": 3241,
      "ĠÃ¼niversite": 3242,
      "Ġintihar": 3243,
      "ĠhenÃ¼z": 3244,
      "ĠÃ§eÅŁit": 3245,
      "ĠSuÃ§larla": 3246,
      "ĠJohnson": 3247,
      "kray": 3248,
      "ĠsÃ¶ndÃ¼r": 3249,
      "ĠAlbayrak": 3250,
      "ĠÃ¼cret": 3251,
      "ĠkÄ±rsalÄ±nda": 3252,
      "ermain": 3253,
      "Ġmahkum": 3254,
      "eynep": 3255,
      "ĠPutin": 3256,
      "AR": 3257,
      "GM": 3258,
      "HDP": 3259,
      "br": 3260,
      "bac": 3261,
      "com": 3262,
      "fi": 3263,
      "gu": 3264,
      "he": 3265,
      "hi": 3266,
      "ij": 3267,
      "iir": 3268,
      "idan": 3269,
      "jit": 3270,
      "kÄ±r": 3271,
      "mat": 3272,
      "oin": 3273,
      "ode": 3274,
      "pr": 3275,
      "ron": 3276,
      "sÄ±n": 3277,
      "sik": 3278,
      "sanÄ±": 3279,
      "tÃ¶r": 3280,
      "ug": 3281,
      "Ġus": 3282,
      "anya": 3283,
      "andÄ±ÄŁÄ±": 3284,
      "anacak": 3285,
      "erji": 3286,
      "ÄŁÄ±ndan": 3287,
      "ĠbÃ¼y": 3288,
      "Ġbaraj": 3289,
      "akÅŁehir": 3290,
      "Ġsak": 3291,
      "ĠsanÄ±": 3292,
      "Ġsig": 3293,
      "Ġsefer": 3294,
      "Ã¶beti": 3295,
      "irdaÄŁ": 3296,
      "daj": 3297,
      "etbol": 3298,
      "etrol": 3299,
      "ayÄ±s": 3300,
      "asÄ±ndan": 3301,
      "diÄŁini": 3302,
      "dimir": 3303,
      "ekret": 3304,
      "Ġter": 3305,
      "Ġtaban": 3306,
      "ĠtÃ¶ren": 3307,
      "athan": 3308,
      "amet": 3309,
      "Ġhiss": 3310,
      "urfa": 3311,
      "ĠAdasÄ±": 3312,
      "orlu": 3313,
      "emen": 3314,
      "emek": 3315,
      "emiz": 3316,
      "emesi": 3317,
      "Ä°K": 3318,
      "Ä°n": 3319,
      "Ä°Ã§iÅŁleri": 3320,
      "ĠTak": 3321,
      "ĠTRT": 3322,
      "ĠÃ§at": 3323,
      "ĠSoy": 3324,
      "ĠSekret": 3325,
      "ĠMHP": 3326,
      "Ġiler": 3327,
      "Ġadet": 3328,
      "ladimir": 3329,
      "ĠDÃ¼n": 3330,
      "ĠEmek": 3331,
      "ĠEYT": 3332,
      "ĠÃ¶de": 3333,
      "ĠGaziantep": 3334,
      "ĠHaf": 3335,
      "ĠyapÄ±yor": 3336,
      "ĠPSG": 3337,
      "ĠarasÄ±": 3338,
      "Ġ29": 3339,
      "Ã¼lendi": 3340,
      "aciz": 3341,
      "Ġsondaj": 3342,
      "ĠÅŁah": 3343,
      "ĠÅŁof": 3344,
      "omet": 3345,
      "ĠbaÅŁta": 3346,
      "ĠbaÅŁlandÄ±": 3347,
      "ĠbaÅŁlÄ±yor": 3348,
      "elerde": 3349,
      "Ġederek": 3350,
      "Ġedilmesi": 3351,
      "ĠOy": 3352,
      "ĠÃ§Ä±karak": 3353,
      "ĠyaÅŁÄ±nda": 3354,
      "ĠyaÅŁandÄ±": 3355,
      "Ġrahat": 3356,
      "ĠkiÅŁiyi": 3357,
      "anlÄ±urfa": 3358,
      "ĠbinanÄ±n": 3359,
      "ĠsÃ¼rdÃ¼": 3360,
      "ĠdÃ¼zenlenecek": 3361,
      "ĠcanlÄ±": 3362,
      "Ġ42": 3363,
      "Ġkalma": 3364,
      "ĠaÃ§Ä±klamaya": 3365,
      "lemek": 3366,
      "rail": 3367,
      "ĠVladimir": 3368,
      "ĠkarÅŁÄ±lÄ±k": 3369,
      "Ġ600": 3370,
      "Ġsorum": 3371,
      "Ġdurdur": 3372,
      "ĠduraÄŁÄ±nda": 3373,
      "ektir": 3374,
      "ĠUy": 3375,
      "ĠilÃ§esindeki": 3376,
      "etici": 3377,
      "ĠmÃ¼cade": 3378,
      "ĠkatÄ±lan": 3379,
      "ĠbaÅŁkanlÄ±": 3380,
      "ĠAraÅŁtÄ±r": 3381,
      "ĠdÃ¼ÅŁÃ¼n": 3382,
      "Ġgerekiyor": 3383,
      "ĠedildiÄŁine": 3384,
      "ĠZeynep": 3385,
      "Ġsermay": 3386,
      "Ġservis": 3387,
      "ĠkarÅŁÄ±ya": 3388,
      "eform": 3389,
      "Ġkaza": 3390,
      "ĠBaÅŁakÅŁehir": 3391,
      "ĠÄ°lÃ§e": 3392,
      "Ġikna": 3393,
      "ĠkÃ¶t": 3394,
      "ĠOrhan": 3395,
      "Ġbeklenen": 3396,
      "Antalya": 3397,
      "ĠÃ§alÄ±ÅŁmalarÄ±": 3398,
      "Ġsaatlerinde": 3399,
      "sizlik": 3400,
      "ĠTeknoloji": 3401,
      "ĠyayÄ±nlanan": 3402,
      "ĠEsper": 3403,
      "AKP": 3404,
      "ĠÅŁirketi": 3405,
      "Ġyetkil": 3406,
      "ĠkonuÅŁan": 3407,
      "ĠtoplantÄ±sÄ±nda": 3408,
      "Ġulus": 3409,
      "tifak": 3410,
      "Ġkomed": 3411,
      "ĠkapatÄ±ldÄ±": 3412,
      "ĠeleÅŁtirdi": 3413,
      "anyasÄ±": 3414,
      "ĠkuruluÅŁ": 3415,
      "Ġcezaev": 3416,
      "Ġmalz": 3417,
      "Ġtalep": 3418,
      "ĠormanlÄ±k": 3419,
      "ĠyoÄŁunluk": 3420,
      "abancÄ±": 3421,
      "ĠdÃ¼ÅŁÃ¼rÃ¼l": 3422,
      "ĠÃ¶zgÃ¼rlÃ¼ÄŁÃ¼": 3423,
      "ĠbasÄ±n": 3424,
      "Ġhamile": 3425,
      "Ġmemur": 3426,
      "ĠDurum": 3427,
      "ĠKaradeniz": 3428,
      "ĠDerneÄŁi": 3429,
      "ĠinÅŁaat": 3430,
      "Ġindirim": 3431,
      "Ġelektrik": 3432,
      "ĠMaliye": 3433,
      "Ġeyaletinde": 3434,
      "Ġbirincisi": 3435,
      "GÃ¼ncel": 3436,
      "errahpaÅŁa": 3437,
      "ĠÃľnlÃ¼oÄŁlu": 3438,
      "ĠProgramÄ±": 3439,
      "ĠUluslararasÄ±": 3440,
      "Borsa": 3441,
      "irvesi": 3442,
      "Ġvilayet": 3443,
      "ĠgÃ¶rÃ¼ntÃ¼lendi": 3444,
      "ruklu": 3445,
      "Ġapart": 3446,
      "Ġtazmin": 3447,
      "ĠÅŀahin": 3448,
      "krayna": 3449,
      "Ġusul": 3450,
      "ĠÅŁofÃ¶r": 3451,
      "16": 3452,
      "AS": 3453,
      "Ek": 3454,
      "Konya": 3455,
      "MuÄŁla": 3456,
      "PG": 3457,
      "Pen": 3458,
      "dak": 3459,
      "dilli": 3460,
      "eo": 3461,
      "fÄ±": 3462,
      "gar": 3463,
      "iti": 3464,
      "kÃ¼n": 3465,
      "ktan": 3466,
      "kÃ¶y": 3467,
      "kiÅŁehir": 3468,
      "lesi": 3469,
      "lulu": 3470,
      "mit": 3471,
      "meni": 3472,
      "meyen": 3473,
      "mesinin": 3474,
      "meyi": 3475,
      "nu": 3476,
      "sat": 3477,
      "sÃ¼z": 3478,
      "tor": 3479,
      "teki": 3480,
      "yu": 3481,
      "yat": 3482,
      "yalÄ±": 3483,
      "are": 3484,
      "ary": 3485,
      "Ä±nan": 3486,
      "enaz": 3487,
      "ÄŁinde": 3488,
      "ĠbeÅŁ": 3489,
      "aln": 3490,
      "ĠkÃ¼Ã§Ã¼k": 3491,
      "akal": 3492,
      "Ġsin": 3493,
      "Ġsav": 3494,
      "Ġsuyu": 3495,
      "Ġgiy": 3496,
      "Ġgece": 3497,
      "elÃ§": 3498,
      "Ġtab": 3499,
      "iyan": 3500,
      "ĠiPh": 3501,
      "atik": 3502,
      "atÃ¼rk": 3503,
      "ĠhÃ¼k": 3504,
      "Ä±lacak": 3505,
      "Ä±lmÄ±ÅŁ": 3506,
      "ĠAÃ§": 3507,
      "ĠAFAD": 3508,
      "Ġdal": 3509,
      "Ġmin": 3510,
      "Ġmas": 3511,
      "ĠmeÅŁ": 3512,
      "Ġmekt": 3513,
      "Ġmode": 3514,
      "Ä°s": 3515,
      "ĠTab": 3516,
      "ĠTerim": 3517,
      "ĠÃ§al": 3518,
      "ĠSem": 3519,
      "ĠSav": 3520,
      "ĠSilivri": 3521,
      "ĠMahal": 3522,
      "led": 3523,
      "Ġbirinci": 3524,
      "imoÄŁlu": 3525,
      "immat": 3526,
      "Ġaile": 3527,
      "ĠEÄŁitim": 3528,
      "Ġplatform": 3529,
      "abet": 3530,
      "ĠGÃ¶z": 3531,
      "ĠHÃ¼kÃ¼m": 3532,
      "ĠHizmet": 3533,
      "Ġyapar": 3534,
      "ĠalÄ±yor": 3535,
      "ceÄŁi": 3536,
      "oÄŁaz": 3537,
      "Ä±rken": 3538,
      "acÄ±": 3539,
      "Ġfay": 3540,
      "Ġfor": 3541,
      "ĠiÃ§ki": 3542,
      "okat": 3543,
      "ĠCh": 3544,
      "ĠÅŁans": 3545,
      "ilerinin": 3546,
      "lenme": 3547,
      "Ä±sÄ±nÄ±n": 3548,
      "Ġbuldu": 3549,
      "ĠbaÅŁÄ±na": 3550,
      "Ġedil": 3551,
      "Ġedilmek": 3552,
      "Ġederken": 3553,
      "ĠÃ¶nlem": 3554,
      "Ġvergileri": 3555,
      "Ġyaral": 3556,
      "ruh": 3557,
      "Ġ36": 3558,
      "ĠaylÄ±k": 3559,
      "Ġ51": 3560,
      "Ġ52": 3561,
      "ĠResmi": 3562,
      "ÄŁust": 3563,
      "Ã¼mÃ¼z": 3564,
      "Ã¼mkÃ¼n": 3565,
      "esindeki": 3566,
      "Ġresmi": 3567,
      "laÅŁtÄ±r": 3568,
      "iyorlar": 3569,
      "ilmesine": 3570,
      "ĠLond": 3571,
      "ĠdÃ¼zensiz": 3572,
      "ĠdÃ¼zenlendi": 3573,
      "ĠdÃ¼zenlediÄŁi": 3574,
      "Ġcilt": 3575,
      "med": 3576,
      "ĠkadÄ±nÄ±n": 3577,
      "kenin": 3578,
      "iste": 3579,
      "Ġkalan": 3580,
      "ĠkaldÄ±ÄŁÄ±": 3581,
      "Ġkurdu": 3582,
      "ĠkuruÅŁ": 3583,
      "ĠkarÅŁÄ±sÄ±na": 3584,
      "ĠuyarÄ±": 3585,
      "Ġuyruklu": 3586,
      "endik": 3587,
      "ĠAkÄ±ÅŁ": 3588,
      "otik": 3589,
      "Ä±lÄ±yor": 3590,
      "ĠAvcÄ±lar": 3591,
      "Ġhayvan": 3592,
      "Ġetkilen": 3593,
      "ĠhakkÄ±nÄ±n": 3594,
      "ĠhakkÄ±ndaki": 3595,
      "Ġcep": 3596,
      "Ġsahne": 3597,
      "Ġyolsuzluk": 3598,
      "Ġalanda": 3599,
      "ĠdÃ¼ÅŁmesi": 3600,
      "Ġgerekli": 3601,
      "ĠsaldÄ±rgan": 3602,
      "leÅŁmiÅŁ": 3603,
      "ĠZirvesi": 3604,
      "ĠkaÃ§Ä±n": 3605,
      "rid": 3606,
      "Ġcinayeti": 3607,
      "ĠYargÄ±": 3608,
      "ĠÃ¶ldÃ¼rÃ¼ldÃ¼": 3609,
      "Ġlist": 3610,
      "ĠterÃ¶ristin": 3611,
      "ĠyÃ¼klÃ¼": 3612,
      "ĠMÃ¼dÃ¼rÃ¼": 3613,
      "Ġadalet": 3614,
      "ĠgÃ¼venli": 3615,
      "lendirme": 3616,
      "Ġeroin": 3617,
      "mamasÄ±": 3618,
      "ĠkimliÄŁi": 3619,
      "ĠkullandÄ±ÄŁÄ±": 3620,
      "ĠkaybettiÄŁi": 3621,
      "Ġbakan": 3622,
      "Ġhemen": 3623,
      "ĠÃ§Ä±kardÄ±": 3624,
      "Ġuygulan": 3625,
      "Ġyetk": 3626,
      "Ġkilomet": 3627,
      "Ġemniyet": 3628,
      "Ġgitmek": 3629,
      "Ġhastanede": 3630,
      "ĠvatandaÅŁlar": 3631,
      "ĠgeliÅŁtir": 3632,
      "Ġkoordin": 3633,
      "ĠaraÅŁtÄ±rma": 3634,
      "Ġisimli": 3635,
      "Ġittifak": 3636,
      "ĠAtilla": 3637,
      "ĠkomÅŁ": 3638,
      "ĠKandilli": 3639,
      "ĠgerÃ§ekleÅŁti": 3640,
      "Ġpersoneli": 3641,
      "ĠÃĸzellikle": 3642,
      "Ġjandarma": 3643,
      "ĠFransÄ±z": 3644,
      "ĠDenizi": 3645,
      "ĠOktar": 3646,
      "Ġcinayetinin": 3647,
      "Ġkamyonet": 3648,
      "siniz": 3649,
      "Ġfutbolcu": 3650,
      "ĠBaÅŁbakan": 3651,
      "Ġnokt": 3652,
      "ĠgÃ¼ndeme": 3653,
      "ĠmÃ¼himmat": 3654,
      "ĠRasimoÄŁlu": 3655,
      "Ġtatil": 3656,
      "Ġtrafik": 3657,
      "Ġpaket": 3658,
      "ĠHarekatÄ±": 3659,
      "ĠYapÄ±lan": 3660,
      "Ġtehdit": 3661,
      "ĠbombalÄ±": 3662,
      "ĠÃ§Ã¶kme": 3663,
      "ĠÄ°rlanda": 3664,
      "ĠMadrid": 3665,
      "ĠdÃ¼kkan": 3666,
      "ĠPortakal": 3667,
      "Ġfestival": 3668,
      "ĠpropagandasÄ±nÄ±": 3669,
      "bach": 3670,
      "ĠSekreter": 3671,
      "ĠiPhone": 3672,
      "ĠLondra": 3673,
      "..": 3674,
      "30": 3675,
      "75": 3676,
      "Ar": 3677,
      "AÅŀ": 3678,
      "Bey": 3679,
      "DiyarbakÄ±r": 3680,
      "DÄ±ÅŁiÅŁleri": 3681,
      "EO": 3682,
      "Es": 3683,
      "EYT": 3684,
      "FF": 3685,
      "Germain": 3686,
      "PD": 3687,
      "SO": 3688,
      "Sur": 3689,
      "TBMM": 3690,
      "ain": 3691,
      "air": 3692,
      "biyet": 3693,
      "do": 3694,
      "don": 3695,
      "dbach": 3696,
      "for": 3697,
      "gÃ¶r": 3698,
      "hendis": 3699,
      "iden": 3700,
      "ice": 3701,
      "kten": 3702,
      "klerini": 3703,
      "lok": 3704,
      "mesinde": 3705,
      "meli": 3706,
      "muyor": 3707,
      "noloj": 3708,
      "oÅŁ": 3709,
      "qu": 3710,
      "rum": 3711,
      "su": 3712,
      "sÄ±na": 3713,
      "sman": 3714,
      "tur": 3715,
      "Ġ&": 3716,
      "Ġum": 3717,
      "anÄ±k": 3718,
      "inÃ§": 3719,
      "ÅŁe": 3720,
      "enÃ§": 3721,
      "Ġbah": 3722,
      "Ġbunun": 3723,
      "ĠyanlÄ±": 3724,
      "ĠyabancÄ±": 3725,
      "Ġkut": 3726,
      "ĠkÃ¼ltÃ¼r": 3727,
      "akam": 3728,
      "Ġsel": 3729,
      "Ġsavunma": 3730,
      "elin": 3731,
      "iyiz": 3732,
      "Ġvel": 3733,
      "Ġvizyon": 3734,
      "atif": 3735,
      "ĠhatÄ±r": 3736,
      "Ġhikay": 3737,
      "lerimiz": 3738,
      "Ġdil": 3739,
      "Ġdile": 3740,
      "ĠmÃ¼mkÃ¼n": 3741,
      "ĠKam": 3742,
      "ĠTat": 3743,
      "ĠTim": 3744,
      "ĠÃ§avuÅŁ": 3745,
      "ĠSarÄ±": 3746,
      "ĠSistem": 3747,
      "ĠSig": 3748,
      "ĠSultan": 3749,
      "iklet": 3750,
      "ĠMÃ¶n": 3751,
      "ĠMart": 3752,
      "ĠMuÄŁla": 3753,
      "ĠMÄ°T": 3754,
      "Ġbirim": 3755,
      "Ġbirinin": 3756,
      "imin": 3757,
      "ladbach": 3758,
      "tÄ±ÄŁÄ±nÄ±": 3759,
      "ĠÄ°k": 3760,
      "ĠDÃ¶n": 3761,
      "Ġpan": 3762,
      "Ġpart": 3763,
      "ĠeÄŁitim": 3764,
      "ĠGÄ±da": 3765,
      "ĠHal": 3766,
      "ĠHol": 3767,
      "ĠyapÄ±": 3768,
      "ĠyapmasÄ±": 3769,
      "ĠyapÄ±ldÄ±ÄŁÄ±": 3770,
      "ĠalÄ±m": 3771,
      "madan": 3772,
      "lanarak": 3773,
      "acÄ±lÄ±k": 3774,
      "ĠYan": 3775,
      "ĠYor": 3776,
      "Ġfuh": 3777,
      "Ġfrag": 3778,
      "ĠFidan": 3779,
      "ĠaÃ§Ä±lmasÄ±": 3780,
      "ĠÅŁar": 3781,
      "ĠÅŁampiyon": 3782,
      "ilerden": 3783,
      "ussi": 3784,
      "ĠyÄ±la": 3785,
      "ĠyÄ±llarda": 3786,
      "ezya": 3787,
      "ukuk": 3788,
      "Ġtarif": 3789,
      "ĠOsman": 3790,
      "Ã¼ye": 3791,
      "ediyor": 3792,
      "Ġ56": 3793,
      "ĠzÄ±rhlÄ±": 3794,
      "ĠRuh": 3795,
      "Ġrakam": 3796,
      "ĠkiÅŁisel": 3797,
      "ĠgeÃ§it": 3798,
      "osk": 3799,
      "ilmiÅŁ": 3800,
      "ehan": 3801,
      "ĠLav": 3802,
      "ĠsÃ¼rÃ¼len": 3803,
      "ĠNark": 3804,
      "eÅŁme": 3805,
      "Ġmilletvek": 3806,
      "Ġkadros": 3807,
      "Ġistendi": 3808,
      "Ġistif": 3809,
      "ĠyÃ¼zden": 3810,
      "Ġkayy": 3811,
      "ĠoranÄ±": 3812,
      "Ġorta": 3813,
      "ĠAnayasa": 3814,
      "Ġelde": 3815,
      "lemeye": 3816,
      "ĠÅŀans": 3817,
      "ĠVeter": 3818,
      "ĠtoplandÄ±": 3819,
      "ĠkapÄ±": 3820,
      "Ġoyna": 3821,
      "ĠkatÄ±ldÄ±ÄŁÄ±": 3822,
      "ĠBaÅŁkanlÄ±": 3823,
      "masÄ±ndan": 3824,
      "ĠÃľyesi": 3825,
      "Ġyandan": 3826,
      "Ġetkili": 3827,
      "ĠgÃ¶steren": 3828,
      "Ä±yordu": 3829,
      "ĠdÃ¶ner": 3830,
      "ĠMÃ¼hendis": 3831,
      "ĠdÃ¼ÅŁÃ¼nÃ¼": 3832,
      "ĠÃ¶ldÃ¼": 3833,
      "Ġgetiren": 3834,
      "menin": 3835,
      "ĠÃ§ekti": 3836,
      "artal": 3837,
      "artesi": 3838,
      "ĠÃ¼lkenin": 3839,
      "Ġpolisi": 3840,
      "ĠkaÃ§an": 3841,
      "hangi": 3842,
      "ĠhazÄ±rladÄ±": 3843,
      "ĠdoÄŁr": 3844,
      "ĠdoÄŁusuna": 3845,
      "Ġazalt": 3846,
      "ĠaltÄ±ndaki": 3847,
      "Ġkazan": 3848,
      "ĠsaÄŁanak": 3849,
      "Ġyasak": 3850,
      "ĠyasaÄŁÄ±": 3851,
      "Ġlitre": 3852,
      "ĠKonya": 3853,
      "ĠterÃ¶ristten": 3854,
      "Ġtarihleri": 3855,
      "Ġkrizi": 3856,
      "Ġmesel": 3857,
      "ĠOrta": 3858,
      "ĠdÄ±ÅŁÄ±nda": 3859,
      "ĠKorkut": 3860,
      "Ġkimdir": 3861,
      "Ġherhangi": 3862,
      "Anayasa": 3863,
      "general": 3864,
      "ilahlÄ±": 3865,
      "ETT": 3866,
      "Ãľn": 3867,
      "ĠdolandÄ±r": 3868,
      "uvar": 3869,
      "ĠÃ§arptÄ±": 3870,
      "ĠTrabzonspor": 3871,
      "ĠsoruÅŁturmasÄ±": 3872,
      "ĠTekirdaÄŁ": 3873,
      "ganistan": 3874,
      "ĠbaÅŁlattÄ±": 3875,
      "ĠBilal": 3876,
      "ĠAdnan": 3877,
      "Ġzorla": 3878,
      "ĠCumhuriyeti": 3879,
      "ĠdÃ¶neminde": 3880,
      "ĠkaldÄ±rÄ±lan": 3881,
      "ĠkaldÄ±rÄ±ldÄ±": 3882,
      "ĠtamamladÄ±": 3883,
      "ĠDemir": 3884,
      "okrasi": 3885,
      "tifakÄ±": 3886,
      "ĠgÃ¶sterilerde": 3887,
      "Ġeylemi": 3888,
      "cheng": 3889,
      "Ġkork": 3890,
      "Ġihlali": 3891,
      "Ġhaneye": 3892,
      "ĠDeniz": 3893,
      "izmeti": 3894,
      "Ġmakam": 3895,
      "Ġbelediy": 3896,
      "Ġannesi": 3897,
      "ĠGÃ¶Ã§": 3898,
      "ĠUzmanÄ±": 3899,
      "Ġsokakta": 3900,
      "Ġdetaylar": 3901,
      "ĠaÃ§Ä±lÄ±ÅŁ": 3902,
      "Ġdokun": 3903,
      "Ġtasla": 3904,
      "ĠGÃ¶kÃ§ek": 3905,
      "ĠKalkan": 3906,
      "ĠHava": 3907,
      "ĠÃ§aÄŁrÄ±sÄ±": 3908,
      "ĠSimay": 3909,
      "ĠHatay": 3910,
      "ĠÃĩalÄ±ÅŁma": 3911,
      "Ġbalistik": 3912,
      "ĠBaÅŁkonsolosluÄŁu": 3913,
      "ĠÃ§arptÄ±rÄ±ldÄ±": 3914,
      "Ġlise": 3915,
      "Ġolumsuz": 3916,
      "ĠÃ§ift": 3917,
      "ĠÃ§Ã¶zÃ¼m": 3918,
      "ĠSahil": 3919,
      "ĠMurat": 3920,
      "ĠÅŁeklinde": 3921,
      "Ġitfaiye": 3922,
      "ĠyaÄŁmur": 3923,
      "ĠÄ°ttifakÄ±": 3924,
      "Ġitiraf": 3925,
      "Ġdeplasmanda": 3926,
      "Ġihracat": 3927,
      "ĠsÃ¶ndÃ¼rÃ¼ldÃ¼": 3928,
      "ĠbaÅŁkanlÄ±ÄŁÄ±nda": 3929,
      "Ġkomedyen": 3930,
      "ĠusulsÃ¼z": 3931,
      "ĠSemih": 3932,
      "ĠSavaÅŁÄ±": 3933,
      "ÄŁustos": 3934,
      "ĠMÃ¶ncheng": 3935,
      "ĠfuhuÅŁ": 3936,
      "ussia": 3937,
      "ĠNarkotik": 3938,
      "Ġmilletvekil": 3939,
      "ĠVeteriner": 3940,
      "ĠMÃ¶nchengladbach": 3941,
      "70": 3942,
      "FenerbahÃ§e": 3943,
      "Kuzey": 3944,
      "MF": 3945,
      "PKK": 3946,
      "barÄ±yla": 3947,
      "dy": 3948,
      "egen": 3949,
      "federasyonu": 3950,
      "gisi": 3951,
      "ha": 3952,
      "ham": 3953,
      "iÄŁ": 3954,
      "kap": 3955,
      "kol": 3956,
      "kÃ§a": 3957,
      "mÃ¼ÅŁ": 3958,
      "nek": 3959,
      "pol": 3960,
      "ry": 3961,
      "ren": 3962,
      "rken": 3963,
      "sini": 3964,
      "sev": 3965,
      "vik": 3966,
      "ze": 3967,
      "zet": 3968,
      "Ġle": 3969,
      "inc": 3970,
      "ÅŁk": 3971,
      "enen": 3972,
      "ÄŁÄ±nÄ±n": 3973,
      "Ġbun": 3974,
      "Ġbeni": 3975,
      "Ġbilm": 3976,
      "Ġbunu": 3977,
      "Ġbank": 3978,
      "Ġblok": 3979,
      "Ġyaln": 3980,
      "ĠkÃ¶r": 3981,
      "Ġkorum": 3982,
      "ded": 3983,
      "akter": 3984,
      "akfÄ±": 3985,
      "Ġsivil": 3986,
      "iraat": 3987,
      "elim": 3988,
      "ayen": 3989,
      "ayÄ±sÄ±yla": 3990,
      "dik": 3991,
      "eks": 3992,
      "ona": 3993,
      "Ġtav": 3994,
      "Ġof": 3995,
      "iyeli": 3996,
      "Ġvuru": 3997,
      "ĠBas": 3998,
      "amidi": 3999,
      "Ġhizmeti": 4000,
      "urk": 4001,
      "uro": 4002,
      "lib": 4003,
      "ĠAda": 4004,
      "ĠAile": 4005,
      "ĠdÃ¶": 4006,
      "Ġdir": 4007,
      "ĠdanÄ±ÅŁ": 4008,
      "Ġmik": 4009,
      "Ä°M": 4010,
      "ĠKol": 4011,
      "ĠKup": 4012,
      "ĠKartal": 4013,
      "ĠTI": 4014,
      "ĠÃ§ap": 4015,
      "ĠSoz": 4016,
      "ĠMÃ¼z": 4017,
      "ĠMic": 4018,
      "ĠMid": 4019,
      "Ġilde": 4020,
      "ĠbirkaÃ§": 4021,
      "Ġolursa": 4022,
      "laz": 4023,
      "iÅŁisel": 4024,
      "iÅŁare": 4025,
      "ĠÄ°Ã§": 4026,
      "ĠÄ°li": 4027,
      "ĠÄ°talya": 4028,
      "tiÄŁimiz": 4029,
      "azlÄ±": 4030,
      "ĠElif": 4031,
      "ĠÃ¶len": 4032,
      "ĠÃ¶dÃ¼l": 4033,
      "ĠGi": 4034,
      "ĠGri": 4035,
      "ĠGÃ¼nÃ¼": 4036,
      "ĠPazar": 4037,
      "ĠPomp": 4038,
      "Ġaraya": 4039,
      "ĠalÄ±nÄ±": 4040,
      "oÄŁu": 4041,
      "acÄ±k": 4042,
      "ĠYurt": 4043,
      "ĠYÃ¼zde": 4044,
      "luÄŁ": 4045,
      "Ã¼ketici": 4046,
      "ĠFer": 4047,
      "ave": 4048,
      "Ġsonu": 4049,
      "ĠaÃ§tÄ±ÄŁÄ±": 4050,
      "ĠCam": 4051,
      "ĠÅŁimdi": 4052,
      "ĠgÃ¶rÃ¼len": 4053,
      "aÄŁÄ±n": 4054,
      "evi": 4055,
      "Ġkarakter": 4056,
      "akistan": 4057,
      "elerinde": 4058,
      "ukatÄ±": 4059,
      "ĠÃ¶nÃ¼ne": 4060,
      "ĠgÃ¶tÃ¼r": 4061,
      "Ġvergi": 4062,
      "Ġverirken": 4063,
      "ĠyaralÄ±": 4064,
      "ĠyardÄ±mcÄ±sÄ±": 4065,
      "ĠOperasyon": 4066,
      "ĠOlay": 4067,
      "dirne": 4068,
      "rov": 4069,
      "Ã¼yÃ¼ÅŁ": 4070,
      "rub": 4071,
      "Ġ300": 4072,
      "ediÄŁini": 4073,
      "ĠgÃ¼nÃ¼nde": 4074,
      "ĠgÃ¼nlÃ¼k": 4075,
      "Ã¼me": 4076,
      "Ġanlar": 4077,
      "ĠgeÃ§miÅŁ": 4078,
      "ĠÃĩavuÅŁ": 4079,
      "ĠÃĩanakkale": 4080,
      "ĠÃĩorlu": 4081,
      "Ġkonut": 4082,
      "ĠBakanlÄ±": 4083,
      "tedir": 4084,
      "makta": 4085,
      "ĠsÃ¼ren": 4086,
      "ĠsÃ¼rdÃ¼ÄŁÃ¼": 4087,
      "ĠiÅŁsizlik": 4088,
      "ĠdÃ¼zenledi": 4089,
      "Ġces": 4090,
      "Ġcenaz": 4091,
      "ĠolanlarÄ±n": 4092,
      "Ġkalp": 4093,
      "Ġbilet": 4094,
      "ĠAncak": 4095,
      "ĠVatandaÅŁ": 4096,
      "ĠVakÄ±": 4097,
      "ĠVakfÄ±": 4098,
      "Ġ69": 4099,
      "ĠkulÃ¼p": 4100,
      "ĠUkrayna": 4101,
      "Ġgidiyor": 4102,
      "eticiler": 4103,
      "oyo": 4104,
      "ĠÃľr": 4105,
      "ĠyapÄ±landÄ±r": 4106,
      "Ġyang": 4107,
      "Ġhastal": 4108,
      "Ġgirecek": 4109,
      "ĠIMF": 4110,
      "atÄ±cÄ±": 4111,
      "Ġtesisine": 4112,
      "ĠBelen": 4113,
      "tirme": 4114,
      "ĠZel": 4115,
      "Ġpolisin": 4116,
      "ĠyazdÄ±": 4117,
      "ĠyazÄ±larÄ±": 4118,
      "Ġtakv": 4119,
      "ĠdoÄŁal": 4120,
      "vekili": 4121,
      "Ġekran": 4122,
      "Ġdurumunun": 4123,
      "ĠÃ¼lkede": 4124,
      "ĠÃ¼lkesinin": 4125,
      "Ġyasama": 4126,
      "Ġdost": 4127,
      "ĠKonfederasyonu": 4128,
      "leyman": 4129,
      "Ġduydu": 4130,
      "Ġekiplerinin": 4131,
      "demir": 4132,
      "ĠgÃ¶rÃ¼ÅŁmeye": 4133,
      "liÄŁine": 4134,
      "liÄŁiyle": 4135,
      "Ġetkisine": 4136,
      "Ġetkisiyle": 4137,
      "ĠMÃ¼dÃ¼rlÃ¼ÄŁ": 4138,
      "Ġadli": 4139,
      "ĠBaÅŁkanvekili": 4140,
      "abilecek": 4141,
      "ĠkararÄ±nÄ±n": 4142,
      "birliÄŁi": 4143,
      "ĠkÃ¶pek": 4144,
      "kandal": 4145,
      "ĠdesteÄŁ": 4146,
      "ĠdesteÄŁi": 4147,
      "Ġbekliyor": 4148,
      "Ġtutuklanan": 4149,
      "trat": 4150,
      "ĠeriÅŁ": 4151,
      "Ġerken": 4152,
      "ĠeriÅŁim": 4153,
      "madÄ±ÄŁÄ±nÄ±": 4154,
      "ĠkullanÄ±l": 4155,
      "ĠkullanÄ±lan": 4156,
      "Ġmedyada": 4157,
      "ĠdolayÄ±sÄ±yla": 4158,
      "ĠÄ°ngiliz": 4159,
      "ĠdolarlÄ±k": 4160,
      "Ġdeniz": 4161,
      "ĠbakÄ±m": 4162,
      "ĠbaÅŁlatÄ±ldÄ±": 4163,
      "tÄ±klarÄ±": 4164,
      "ĠuÃ§aÄŁÄ±": 4165,
      "ĠyayÄ±nlandÄ±": 4166,
      "ĠEski": 4167,
      "ĠEskiÅŁehir": 4168,
      "ĠtartÄ±ÅŁmasÄ±": 4169,
      "Ġkesin": 4170,
      "Ġkesim": 4171,
      "Ġsilahla": 4172,
      "ormal": 4173,
      "ĠseÃ§iminde": 4174,
      "ĠgerÃ§ekleÅŁtirilen": 4175,
      "ĠTopu": 4176,
      "sÄ±zlÄ±k": 4177,
      "ĠÄ°stihbarat": 4178,
      "ĠÄ°stiÅŁare": 4179,
      "Ġfilmi": 4180,
      "Ġoynanacak": 4181,
      "Ġkendilerini": 4182,
      "ĠAtatÃ¼rk": 4183,
      "ĠanlaÅŁma": 4184,
      "Ġotomotiv": 4185,
      "ĠetkinliÄŁinde": 4186,
      "ĠdeÄŁerlendiren": 4187,
      "ĠBoris": 4188,
      "ĠBorussia": 4189,
      "ĠSÃ¼leyman": 4190,
      "Ġhatt": 4191,
      "ĠTarÄ±k": 4192,
      "ĠyayÄ±mlanan": 4193,
      "Ġkentinde": 4194,
      "ĠSaadet": 4195,
      "Ġdevrilmesi": 4196,
      "ĠFeth": 4197,
      "ĠFetullahÃ§Ä±": 4198,
      "ĠbÃ¼yÃ¼klÃ¼ÄŁÃ¼nde": 4199,
      "Ġbekleniyor": 4200,
      "ĠsÄ±nÄ±rÄ±ndaki": 4201,
      "ĠmÃ¼dÃ¼rÃ¼": 4202,
      "Ġkendisine": 4203,
      "ĠboÅŁaltÄ±ldÄ±": 4204,
      "Ġyitirdi": 4205,
      "ĠuzaklaÅŁ": 4206,
      "Ġtehlikeli": 4207,
      "ĠbÄ±Ã§aklayarak": 4208,
      "Alt": 4209,
      "ĠKÄ±yat": 4210,
      "ĠÃ¼retimi": 4211,
      "ĠsanatÃ§Ä±": 4212,
      "Ġheyec": 4213,
      "ĠSinan": 4214,
      "ĠMilletler": 4215,
      "Ġtemsilcisi": 4216,
      "ĠBerat": 4217,
      "ĠTemelli": 4218,
      "Ġsabah": 4219,
      "ĠdÃ¶rt": 4220,
      "ĠHayvan": 4221,
      "ĠHastanesi": 4222,
      "ĠyalanladÄ±": 4223,
      "Ġsavundu": 4224,
      "ĠÅŁarkÄ±cÄ±": 4225,
      "Ġihtiy": 4226,
      "Ġkrizine": 4227,
      "Ġmuayen": 4228,
      "stagram": 4229,
      "ĠInstagram": 4230,
      "Ġsebebiyle": 4231,
      "weet": 4232,
      "ĠReal": 4233,
      "Ġdiyerek": 4234,
      "ĠÃ§eÅŁitli": 4235,
      "iirt": 4236,
      "Ġsigara": 4237,
      "Ä°ngil": 4238,
      "ĠkÃ¶tÃ¼ye": 4239,
      "ĠuluslararasÄ±": 4240,
      "ĠdÃ¼ÅŁÃ¼rÃ¼lmesi": 4241,
      "ĠAÃ§Ä±k": 4242,
      "Ġmektu": 4243,
      "PDY": 4244,
      "Suriye": 4245,
      "ĠLavrov": 4246,
      "Ġistifa": 4247,
      "Ġdokunul": 4248,
      "ĠyalnÄ±z": 4249,
      "Ġvurularak": 4250,
      "amidiye": 4251,
      "ĠSozcu": 4252,
      "ĠPompeo": 4253,
      "ĠVakÄ±f": 4254,
      "ĠhastalÄ±k": 4255,
      "17": 4256,
      "43": 4257,
      "Ak": 4258,
      "App": 4259,
      "BaÅŁk": 4260,
      "Ch": 4261,
      "DÃ¼n": 4262,
      "EB": 4263,
      "Er": 4264,
      "EAÅŀ": 4265,
      "GS": 4266,
      "IS": 4267,
      "Su": 4268,
      "Spor": 4269,
      "UR": 4270,
      "Ziraat": 4271,
      "bil": 4272,
      "ck": 4273,
      "cilik": 4274,
      "drem": 4275,
      "eÄŁer": 4276,
      "fik": 4277,
      "faz": 4278,
      "gÃ¼venli": 4279,
      "hal": 4280,
      "hat": 4281,
      "hing": 4282,
      "ii": 4283,
      "kun": 4284,
      "keri": 4285,
      "lk": 4286,
      "layÄ±": 4287,
      "log": 4288,
      "miz": 4289,
      "mut": 4290,
      "miyor": 4291,
      "muÅŁtu": 4292,
      "ndaki": 4293,
      "sy": 4294,
      "ser": 4295,
      "sim": 4296,
      "tÄ±na": 4297,
      "taki": 4298,
      "tili": 4299,
      "thane": 4300,
      "yasÄ±": 4301,
      "yesinde": 4302,
      "zi": 4303,
      "ĠanÄ±": 4304,
      "Ġruh": 4305,
      "ander": 4306,
      "antaj": 4307,
      "Ã¼st": 4308,
      "Ã¼per": 4309,
      "iniz": 4310,
      "engin": 4311,
      "ÄŁinden": 4312,
      "Ġbes": 4313,
      "Ġbat": 4314,
      "ĠbaÅŁkanÄ±": 4315,
      "ĠbaÄŁÄ±": 4316,
      "Ġbot": 4317,
      "ĠbiÃ§": 4318,
      "ĠbeÄŁ": 4319,
      "Ġbebek": 4320,
      "alisyon": 4321,
      "Ġku": 4322,
      "ĠkÄ±l": 4323,
      "Ġkop": 4324,
      "ĠkeÅŁ": 4325,
      "Ġkuvvet": 4326,
      "ĠkÃ¼resel": 4327,
      "desi": 4328,
      "akk": 4329,
      "akar": 4330,
      "Ġsesi": 4331,
      "ĠsaÃ§": 4332,
      "ĠsatÄ±cÄ±": 4333,
      "Ã¶yle": 4334,
      "Ã¶bet": 4335,
      "Ġgali": 4336,
      "daÅŁ": 4337,
      "etro": 4338,
      "ashing": 4339,
      "ekim": 4340,
      "aÅŁin": 4341,
      "Ġtic": 4342,
      "Ġtrans": 4343,
      "dÄ±ÄŁÄ±nÄ±": 4344,
      "Ġip": 4345,
      "Ġvideo": 4346,
      "atan": 4347,
      "ĠBM": 4348,
      "ĠBr": 4349,
      "ĠBask": 4350,
      "ĠBalÄ±kesir": 4351,
      "amsun": 4352,
      "amze": 4353,
      "ĠAir": 4354,
      "ĠAmer": 4355,
      "ĠAÄŁustos": 4356,
      "Ġdos": 4357,
      "ĠdÃ¶k": 4358,
      "Ġmen": 4359,
      "Ġmek": 4360,
      "Ġmask": 4361,
      "Ġmens": 4362,
      "Ġmahal": 4363,
      "Ã¼rci": 4364,
      "emi": 4365,
      "Ä°S": 4366,
      "ĠKen": 4367,
      "ĠKamp": 4368,
      "ĠKÃ¼Ã§Ã¼k": 4369,
      "ĠTod": 4370,
      "ĠSaray": 4371,
      "ĠMeli": 4372,
      "ĠMYK": 4373,
      "Ġolmaz": 4374,
      "ĠolacaÄŁÄ±nÄ±": 4375,
      "Ġolsun": 4376,
      "Ġaj": 4377,
      "ĠaÄŁr": 4378,
      "eyle": 4379,
      "eysiz": 4380,
      "ĠÄ°dar": 4381,
      "ĠDin": 4382,
      "ĠDaha": 4383,
      "ĠDavut": 4384,
      "ĠEge": 4385,
      "ĠESP": 4386,
      "ĠEdrem": 4387,
      "isyen": 4388,
      "Ġpetrol": 4389,
      "abilmek": 4390,
      "ĠGal": 4391,
      "ĠGaz": 4392,
      "ĠGamze": 4393,
      "ĠHindistan": 4394,
      "ĠPek": 4395,
      "ĠPat": 4396,
      "ĠartÄ±": 4397,
      "Ġaranan": 4398,
      "Ġarayarak": 4399,
      "ceÄŁ": 4400,
      "itik": 4401,
      "lanacak": 4402,
      "ĠYer": 4403,
      "ĠYak": 4404,
      "Ġform": 4405,
      "ĠFeder": 4406,
      "Ġsonunda": 4407,
      "ĠCin": 4408,
      "alarla": 4409,
      "eÃ§im": 4410,
      "Ġetraf": 4411,
      "lendiÄŁi": 4412,
      "Ä±sÄ±r": 4413,
      "usunun": 4414,
      "ĠkarÄ±ÅŁ": 4415,
      "lamasÄ±": 4416,
      "ĠoldukÃ§a": 4417,
      "omas": 4418,
      "ĠbaÅŁÄ±nda": 4419,
      "ĠbaÅŁÄ±ndan": 4420,
      "Ġgelir": 4421,
      "ĠaÃ§Ä±kladÄ±ÄŁÄ±": 4422,
      "eleriyle": 4423,
      "elerinden": 4424,
      "ĠgÃ¶m": 4425,
      "Ġverilerine": 4426,
      "Ġ37": 4427,
      "edipol": 4428,
      "ĠayÄ±r": 4429,
      "ĠÃ§Ä±kÄ±yor": 4430,
      "ĠÃ§Ä±kmaya": 4431,
      "Ġzat": 4432,
      "Ġzengin": 4433,
      "Ã¼mÃ¼ÅŁ": 4434,
      "Ġbelg": 4435,
      "ĠanÄ±ldÄ±": 4436,
      "Ġraki": 4437,
      "Ġrej": 4438,
      "ilenen": 4439,
      "ĠkiÅŁiye": 4440,
      "ĠkiÅŁilerin": 4441,
      "Ġendek": 4442,
      "Ġenerji": 4443,
      "eliÄŁine": 4444,
      "iyorum": 4445,
      "Ã¼tte": 4446,
      "adem": 4447,
      "ĠsÃ¼rede": 4448,
      "ĠsÃ¼rekli": 4449,
      "ĠiÅŁg": 4450,
      "ĠÃ§alÄ±ÅŁtÄ±ÄŁÄ±": 4451,
      "Ġcuma": 4452,
      "Ġyerli": 4453,
      "ĠNet": 4454,
      "eÅŁil": 4455,
      "mede": 4456,
      "meden": 4457,
      "ansÄ±z": 4458,
      "ters": 4459,
      "ĠkayÄ±p": 4460,
      "ĠPartili": 4461,
      "Ġdiyor": 4462,
      "Ġdiyen": 4463,
      "Ġ44": 4464,
      "ĠoranÄ±nÄ±n": 4465,
      "ĠilÃ§esine": 4466,
      "ĠAna": 4467,
      "ĠkarÅŁÄ±sÄ±nda": 4468,
      "Ġuygun": 4469,
      "elikli": 4470,
      "aÄŁÄ±thane": 4471,
      "ektrik": 4472,
      "ĠAkit": 4473,
      "ĠilginÃ§": 4474,
      "Ġ2016": 4475,
      "Ġdepremler": 4476,
      "Ġtutan": 4477,
      "Ġatanan": 4478,
      "Ä±yoruz": 4479,
      "Ġ90": 4480,
      "etime": 4481,
      "ĠÃĸzkan": 4482,
      "Ġoperasyonlarda": 4483,
      "ĠArap": 4484,
      "Ġtesis": 4485,
      "Ġteslim": 4486,
      "ĠJe": 4487,
      "ĠJap": 4488,
      "ĠÃ¶ldÃ¼ÄŁÃ¼": 4489,
      "ĠgerektiÄŁini": 4490,
      "ĠsaldÄ±rg": 4491,
      "ĠedildiÄŁi": 4492,
      "ĠmaÃ§Ä±n": 4493,
      "Ġteknoloj": 4494,
      "ĠseÃ§il": 4495,
      "ĠortasÄ±nda": 4496,
      "ĠyazÄ±sÄ±": 4497,
      "ĠsÃ¶ylediÄŁi": 4498,
      "ĠkazandÄ±": 4499,
      "ĠWander": 4500,
      "ĠWashing": 4501,
      "ĠÃ¼reme": 4502,
      "ĠsayÄ±sÄ±nÄ±n": 4503,
      "ĠgÃ¶rÃ¼ÅŁmesi": 4504,
      "ĠadÄ±na": 4505,
      "Ġhalindeki": 4506,
      "acaÄŁÄ±z": 4507,
      "Ġyoktur": 4508,
      "ĠvardÄ±": 4509,
      "ĠayrÄ±l": 4510,
      "ĠayrÄ±ldÄ±": 4511,
      "ĠayrÄ±ntÄ±lar": 4512,
      "dÃ¼ÄŁÃ¼nÃ¼": 4513,
      "Ġtemiz": 4514,
      "Ġmerkezi": 4515,
      "ĠsoruÅŁturmasÄ±na": 4516,
      "ĠamaÃ§": 4517,
      "ĠaracÄ±": 4518,
      "ĠaracÄ±na": 4519,
      "Ġ150": 4520,
      "ĠsonrasÄ±nda": 4521,
      "ĠTemsil": 4522,
      "ĠÄ°sv": 4523,
      "Ġkolay": 4524,
      "Ġkolon": 4525,
      "ĠKarÅŁÄ±": 4526,
      "Ġzorun": 4527,
      "Ġbilgiler": 4528,
      "ĠseÃ§imlerinde": 4529,
      "ĠkÄ±smÄ±": 4530,
      "ĠHaklarÄ±": 4531,
      "ĠHakurk": 4532,
      "ĠavukatÄ±": 4533,
      "ĠBÃ¶yle": 4534,
      "Ġtamamen": 4535,
      "Ġseyir": 4536,
      "ĠTurizm": 4537,
      "ĠakÅŁamdan": 4538,
      "Ġkuzeyinde": 4539,
      "Ġkendini": 4540,
      "Ġproje": 4541,
      "ĠsÄ±ÄŁÄ±n": 4542,
      "ĠWolters": 4543,
      "ĠgerÃ§ekleÅŁen": 4544,
      "ĠGazeteci": 4545,
      "ĠgiriÅŁim": 4546,
      "ÄŁÄ±nca": 4547,
      "Ġmaliyet": 4548,
      "ĠbaÅŁvurularÄ±": 4549,
      "ĠBayram": 4550,
      "Ġkamuoy": 4551,
      "Ġkredisi": 4552,
      "naklar": 4553,
      "odos": 4554,
      "ĠuyarÄ±sÄ±nda": 4555,
      "ĠBaÅŁsavcÄ±lÄ±": 4556,
      "ĠBÃ¶lgesi": 4557,
      "ĠteÅŁkil": 4558,
      "ĠKuvvetler": 4559,
      "ĠsorunlarÄ±": 4560,
      "ĠyÃ¼kseliÅŁ": 4561,
      "ĠKomutanÄ±": 4562,
      "ĠÃ¶zgÃ¼rlÃ¼ÄŁ": 4563,
      "Ġotomobil": 4564,
      "Ġtedavisi": 4565,
      "ĠÃ§ocuÄŁun": 4566,
      "abzon": 4567,
      "ĠarttÄ±": 4568,
      "Ġnokta": 4569,
      "ĠYÃ¶netimi": 4570,
      "ĠolmadÄ±ÄŁÄ±": 4571,
      "ĠsÃ¼rÃ¼cÃ¼": 4572,
      "ĠBarÄ±ÅŁ": 4573,
      "ĠbÄ±Ã§aklÄ±": 4574,
      "ĠAfganistan": 4575,
      "ĠKaynaklar": 4576,
      "ĠfÄ±rlat": 4577,
      "lÄ±klarÄ±mÄ±zÄ±": 4578,
      "ĠkullanÄ±cÄ±": 4579,
      "Ġberabere": 4580,
      "ĠSinem": 4581,
      "ĠyaptÄ±rdÄ±klarÄ±": 4582,
      "Ġsitesinde": 4583,
      "Ġgezegen": 4584,
      "Ġvurgul": 4585,
      "ĠgÃ¶rÃ¼lÃ¼yor": 4586,
      "ĠtartÄ±ÅŁmalarÄ±yla": 4587,
      "Ã¼bÃ¼": 4588,
      "ĠdÃ¶rd": 4589,
      "ĠKÃ¶se": 4590,
      "ĠThomas": 4591,
      "eceÄŁiz": 4592,
      "SKÄ°": 4593,
      "ĠBizim": 4594,
      "ĠKulÃ¼bÃ¼": 4595,
      "ĠPrens": 4596,
      "Ġnerede": 4597,
      "Ġesnaf": 4598,
      "Ġbiter": 4599,
      "Ġkanser": 4600,
      "Ġgeciktirme": 4601,
      "ĠPenÃ§e": 4602,
      "Ġfinans": 4603,
      "Ġnelerdir": 4604,
      "Ġherkesin": 4605,
      "ĠmaaÅŁ": 4606,
      "ĠÄ°dlib": 4607,
      "ĠVerileri": 4608,
      "Ġsorumlu": 4609,
      "luluÄŁu": 4610,
      "Ġgiyen": 4611,
      "ĠMahallesi": 4612,
      "ĠyaparÄ±z": 4613,
      "Ġkilometre": 4614,
      "forman": 4615,
      "quin": 4616,
      "Ġvizyona": 4617,
      "ĠTimes": 4618,
      "ĠfragmanÄ±": 4619,
      "ĠMÃ¼hendisleri": 4620,
      "ÃľnlÃ¼": 4621,
      "kapark": 4622,
      "ĠdÃ¶v": 4623,
      "ĠKupasÄ±": 4624,
      "ĠTIR": 4625,
      "ĠFethiye": 4626,
      "ĠVakÄ±fbank": 4627,
      "IST": 4628,
      "Ã¼rcistan": 4629,
      "ĠMelih": 4630,
      "ĠDavutoÄŁlu": 4631,
      "ĠEdremit": 4632,
      "Ġendeksi": 4633,
      "Ã¼ttefik": 4634,
      "ĠWanderers": 4635,
      "ĠWashington": 4636,
      "ĠsÄ±ÄŁÄ±nma": 4637,
      "10": 4638,
      "500": 4639,
      "80": 4640,
      "84": 4641,
      "90": 4642,
      "99": 4643,
      "AP": 4644,
      "Ad": 4645,
      "BalÄ±kesir": 4646,
      "EP": 4647,
      "GK": 4648,
      "Gazet": 4649,
      "Hazine": 4650,
      "Kar": 4651,
      "KYK": 4652,
      "KUR": 4653,
      "MHP": 4654,
      "Mersin": 4655,
      "ON": 4656,
      "Oy": 4657,
      "PSG": 4658,
      "Silivri": 4659,
      "SÃ¼per": 4660,
      "TL": 4661,
      "Tek": 4662,
      "Video": 4663,
      "Yaya": 4664,
      "Yunanistan": 4665,
      "ban": 4666,
      "bus": 4667,
      "baÅŁÄ±": 4668,
      "bilir": 4669,
      "car": 4670,
      "cÄ±lÄ±k": 4671,
      "dÃ¼k": 4672,
      "ew": 4673,
      "fes": 4674,
      "fat": 4675,
      "gÃ¼": 4676,
      "gon": 4677,
      "hel": 4678,
      "iÄŁi": 4679,
      "ici": 4680,
      "kur": 4681,
      "lo": 4682,
      "liler": 4683,
      "lunu": 4684,
      "mon": 4685,
      "meleri": 4686,
      "mesiyle": 4687,
      "ou": 4688,
      "oli": 4689,
      "ost": 4690,
      "ola": 4691,
      "ral": 4692,
      "sak": 4693,
      "tim": 4694,
      "tad": 4695,
      "var": 4696,
      "yken": 4697,
      "ĠÃ¼s": 4698,
      "ĠuÄŁ": 4699,
      "Ä±ya": 4700,
      "Ã¼c": 4701,
      "aruz": 4702,
      "erg": 4703,
      "eriz": 4704,
      "ÅŁet": 4705,
      "Ä±nt": 4706,
      "Ä±nca": 4707,
      "enk": 4708,
      "ener": 4709,
      "ÄŁuna": 4710,
      "Ã§uk": 4711,
      "Ġbuna": 4712,
      "Ġbundan": 4713,
      "Ġyor": 4714,
      "ĠyÃ¶r": 4715,
      "Ġyedi": 4716,
      "ĠkÃ¼l": 4717,
      "Ġkelim": 4718,
      "des": 4719,
      "akos": 4720,
      "ĠsarÄ±": 4721,
      "Ġskandal": 4722,
      "Ġslog": 4723,
      "Ã¶ÄŁretim": 4724,
      "iran": 4725,
      "iral": 4726,
      "ĠgÃ¼r": 4727,
      "Ġgrub": 4728,
      "eller": 4729,
      "aster": 4730,
      "asapor": 4731,
      "ong": 4732,
      "Ġtim": 4733,
      "Ġtip": 4734,
      "Ġtank": 4735,
      "ester": 4736,
      "unlarÄ±": 4737,
      "undaki": 4738,
      "Ġidar": 4739,
      "ĠBol": 4740,
      "ĠBÃ¼l": 4741,
      "amin": 4742,
      "amuk": 4743,
      "amayan": 4744,
      "ĠhÄ±z": 4745,
      "urlu": 4746,
      "ĠAlan": 4747,
      "ĠAmaz": 4748,
      "ĠmÃ¼l": 4749,
      "Ġmut": 4750,
      "ĠmÃ¼lt": 4751,
      "uluk": 4752,
      "ulmasÄ±": 4753,
      "eman": 4754,
      "emur": 4755,
      "embe": 4756,
      "Ã¼nyesinde": 4757,
      "Ġvefat": 4758,
      "Ä°R": 4759,
      "steÅŁ": 4760,
      "ĠKir": 4761,
      "ĠKap": 4762,
      "ĠKÄ±z": 4763,
      "ĠTes": 4764,
      "ĠTeÅŁ": 4765,
      "ĠTokat": 4766,
      "ĠTEO": 4767,
      "ĠTFF": 4768,
      "ĠToyo": 4769,
      "ĠÃ§ab": 4770,
      "ĠSe": 4771,
      "ĠSey": 4772,
      "ĠSiirt": 4773,
      "ikar": 4774,
      "apa": 4775,
      "ĠMac": 4776,
      "ĠMavi": 4777,
      "Ġilave": 4778,
      "Ġbirini": 4779,
      "ĠolasÄ±": 4780,
      "eyiz": 4781,
      "laci": 4782,
      "ĠÄ°z": 4783,
      "ĠÄ°ki": 4784,
      "aza": 4785,
      "azÄ±": 4786,
      "aziran": 4787,
      "ĠDEAÅŀ": 4788,
      "ĠDeÄŁer": 4789,
      "isiyle": 4790,
      "abah": 4791,
      "ĠGÃ¼len": 4792,
      "ĠGÃ¼rcistan": 4793,
      "ĠHazÄ±r": 4794,
      "ĠHazine": 4795,
      "ĠHamidiye": 4796,
      "ĠPamuk": 4797,
      "Ġaram": 4798,
      "Ġaraz": 4799,
      "Ġarama": 4800,
      "ĠartÄ±k": 4801,
      "ĠalanÄ±": 4802,
      "Ġalarak": 4803,
      "ĠalacaÄŁÄ±nÄ±": 4804,
      "Ġalkol": 4805,
      "madÄ±ÄŁÄ±": 4806,
      "Ä±nav": 4807,
      "Ä±rÄ±": 4808,
      "lanma": 4809,
      "lanmÄ±ÅŁ": 4810,
      "ĠYaÅŁ": 4811,
      "ĠYÃ¼r": 4812,
      "ĠYol": 4813,
      "ĠYemen": 4814,
      "ĠfÃ¼z": 4815,
      "ĠiÃ§ine": 4816,
      "ĠFah": 4817,
      "ĠFederasyonu": 4818,
      "ĠaÃ§Ä±sÄ±ndan": 4819,
      "ĠCem": 4820,
      "ĠCerrahpaÅŁa": 4821,
      "ĠÅŁok": 4822,
      "ĠÅŁehir": 4823,
      "ĠgÃ¶rdÃ¼ÄŁÃ¼": 4824,
      "ĠgÃ¶rÃ¼yor": 4825,
      "Ġnamaz": 4826,
      "Ġettikleri": 4827,
      "evizyon": 4828,
      "Ġkart": 4829,
      "uzur": 4830,
      "ĠyÄ±lda": 4831,
      "ĠyÄ±lÄ±nÄ±n": 4832,
      "ĠaÃ§Ä±klarÄ±ndaki": 4833,
      "Ä±lanlar": 4834,
      "Ġedilecek": 4835,
      "ĠÃ¶nÃ¼mÃ¼z": 4836,
      "ilip": 4837,
      "aÃ§ak": 4838,
      "ĠOcak": 4839,
      "ĠOGM": 4840,
      "Ġ33": 4841,
      "Ġ35": 4842,
      "Ġayn": 4843,
      "ĠgÃ¼ney": 4844,
      "ĠgÃ¼nleri": 4845,
      "Ġ500": 4846,
      "ĠRodos": 4847,
      "ĠyaÅŁa": 4848,
      "Ã¼mÃ¼ze": 4849,
      "Ġanlay": 4850,
      "Ġres": 4851,
      "Ġrom": 4852,
      "Ġreform": 4853,
      "Åŀampiyon": 4854,
      "ÅŀKUR": 4855,
      "Ġgeride": 4856,
      "manlar": 4857,
      "osiklet": 4858,
      "iyoruz": 4859,
      "uÅŁak": 4860,
      "ĠLim": 4861,
      "ĠListe": 4862,
      "maktan": 4863,
      "ĠsÃ¼reci": 4864,
      "ĠsÃ¼rÃ¼yor": 4865,
      "ĠiÅŁaret": 4866,
      "ĠdÃ¼zenleme": 4867,
      "ĠErk": 4868,
      "Ġcumhur": 4869,
      "Ġyerinde": 4870,
      "ĠyerleÅŁtir": 4871,
      "ĠNob": 4872,
      "ĠNÃ¶beti": 4873,
      "mece": 4874,
      "ĠkayÄ±t": 4875,
      "Ġkayded": 4876,
      "Ġdiyal": 4877,
      "Ġdijit": 4878,
      "Ġordu": 4879,
      "ĠaÃ§Ä±klamalar": 4880,
      "ĠaÃ§Ä±klamasÄ±nda": 4881,
      "Ġbilgi": 4882,
      "ĠAnkapark": 4883,
      "Ġeleme": 4884,
      "ĠÅŀirk": 4885,
      "Ġkural": 4886,
      "Ġkurulu": 4887,
      "ĠVeli": 4888,
      "Ġ65": 4889,
      "ĠGenelkur": 4890,
      "ĠÃ¼zerindeki": 4891,
      "alef": 4892,
      "ĠyÃ¶nÃ¼ndeki": 4893,
      "ĠAkdoÄŁan": 4894,
      "ebbet": 4895,
      "otosiklet": 4896,
      "malarda": 4897,
      "malarÄ±nÄ±": 4898,
      "malarÄ±na": 4899,
      "ĠmÃ¼ebbet": 4900,
      "caeli": 4901,
      "Ġ2017": 4902,
      "ĠkatkÄ±": 4903,
      "Ġkatled": 4904,
      "Ġevin": 4905,
      "Ġtutulan": 4906,
      "ndeki": 4907,
      "Ġdahi": 4908,
      "ĠgireceÄŁi": 4909,
      "ĠgÃ¶stererek": 4910,
      "edeki": 4911,
      "Ġeseri": 4912,
      "Ġesrar": 4913,
      "Ã§ekmece": 4914,
      "ĠgÃ¶zler": 4915,
      "ĠbÃ¶lgede": 4916,
      "ĠbÃ¶lgesine": 4917,
      "Ġ943": 4918,
      "ĠdÃ¶nÃ¼ÅŁ": 4919,
      "Ġmilyonlarca": 4920,
      "ĠÃĸzb": 4921,
      "ĠÃĸztÃ¼rk": 4922,
      "ĠÃĸzgÃ¼r": 4923,
      "ĠÃĸzdemir": 4924,
      "yalama": 4925,
      "ĠdÃ¼nyaya": 4926,
      "ĠdÃ¼ÅŁen": 4927,
      "amadÄ±": 4928,
      "leÅŁk": 4929,
      "leÅŁik": 4930,
      "ĠseÃ§ildi": 4931,
      "ĠseÃ§men": 4932,
      "Ġhavalim": 4933,
      "ĠhazÄ±rlÄ±k": 4934,
      "Ġ80": 4935,
      "ĠkazasÄ±nda": 4936,
      "ĠkazandÄ±r": 4937,
      "ĠsaÄŁlam": 4938,
      "Ġdavet": 4939,
      "Ġbelirtilen": 4940,
      "Ġbelirtileri": 4941,
      "ĠÃ¶rgÃ¼tÃ¼nÃ¼n": 4942,
      "ĠyasasÄ±": 4943,
      "Ġparmak": 4944,
      "ĠÃ¶ldÃ¼rÃ¼len": 4945,
      "ock": 4946,
      "ĠkadÄ±nlar": 4947,
      "ĠsÃ¶zleriyle": 4948,
      "ĠBugÃ¼n": 4949,
      "Ġtarihinin": 4950,
      "liÄŁe": 4951,
      "liÄŁinin": 4952,
      "Ġkritik": 4953,
      "ĠAyv": 4954,
      "Ġikamet": 4955,
      "Ġmesle": 4956,
      "Ġhalde": 4957,
      "ĠdÄ±ÅŁÄ±na": 4958,
      "ĠbugÃ¼nkÃ¼": 4959,
      "tren": 4960,
      "mamÄ±ÅŁ": 4961,
      "Ġkimse": 4962,
      "Ġtahliy": 4963,
      "ĠÃ§alÄ±ÅŁmalarÄ±nda": 4964,
      "Ġyoksun": 4965,
      "ĠvardÄ±r": 4966,
      "Ġoyuncusu": 4967,
      "mayacak": 4968,
      "Ġdenem": 4969,
      "ĠfiyatlarÄ±na": 4970,
      "ĠdeÄŁildir": 4971,
      "Ġliradan": 4972,
      "ĠyÃ¼rÃ¼yÃ¼ÅŁ": 4973,
      "ĠuÃ§aÄŁÄ±n": 4974,
      "ĠpaylaÅŁtÄ±": 4975,
      "Ġmetre": 4976,
      "ĠÄ°sp": 4977,
      "ĠAdil": 4978,
      "ĠÃ§ocuklarÄ±": 4979,
      "ĠÃĸnc": 4980,
      "Ġemek": 4981,
      "Ġkolluk": 4982,
      "Ġzorunda": 4983,
      "Ġbilgilere": 4984,
      "ĠdÃ¶nemde": 4985,
      "Ġailesi": 4986,
      "ĠÃ¶ncesi": 4987,
      "ĠgÃ¼Ã§lendir": 4988,
      "ĠgerÃ§ekleÅŁtirdi": 4989,
      "ĠMarmara": 4990,
      "ĠbÄ±rakÄ±ldÄ±": 4991,
      "ĠyanÄ±tÄ±": 4992,
      "ĠkÄ±rmÄ±zÄ±": 4993,
      "Ġmuhal": 4994,
      "ĠToplantÄ±": 4995,
      "ĠkoÅŁ": 4996,
      "Ġmerakla": 4997,
      "ĠbabasÄ±": 4998,
      "ĠitibarÄ±yla": 4999,
      "Ġimkan": 5000,
      "ĠEtkin": 5001,
      "ĠgÃ¼ndemi": 5002,
      "ĠgÃ¼ndeminde": 5003,
      "ĠanlaÅŁmazlÄ±k": 5004,
      "ĠaÅŁÄ±rÄ±": 5005,
      "ilirken": 5006,
      "ĠGÃ¼venli": 5007,
      "ĠHasan": 5008,
      "Ġ129": 5009,
      "ĠprogramÄ±": 5010,
      "Ġmahkeme": 5011,
      "Ġmahkemece": 5012,
      "ĠarkadaÅŁÄ±": 5013,
      "ĠMeclisi": 5014,
      "ĠGÃ¼ngÃ¶r": 5015,
      "ĠdÃ¼nyada": 5016,
      "Ġsisteminin": 5017,
      "Ġhangi": 5018,
      "Ġilana": 5019,
      "feransÄ±": 5020,
      "Ġhatta": 5021,
      "ĠYalova": 5022,
      "ĠOtobÃ¼s": 5023,
      "ĠsÃ¼rdÃ¼rÃ¼len": 5024,
      "ĠinsanlarÄ±": 5025,
      "Ġinceleme": 5026,
      "ĠuyarÄ±sÄ±": 5027,
      "lilikte": 5028,
      "Ġyenildi": 5029,
      "ĠteÅŁvik": 5030,
      "Ġkonuda": 5031,
      "ĠBakanlÄ±k": 5032,
      "Ġprotestolarda": 5033,
      "ĠKoÃ§": 5034,
      "ĠyÃ¶netimler": 5035,
      "ĠÃ§ocuÄŁu": 5036,
      "ĠdetaylarÄ±": 5037,
      "Ġsonucuna": 5038,
      "ÄŁunuz": 5039,
      "ĠsÃ¼rÃ¼cÃ¼sÃ¼": 5040,
      "Ġyitiren": 5041,
      "ĠAbd": 5042,
      "ĠyaptÄ±klarÄ±": 5043,
      "ĠinÅŁa": 5044,
      "Ġdizi": 5045,
      "ĠodasÄ±nda": 5046,
      "ĠAskeri": 5047,
      "Ġmevsim": 5048,
      "ĠKalesi": 5049,
      "ĠaÄŁab": 5050,
      "ĠiÅŁÃ§iler": 5051,
      "ĠihraÃ§": 5052,
      "Ġimza": 5053,
      "ĠRasathan": 5054,
      "Ġorganiz": 5055,
      "Ġorganize": 5056,
      "Ġbenzet": 5057,
      "ĠÅŁikayetÃ§i": 5058,
      "TÃľÄ°K": 5059,
      "ĠKÃ¶pr": 5060,
      "ĠMax": 5061,
      "ĠHalkbank": 5062,
      "ĠsuÃ§lamasÄ±yla": 5063,
      "Ġazalacak": 5064,
      "ĠKongre": 5065,
      "egor": 5066,
      "Ġbizim": 5067,
      "ĠBeyoÄŁlu": 5068,
      "Trabzon": 5069,
      "Ġkanseri": 5070,
      "Ġseslendir": 5071,
      "ĠiÅŁletme": 5072,
      "Ġbelirlenemeyen": 5073,
      "ĠsÃ¶zleÅŁme": 5074,
      "elendir": 5075,
      "ĠBeko": 5076,
      "ĠBurak": 5077,
      "ĠbaÅŁlÄ±klÄ±": 5078,
      "Ġistemiyle": 5079,
      "ĠsÄ±caklÄ±klarÄ±": 5080,
      "ĠmÃ¼dahalesi": 5081,
      "Bilim": 5082,
      "Ġobez": 5083,
      "Ġharit": 5084,
      "ĠÃ§eteye": 5085,
      "Ġperforman": 5086,
      "Ġyakalanan": 5087,
      "Ġgiderek": 5088,
      "Ġcevap": 5089,
      "ĠÃ¶ÄŁrencileri": 5090,
      "brÄ±s": 5091,
      "ijer": 5092,
      "sanÄ±z": 5093,
      "ĠsanÄ±ÄŁÄ±n": 5094,
      "Ġhissed": 5095,
      "ĠTakÄ±mÄ±": 5096,
      "ĠÃ§atÄ±ÅŁ": 5097,
      "ĠSoylu": 5098,
      "ĠÅŁahÄ±s": 5099,
      "ĠmÃ¼cadel": 5100,
      "ĠAraÅŁtÄ±rma": 5101,
      "ĠtazminatÄ±": 5102,
      "Ġminar": 5103,
      "ĠmeÅŁru": 5104,
      "Ġmodel": 5105,
      "ĠTabii": 5106,
      "ĠHÃ¼kÃ¼met": 5107,
      "ĠHizmetler": 5108,
      "ĠYargÄ±tay": 5109,
      "Eski": 5110,
      "Ġumut": 5111,
      "ĠyanlÄ±ÅŁ": 5112,
      "ĠSistemi": 5113,
      "ĠYangÄ±n": 5114,
      "ĠoynadÄ±ÄŁÄ±": 5115,
      "ĠdoÄŁrul": 5116,
      "ĠusulsÃ¼zlÃ¼k": 5117,
      "ĠdanÄ±ÅŁmanÄ±": 5118,
      "ĠMidilli": 5119,
      "Ġcenaze": 5120,
      "Ä°ngiltere": 5121,
      "Ġmektubu": 5122,
      "Chef": 5123,
      "DÃ¼nyanÄ±n": 5124,
      "cker": 5125,
      "Ġgalibiyet": 5126,
      "ĠBasketbol": 5127,
      "ĠAirbus": 5128,
      "Ġmensup": 5129,
      "ĠJean": 5130,
      "Oyuncu": 5131,
      "ĠsloganÄ±": 5132,
      "ĠgÃ¼rÃ¼lt": 5133,
      "asterChef": 5134,
      "ĠBÃ¼lent": 5135,
      "ĠAmazon": 5136,
      "ĠTEOG": 5137,
      "ĠÃ¶nÃ¼mÃ¼zdeki": 5138,
      "Ġdijital": 5139,
      "ĠGenelkurmay": 5140,
      "Ġhavaliman": 5141,
      "ĠRasathanesi": 5142,
      "',": 5143,
      "18": 5144,
      "25": 5145,
      "26": 5146,
      "60": 5147,
      "?'": 5148,
      "AD": 5149,
      "AY": 5150,
      "Af": 5151,
      "Aile": 5152,
      "Cla": 5153,
      "DK": 5154,
      "Ey": 5155,
      "Foto": 5156,
      "GeÃ§": 5157,
      "HA": 5158,
      "Hat": 5159,
      "Halk": 5160,
      "Hindistan": 5161,
      "KP": 5162,
      "Kay": 5163,
      "KÄ±lÄ±Ã§": 5164,
      "KiÅŁisel": 5165,
      "Mar": 5166,
      "Muh": 5167,
      "Meteoroloji": 5168,
      "Or": 5169,
      "SB": 5170,
      "Sa": 5171,
      "Ser": 5172,
      "Sen": 5173,
      "Tar": 5174,
      "Ticaret": 5175,
      "Twitter": 5176,
      "TÃ¼ketici": 5177,
      "Volkswagen": 5178,
      "adan": 5179,
      "baÅŁ": 5180,
      "bur": 5181,
      "binden": 5182,
      "blem": 5183,
      "bilecek": 5184,
      "cin": 5185,
      "cÃ¼s": 5186,
      "cunun": 5187,
      "culu": 5188,
      "dum": 5189,
      "dÃ¶n": 5190,
      "dÃ¼m": 5191,
      "durdu": 5192,
      "dÃ¼lÃ¼": 5193,
      "gat": 5194,
      "geÃ§": 5195,
      "gazi": 5196,
      "haz": 5197,
      "haciz": 5198,
      "iper": 5199,
      "jek": 5200,
      "klar": 5201,
      "kiy": 5202,
      "kor": 5203,
      "lal": 5204,
      "lasÄ±": 5205,
      "lini": 5206,
      "mel": 5207,
      "mesinden": 5208,
      "neleri": 5209,
      "navut": 5210,
      "par": 5211,
      "pir": 5212,
      "rek": 5213,
      "res": 5214,
      "rika": 5215,
      "reni": 5216,
      "rist": 5217,
      "sÃ¼": 5218,
      "soy": 5219,
      "tak": 5220,
      "tek": 5221,
      "tasÄ±": 5222,
      "tiler": 5223,
      "tuk": 5224,
      "ting": 5225,
      "ude": 5226,
      "vi": 5227,
      "yer": 5228,
      "yas": 5229,
      "ykÃ¼": 5230,
      "Ġiy": 5231,
      "Ġun": 5232,
      "Ä±ma": 5233,
      "Ã¼le": 5234,
      "ert": 5235,
      "inek": 5236,
      "Ä±nar": 5237,
      "ÄŁÃ¼": 5238,
      "ÄŁÃ¼nÃ¼": 5239,
      "Ã§iler": 5240,
      "Ã§Ä±sÄ±": 5241,
      "Ġbey": 5242,
      "Ġbeb": 5243,
      "ĠboÄŁaz": 5244,
      "ĠbÃ¼nyesinde": 5245,
      "alsi": 5246,
      "algo": 5247,
      "Ġyur": 5248,
      "Ġyemek": 5249,
      "Ġyola": 5250,
      "ĠkaÅŁ": 5251,
      "Ġkuy": 5252,
      "aker": 5253,
      "akil": 5254,
      "aklÄ±": 5255,
      "Ġst": 5256,
      "Ġsem": 5257,
      "Ġsap": 5258,
      "ĠsÃ¼t": 5259,
      "Ġsendik": 5260,
      "ĠsÄ±nav": 5261,
      "Ġgizli": 5262,
      "eton": 5263,
      "etleri": 5264,
      "ayar": 5265,
      "ayÄ±ÅŁ": 5266,
      "ayÄ±z": 5267,
      "astik": 5268,
      "lardaki": 5269,
      "ekabet": 5270,
      "Ġton": 5271,
      "Ġteb": 5272,
      "ĠtÃ¼f": 5273,
      "Ġodak": 5274,
      "iyah": 5275,
      "uncker": 5276,
      "ĠiÅŁte": 5277,
      "ĠvÃ¼": 5278,
      "ĠvarÄ±": 5279,
      "ata": 5280,
      "atur": 5281,
      "atistik": 5282,
      "ĠBe": 5283,
      "ĠBatÄ±": 5284,
      "ĠBiden": 5285,
      "ĠBIST": 5286,
      "aman": 5287,
      "amam": 5288,
      "amayÄ±n": 5289,
      "ĠhÃ¼c": 5290,
      "Ġhuzur": 5291,
      "ĠdirektÃ¶rÃ¼": 5292,
      "Ġmis": 5293,
      "Ġmini": 5294,
      "Ġmali": 5295,
      "emeleri": 5296,
      "Ä°D": 5297,
      "Ä°ran": 5298,
      "str": 5299,
      "sten": 5300,
      "ĠKat": 5301,
      "ĠKit": 5302,
      "ĠKav": 5303,
      "ĠKendi": 5304,
      "ĠTH": 5305,
      "ĠTel": 5306,
      "ĠTaÅŁ": 5307,
      "ĠTah": 5308,
      "ĠTav": 5309,
      "ĠTaÅŁÄ±": 5310,
      "ĠÃ§iÄŁ": 5311,
      "ĠSar": 5312,
      "ĠSeri": 5313,
      "ĠSeza": 5314,
      "ike": 5315,
      "ikte": 5316,
      "iklal": 5317,
      "apaÄŁ": 5318,
      "ĠMah": 5319,
      "ĠMev": 5320,
      "ĠMus": 5321,
      "ĠMosk": 5322,
      "ĠMedipol": 5323,
      "ĠMÃ¼ttefik": 5324,
      "ĠMasterChef": 5325,
      "leer": 5326,
      "Ġila": 5327,
      "Ġilet": 5328,
      "Ġdemir": 5329,
      "ime": 5330,
      "imen": 5331,
      "ĠolacaÄŁÄ±": 5332,
      "Ġoluyor": 5333,
      "ĠoluÅŁtu": 5334,
      "Ġolabilir": 5335,
      "Ġolmuyor": 5336,
      "Ġaf": 5337,
      "ĠacÄ±": 5338,
      "Ġacil": 5339,
      "eyecek": 5340,
      "tÄ±m": 5341,
      "ĠÄ°h": 5342,
      "ĠÄ°ETT": 5343,
      "anÄ±m": 5344,
      "ĠDay": 5345,
      "ĠDiÅŁ": 5346,
      "ĠDol": 5347,
      "ĠEc": 5348,
      "isan": 5349,
      "isayar": 5350,
      "Ġplas": 5351,
      "Ġplak": 5352,
      "Ġpomp": 5353,
      "Ġpalsi": 5354,
      "ĠpapaÄŁ": 5355,
      "abrik": 5356,
      "umartesi": 5357,
      "ĠeÄŁ": 5358,
      "ĠGel": 5359,
      "ĠGara": 5360,
      "ĠGerek": 5361,
      "ĠGÃ¼zel": 5362,
      "ĠGenÃ§": 5363,
      "ĠGÃ¼mÃ¼ÅŁ": 5364,
      "lÄ±ÄŁÄ±na": 5365,
      "lÄ±ÄŁÄ±nda": 5366,
      "lÄ±yÄ±z": 5367,
      "ĠHem": 5368,
      "ĠHiÃ§": 5369,
      "ĠHid": 5370,
      "ĠHekim": 5371,
      "ahu": 5372,
      "ahya": 5373,
      "ĠPot": 5374,
      "ĠPast": 5375,
      "Ġaraba": 5376,
      "mail": 5377,
      "cedes": 5378,
      "itesi": 5379,
      "iteye": 5380,
      "yacak": 5381,
      "oÄŁuk": 5382,
      "larÄ±m": 5383,
      "Ä±ÅŁtÄ±": 5384,
      "ĠYunan": 5385,
      "ĠYerli": 5386,
      "ĠYPG": 5387,
      "Ġfal": 5388,
      "Ġfik": 5389,
      "Ġfiz": 5390,
      "ĠfiyatÄ±": 5391,
      "Ġfatur": 5392,
      "Ã¼kleer": 5393,
      "ĠFu": 5394,
      "avilla": 5395,
      "Ġsonuna": 5396,
      "okak": 5397,
      "ĠCuma": 5398,
      "ĠÅŁef": 5399,
      "ĠÅŁÃ¶yle": 5400,
      "alarÄ±ndan": 5401,
      "ilerde": 5402,
      "ilerek": 5403,
      "eÃ§lenme": 5404,
      "Ġetik": 5405,
      "evre": 5406,
      "ĠbaÅŁladÄ±ÄŁÄ±": 5407,
      "Ġgelindi": 5408,
      "ĠaÃ§Ä±klanan": 5409,
      "ezi": 5410,
      "likte": 5411,
      "ukur": 5412,
      "uyan": 5413,
      "ĠgÃ¶k": 5414,
      "Ġverileri": 5415,
      "ĠOyalama": 5416,
      "tagon": 5417,
      "Ġ34": 5418,
      "Ġbulunarak": 5419,
      "Ġbulunuyor": 5420,
      "ediÄŁi": 5421,
      "ĠayÄ±na": 5422,
      "ĠgÃ¼ne": 5423,
      "ĠÃ§Ä±kÄ±ÅŁÄ±": 5424,
      "ĠRos": 5425,
      "ĠRektÃ¶r": 5426,
      "letiÅŁim": 5427,
      "ĠyaÅŁÄ±yor": 5428,
      "ĠÃĸÄŁretim": 5429,
      "ĠÃĸdÃ¼lÃ¼": 5430,
      "Ġbelgesi": 5431,
      "ĠanlarÄ±": 5432,
      "Ġrad": 5433,
      "Ġrez": 5434,
      "ĠrÃ¼t": 5435,
      "Ġred": 5436,
      "opi": 5437,
      "ÅŀanlÄ±urfa": 5438,
      "ÅŀÄ°D": 5439,
      "ĠgerÃ§e": 5440,
      "manlÄ±k": 5441,
      "ĠgeÃ§iÅŁ": 5442,
      "ĠgeÃ§erli": 5443,
      "laÅŁma": 5444,
      "osu": 5445,
      "ĠÃĩar": 5446,
      "ĠÃĩok": 5447,
      "Ã¼ÅŁvet": 5448,
      "ĠbinasÄ±nda": 5449,
      "elidir": 5450,
      "ilmesini": 5451,
      "ĠLev": 5452,
      "ĠsÃ¼rerken": 5453,
      "ĠiÅŁe": 5454,
      "ĠErsoy": 5455,
      "Ġyerde": 5456,
      "ĠNev": 5457,
      "ansiyon": 5458,
      "Ġmilli": 5459,
      "ĠkaygÄ±": 5460,
      "Ġins": 5461,
      "Ġinan": 5462,
      "ĠdiÅŁ": 5463,
      "Ġoran": 5464,
      "Ġkaleme": 5465,
      "ĠaÃ§Ä±klamalarÄ±": 5466,
      "ĠaÃ§Ä±klamayla": 5467,
      "ders": 5468,
      "eceÄŁine": 5469,
      "Ġeleb": 5470,
      "ĠÅŀehir": 5471,
      "ĠÅŀanlÄ±urfa": 5472,
      "Ġkurulan": 5473,
      "ĠVe": 5474,
      "Ġ61": 5475,
      "Ġuyum": 5476,
      "arkÄ±cÄ±": 5477,
      "ĠÃ¼zerini": 5478,
      "alandÄ±r": 5479,
      "alefet": 5480,
      "ĠyÃ¶ntem": 5481,
      "neÄŁe": 5482,
      "Ġkapas": 5483,
      "Ġisyan": 5484,
      "Ġismi": 5485,
      "ĠEkonom": 5486,
      "raktÃ¶r": 5487,
      "ĠyakÄ±t": 5488,
      "ĠyakaladÄ±": 5489,
      "ebral": 5490,
      "ĠettiÄŁini": 5491,
      "etic": 5492,
      "ĠhafÄ±z": 5493,
      "alÄ±ÄŁÄ±": 5494,
      "Ġkatil": 5495,
      "Ġkategor": 5496,
      "Ġ75": 5497,
      "Ġ750": 5498,
      "Ġhaberler": 5499,
      "ĠkiÅŁiden": 5500,
      "Ġproblem": 5501,
      "ĠhakkÄ±ndan": 5502,
      "Ġatan": 5503,
      "ĠiddialarÄ±": 5504,
      "ĠiddialarÄ±na": 5505,
      "ĠAlp": 5506,
      "ĠAlÃ§Ä±": 5507,
      "ĠIÅŀÄ°D": 5508,
      "mektedir": 5509,
      "Ġotob": 5510,
      "Ġoturdu": 5511,
      "ĠbÃ¶lgeye": 5512,
      "ĠbÃ¶lgelerine": 5513,
      "Ġyoldan": 5514,
      "Ġ103": 5515,
      "Ġoperasyonla": 5516,
      "Ġoperasyonunda": 5517,
      "ĠArin": 5518,
      "Ġtesisi": 5519,
      "ĠBelgesi": 5520,
      "ĠJuncker": 5521,
      "ĠakÄ±l": 5522,
      "ĠKurum": 5523,
      "ĠÃ§ekildi": 5524,
      "metti": 5525,
      "ĠmaÃ§Ä±": 5526,
      "Ġserg": 5527,
      "ĠSuriyeli": 5528,
      "Ġlastik": 5529,
      "Ġtaks": 5530,
      "iyatro": 5531,
      "Ġifadeleri": 5532,
      "Ġifadesini": 5533,
      "ĠBirleÅŁmiÅŁ": 5534,
      "riÄŁe": 5535,
      "ĠhazÄ±rlanÄ±yor": 5536,
      "ĠsÃ¶yleyen": 5537,
      "Ġkazada": 5538,
      "Ġkazanan": 5539,
      "Ġkendimiz": 5540,
      "ĠsaÄŁlanan": 5541,
      "ĠsaÄŁlÄ±ÄŁÄ±nÄ±": 5542,
      "Ġeklendi": 5543,
      "Ġekonomi": 5544,
      "Ġeksik": 5545,
      "Ġdolara": 5546,
      "ĠÃ¶ldÃ¼rdÃ¼": 5547,
      "rafil": 5548,
      "Ġkaybettik": 5549,
      "ĠkadÄ±nlarÄ±n": 5550,
      "ĠkadÄ±nlara": 5551,
      "ankaya": 5552,
      "ĠgÃ¶rÃ¼ÅŁmeler": 5553,
      "ĠgÃ¶rÃ¼ÅŁmenin": 5554,
      "Ġtarihinde": 5555,
      "Ġtarihlerinde": 5556,
      "ĠAyr": 5557,
      "ĠadÄ±nÄ±": 5558,
      "ĠBaÅŁkanlarÄ±": 5559,
      "Ġikram": 5560,
      "ĠkararÄ±nÄ±": 5561,
      "ĠkararlÄ±yÄ±z": 5562,
      "ĠgÃ¶revi": 5563,
      "ĠgÃ¶revden": 5564,
      "ĠOrtay": 5565,
      "ĠOrgeneral": 5566,
      "Ä±mÄ±yla": 5567,
      "ĠdÄ±ÅŁarÄ±": 5568,
      "ĠolayÄ±n": 5569,
      "ĠolaylarÄ±": 5570,
      "Ġkimi": 5571,
      "Ġderledi": 5572,
      "ĠÃ¼yelerinin": 5573,
      "ĠyaptÄ±ÄŁÄ±nÄ±": 5574,
      "ĠÃ§alÄ±ÅŁmalara": 5575,
      "ĠÃ§alÄ±ÅŁmalarÄ±nÄ±": 5576,
      "ĠÃ§alÄ±ÅŁmalarÄ±na": 5577,
      "ÄŁimizi": 5578,
      "Ġtemel": 5579,
      "ĠdolaÅŁ": 5580,
      "ĠadamÄ±": 5581,
      "Ġsaniye": 5582,
      "Ġamb": 5583,
      "ĠhÃ¼kÃ¼meti": 5584,
      "Ġaraca": 5585,
      "ĠuÃ§uÅŁ": 5586,
      "Ġizley": 5587,
      "Ġizlemeye": 5588,
      "ĠSerg": 5589,
      "Ġkesildi": 5590,
      "ĠÃ§Ä±karÄ±ldÄ±ÄŁÄ±": 5591,
      "ĠfarkÄ±nda": 5592,
      "ĠÄ°srail": 5593,
      "ĠÄ°smail": 5594,
      "ĠÄ°srafil": 5595,
      "ĠSanat": 5596,
      "ĠÅŁeker": 5597,
      "ĠdÃ¶nemine": 5598,
      "ĠgittiÄŁi": 5599,
      "Ġaileler": 5600,
      "Ġailede": 5601,
      "Ġaileyiz": 5602,
      "ĠÃ¶nceliÄŁine": 5603,
      "ĠtoplantÄ±sÄ±": 5604,
      "Ġaskerin": 5605,
      "Ġavro": 5606,
      "ĠvatandaÅŁlarÄ±ndan": 5607,
      "ĠMars": 5608,
      "ĠgeliÅŁmeler": 5609,
      "ĠEmre": 5610,
      "ĠtakÄ±mÄ±nÄ±": 5611,
      "ĠtamamlandÄ±": 5612,
      "Ġkoalisyon": 5613,
      "ĠÄ°statistik": 5614,
      "ĠÄ°stiklal": 5615,
      "Ġbabalar": 5616,
      "ĠbabasÄ±nÄ±": 5617,
      "ĠsÄ±kÄ±ntÄ±": 5618,
      "alimanÄ±": 5619,
      "Ġsenary": 5620,
      "Ġisimler": 5621,
      "ĠMahkeme": 5622,
      "Ġburada": 5623,
      "Ġkendine": 5624,
      "tiflere": 5625,
      "Ġtoplamda": 5626,
      "ĠKanun": 5627,
      "Ġ125": 5628,
      "ĠPost": 5629,
      "Ġsundu": 5630,
      "ĠsunduÄŁu": 5631,
      "ĠGazetesi": 5632,
      "ĠbÃ¶lÃ¼mÃ¼nÃ¼n": 5633,
      "anyahu": 5634,
      "Ġturda": 5635,
      "ĠyardÄ±mcÄ±": 5636,
      "ĠgerekÃ§esi": 5637,
      "Ġjinek": 5638,
      "Ġkorkut": 5639,
      "ĠkÄ±zlarÄ±": 5640,
      "ĠkampÄ±nda": 5641,
      "Ġhizmete": 5642,
      "Ġistismara": 5643,
      "ĠistediÄŁi": 5644,
      "ĠÅŀampiyonasÄ±": 5645,
      "ĠsÄ±nÄ±fta": 5646,
      "Ġcihaz": 5647,
      "bette": 5648,
      "Ġkoydu": 5649,
      "Ã¼lÃ¼ÄŁ": 5650,
      "ĠanlattÄ±": 5651,
      "ĠuyardÄ±": 5652,
      "ĠJoa": 5653,
      "ĠulaÅŁtÄ±": 5654,
      "enskiy": 5655,
      "ĠoÄŁlunu": 5656,
      "ĠÃ¶lÃ¼mÃ¼ne": 5657,
      "ĠGÃ¶st": 5658,
      "ĠUzun": 5659,
      "ĠeylÃ¼lde": 5660,
      "ĠyÃ¼kseldi": 5661,
      "Ġprotestolar": 5662,
      "ĠyÃ¶netimi": 5663,
      "ĠÄ°lkimen": 5664,
      "Ġotomobile": 5665,
      "Ġsezonu": 5666,
      "ĠSelÃ§uk": 5667,
      "ĠuygulamasÄ±": 5668,
      "Ġdokuz": 5669,
      "ĠGeÃ§en": 5670,
      "ĠGeÃ§idi": 5671,
      "ĠGeÃ§tiÄŁimiz": 5672,
      "ĠsÃ¼rÃ¼cÃ¼s": 5673,
      "ĠmÃ¼dÃ¼rlÃ¼ÄŁÃ¼": 5674,
      "ĠkatÄ±lÄ±m": 5675,
      "Ġteklifi": 5676,
      "Ġkendisini": 5677,
      "eterlilik": 5678,
      "Ġtasar": 5679,
      "Ġtalimat": 5680,
      "ĠBanksy": 5681,
      "ĠGÃ¶khan": 5682,
      "Ä±mÄ±zÄ±": 5683,
      "ĠduruÅŁmasÄ±": 5684,
      "olojik": 5685,
      "ĠmesajÄ±": 5686,
      "abilirsiniz": 5687,
      "Almanya": 5688,
      "ĠyÄ±kÄ±m": 5689,
      "ĠKayseri": 5690,
      "ĠMercedes": 5691,
      "ĠEÅŁeysiz": 5692,
      "ĠHavalimanÄ±": 5693,
      "ĠfÄ±rtÄ±na": 5694,
      "Ġgeriledi": 5695,
      "ĠelektriÄŁe": 5696,
      "ĠmÃ¼hendis": 5697,
      "Ġriskli": 5698,
      "ĠtÃ¼rlÃ¼": 5699,
      "ĠmÃ¼zaker": 5700,
      "ĠMesut": 5701,
      "ĠkardeÅŁler": 5702,
      "ĠotobÃ¼sÃ¼nde": 5703,
      "Ġliraya": 5704,
      "ĠliralÄ±k": 5705,
      "Ġistismarda": 5706,
      "Ġdemokrasi": 5707,
      "ĠÅŁartlÄ±": 5708,
      "ĠsorularÄ±nÄ±": 5709,
      "liyesi": 5710,
      "Ġsars": 5711,
      "ĠalacaklarÄ±": 5712,
      "Ġetmekten": 5713,
      "eceÄŁim": 5714,
      "Ġhalindeyken": 5715,
      "ĠavukatlÄ±k": 5716,
      "Ġkavga": 5717,
      "Ġdinleyen": 5718,
      "ĠSevilen": 5719,
      "ĠDiÄŁer": 5720,
      "ĠdÃ¶nÃ¼mÃ¼": 5721,
      "ĠdÃ¶nÃ¼mÃ¼nde": 5722,
      "Ġihtim": 5723,
      "ĠsatÄ±ÅŁa": 5724,
      "Ġgemisi": 5725,
      "Ġgecikme": 5726,
      "ĠtaÅŁÄ±n": 5727,
      "Ġisminin": 5728,
      "Ġseviyesinin": 5729,
      "ĠbarÄ±ÅŁ": 5730,
      "ĠSaldÄ±r": 5731,
      "ĠaÅŁamasÄ±nÄ±n": 5732,
      "Paris": 5733,
      "Ġobjek": 5734,
      "Ġmezar": 5735,
      "ĠbaÅŁarÄ±lÄ±": 5736,
      "ĠaktardÄ±": 5737,
      "ĠBilimleri": 5738,
      "ĠOtomotivde": 5739,
      "ĠKredisi": 5740,
      "ĠÃ¼cretli": 5741,
      "Ġsakin": 5742,
      "ayÄ±sal": 5743,
      "Ġterci": 5744,
      "Ġtabanca": 5745,
      "Ġadetle": 5746,
      "ĠrahatsÄ±z": 5747,
      "Ġdurdurulan": 5748,
      "ĠUysal": 5749,
      "Ġsermaye": 5750,
      "Ġyetkilileri": 5751,
      "ASA": 5752,
      "PenÃ§e": 5753,
      "Ġsinem": 5754,
      "ĠhÃ¼kmetti": 5755,
      "Ġdalg": 5756,
      "Ä°srail": 5757,
      "Ġforma": 5758,
      "Ġedilmekte": 5759,
      "Ġyetkili": 5760,
      "Ġkoordineli": 5761,
      "donezya": 5762,
      "ĠDÃ¶nmez": 5763,
      "ĠYork": 5764,
      "ĠaÃ§Ä±lmasÄ±yla": 5765,
      "ĠÅŁartÄ±": 5766,
      "Ġtarifi": 5767,
      "Ġkadrosuna": 5768,
      "Ġkayyum": 5769,
      "ĠdÃ¼ÅŁÃ¼nÃ¼yorum": 5770,
      "Ġbelediyeye": 5771,
      "ĠtaslaÄŁÄ±": 5772,
      "sever": 5773,
      "Ġlez": 5774,
      "ĠMÃ¼zesi": 5775,
      "ĠÃľretime": 5776,
      "ĠyapÄ±landÄ±rma": 5777,
      "ĠhattÄ±nda": 5778,
      "ĠihtiyaÃ§": 5779,
      "ĠAÃ§Ä±klam": 5780,
      "ĠdokunulmazlÄ±k": 5781,
      "Suudi": 5782,
      "ĠbaÄŁÄ±m": 5783,
      "ĠbiÃ§im": 5784,
      "ĠkÄ±lÄ±nan": 5785,
      "Ġkuvvetli": 5786,
      "Ġdosy": 5787,
      "Ġmahalle": 5788,
      "ĠKampanyasÄ±": 5789,
      "ĠKÃ¼Ã§Ã¼kÃ§ekmece": 5790,
      "ĠPekcan": 5791,
      "ceÄŁiz": 5792,
      "Ġzaten": 5793,
      "ĠiÅŁgal": 5794,
      "ĠNetanyahu": 5795,
      "ĠBÃ¶ylece": 5796,
      "ĠteÅŁkilat": 5797,
      "Ġnoktada": 5798,
      "Gazeteci": 5799,
      "ĠToyota": 5800,
      "ĠaynÄ±sÄ±nÄ±": 5801,
      "Åŀampiyonlar": 5802,
      "Ġdiyalog": 5803,
      "ĠkoÅŁul": 5804,
      "ĠanlaÅŁmazlÄ±klar": 5805,
      "ĠaÄŁabeyi": 5806,
      "ĠmensuplarÄ±nÄ±n": 5807,
      "ĠgÃ¼rÃ¼ltÃ¼lÃ¼": 5808,
      "Claude": 5809,
      "Hatay": 5810,
      "Kayseri": 5811,
      "KÄ±lÄ±Ã§daroÄŁlu": 5812,
      "Saadet": 5813,
      "dÃ¶nÃ¼m": 5814,
      "klareli": 5815,
      "ĠtÃ¼fek": 5816,
      "ĠvarÄ±yorum": 5817,
      "ĠTaÅŁÄ±t": 5818,
      "ĠSezai": 5819,
      "ĠMahmut": 5820,
      "ĠMoskova": 5821,
      "Ġolmuyorsa": 5822,
      "Ġplastik": 5823,
      "ĠHidalgo": 5824,
      "ĠHekimliÄŁi": 5825,
      "ĠPastavilla": 5826,
      "ĠrÃ¼tb": 5827,
      "ĠelebaÅŁÄ±": 5828,
      "ĠOrtaylÄ±": 5829,
      "Ġobjektiflere": 5830,
      "12": 5831,
      "15": 5832,
      "44": 5833,
      "83": 5834,
      "Ay": 5835,
      "AFAD": 5836,
      "Bak": 5837,
      "Bank": 5838,
      "Cu": 5839,
      "CerrahpaÅŁa": 5840,
      "DA": 5841,
      "DV": 5842,
      "Den": 5843,
      "Dem": 5844,
      "Devlet": 5845,
      "EM": 5846,
      "Ege": 5847,
      "Ener": 5848,
      "Edirne": 5849,
      "Fet": 5850,
      "GÃ¼venli": 5851,
      "Her": 5852,
      "Haber": 5853,
      "Kam": 5854,
      "KÄ°": 5855,
      "KÄ±r": 5856,
      "KÃ¼ltÃ¼r": 5857,
      "LKP": 5858,
      "MA": 5859,
      "MÄ°T": 5860,
      "New": 5861,
      "Ok": 5862,
      "SÄ°": 5863,
      "Sosyal": 5864,
      "TV": 5865,
      "TerÃ¶r": 5866,
      "UV": 5867,
      "Ulu": 5868,
      "YD": 5869,
      "Yal": 5870,
      "YÄ±l": 5871,
      "bat": 5872,
      "dun": 5873,
      "gaz": 5874,
      "gesinde": 5875,
      "geli": 5876,
      "gari": 5877,
      "gÃ¶l": 5878,
      "kal": 5879,
      "ksi": 5880,
      "koÃ§": 5881,
      "ld": 5882,
      "lÄ±nda": 5883,
      "lili": 5884,
      "lob": 5885,
      "mÄ±nÄ±": 5886,
      "nuz": 5887,
      "nca": 5888,
      "oeller": 5889,
      "put": 5890,
      "ras": 5891,
      "rom": 5892,
      "sus": 5893,
      "sApp": 5894,
      "to": 5895,
      "tul": 5896,
      "tey": 5897,
      "tah": 5898,
      "taÃ§": 5899,
      "tuÄŁr": 5900,
      "uel": 5901,
      "vin": 5902,
      "yap": 5903,
      "yurt": 5904,
      "yÄ±ldÄ±z": 5905,
      "za": 5906,
      "ĠÄ±ÅŁ": 5907,
      "ĠÄ±s": 5908,
      "ĠasÄ±l": 5909,
      "and": 5910,
      "anlar": 5911,
      "anjit": 5912,
      "Ã¼ler": 5913,
      "Ã¼cÃ¼": 5914,
      "arlar": 5915,
      "arrem": 5916,
      "arÄ±ndaki": 5917,
      "ern": 5918,
      "ÅŁÄ±k": 5919,
      "enc": 5920,
      "eniÅŁ": 5921,
      "ÄŁum": 5922,
      "Ã§u": 5923,
      "Ã§ilik": 5924,
      "Ã§Ä±lÄ±k": 5925,
      "Ã§eÅŁme": 5926,
      "Ġbay": 5927,
      "Ġberi": 5928,
      "Ġbeton": 5929,
      "alel": 5930,
      "altÄ±": 5931,
      "alÄ±m": 5932,
      "Ġyat": 5933,
      "Ġyuk": 5934,
      "Ġken": 5935,
      "Ġkey": 5936,
      "Ġkah": 5937,
      "ĠkÄ±ÅŁ": 5938,
      "Ġkus": 5939,
      "Ġkup": 5940,
      "ĠkÃ¼f": 5941,
      "ĠkuÅŁak": 5942,
      "dev": 5943,
      "Ġsiz": 5944,
      "ĠsÄ±z": 5945,
      "Ġsunu": 5946,
      "Ġsoy": 5947,
      "Ġsend": 5948,
      "Ġsilin": 5949,
      "Ġsiyan": 5950,
      "Ġstrat": 5951,
      "ĠgiÅŁ": 5952,
      "ĠgÃ¼z": 5953,
      "elebek": 5954,
      "etiyle": 5955,
      "ayacak": 5956,
      "larsa": 5957,
      "Ġted": 5958,
      "ĠtanÄ±k": 5959,
      "Ġtiyatro": 5960,
      "ĠobÃ¼s": 5961,
      "dÄ±k": 5962,
      "esiz": 5963,
      "iyesi": 5964,
      "iyad": 5965,
      "unch": 5966,
      "Ġib": 5967,
      "Ġvat": 5968,
      "Ġvaz": 5969,
      "Ġvah": 5970,
      "ator": 5971,
      "ĠBB": 5972,
      "ĠBat": 5973,
      "ĠBit": 5974,
      "ĠBunda": 5975,
      "amak": 5976,
      "Ġhep": 5977,
      "Ġhukuk": 5978,
      "Ä±lmaz": 5979,
      "Ä±lmasÄ±nÄ±": 5980,
      "lerindeki": 5981,
      "ĠAc": 5982,
      "ĠAm": 5983,
      "ĠAdÄ±": 5984,
      "ĠAcil": 5985,
      "Ġdini": 5986,
      "orta": 5987,
      "orgi": 5988,
      "orld": 5989,
      "Ġmus": 5990,
      "Ġmeme": 5991,
      "Ġmaruz": 5992,
      "Ã¼rt": 5993,
      "Ã¼rlÃ¼ÄŁ": 5994,
      "emiyor": 5995,
      "Ã¼nkÃ¼": 5996,
      "Ã¼ngesinde": 5997,
      "ĠKÄ±s": 5998,
      "ĠKaÃ§ak": 5999,
      "ĠKelebek": 6000,
      "ĠKÃ¼rt": 6001,
      "ĠTO": 6002,
      "ĠTan": 6003,
      "ĠTÃľ": 6004,
      "ĠTuc": 6005,
      "ĠTug": 6006,
      "ĠTweet": 6007,
      "ĠÃ§Ã¶": 6008,
      "ĠÃ§ey": 6009,
      "ĠÃ§oÄŁ": 6010,
      "ĠSt": 6011,
      "ĠSen": 6012,
      "ĠSay": 6013,
      "ĠSÃ¼t": 6014,
      "ĠSalÄ±": 6015,
      "ĠSucu": 6016,
      "ĠStar": 6017,
      "ĠSch": 6018,
      "ĠSivil": 6019,
      "ĠSeÃ§im": 6020,
      "ĠSayÄ±sal": 6021,
      "ĠSput": 6022,
      "ikan": 6023,
      "ikat": 6024,
      "ikast": 6025,
      "ĠMor": 6026,
      "ĠMez": 6027,
      "ĠMÃ¼s": 6028,
      "ĠMeg": 6029,
      "ĠMersin": 6030,
      "ĠMayÄ±s": 6031,
      "ĠMetro": 6032,
      "ĠMemur": 6033,
      "ĠMLKP": 6034,
      "leye": 6035,
      "Ġdek": 6036,
      "Ġdefa": 6037,
      "Ġolsa": 6038,
      "Ġolabil": 6039,
      "ĠolabileceÄŁini": 6040,
      "ĠolmasÄ±ndan": 6041,
      "Ġafet": 6042,
      "eyn": 6043,
      "eyerek": 6044,
      "ÄŁÄ±z": 6045,
      "iÅŁik": 6046,
      "ĠÄ°b": 6047,
      "anÄ±r": 6048,
      "tiÄŁinde": 6049,
      "azin": 6050,
      "ĠDik": 6051,
      "ĠDom": 6052,
      "ĠDair": 6053,
      "ĠEnde": 6054,
      "ĠEuro": 6055,
      "isar": 6056,
      "isesi": 6057,
      "isinden": 6058,
      "Ã¼zgar": 6059,
      "Ġpr": 6060,
      "Ġpeyn": 6061,
      "abilmesi": 6062,
      "ĠÃ¶den": 6063,
      "ĠÃ¶yle": 6064,
      "ĠÃ¶dem": 6065,
      "ĠGÃ¼l": 6066,
      "ĠGot": 6067,
      "ĠHan": 6068,
      "ĠHukuk": 6069,
      "ĠHong": 6070,
      "ĠHaziran": 6071,
      "aÅŁkÄ±n": 6072,
      "ahar": 6073,
      "Ġyapmaya": 6074,
      "ĠyapÄ±lmasÄ±": 6075,
      "ĠPakistan": 6076,
      "Ġarayan": 6077,
      "ĠarasÄ±na": 6078,
      "Ġartar": 6079,
      "ĠaralÄ±k": 6080,
      "Ġalev": 6081,
      "Ġ250": 6082,
      "lano": 6083,
      "landÄ±ÄŁÄ±": 6084,
      "lanmasÄ±": 6085,
      "ĠYas": 6086,
      "ĠYaya": 6087,
      "ĠYeÅŁil": 6088,
      "ĠYEP": 6089,
      "ĠYaman": 6090,
      "Ġfak": 6091,
      "Ġfez": 6092,
      "ĠflaÅŁ": 6093,
      "Ġfakat": 6094,
      "luÄŁun": 6095,
      "ĠiÃ§ir": 6096,
      "ĠiÃ§me": 6097,
      "ĠFin": 6098,
      "ĠFil": 6099,
      "ĠFec": 6100,
      "ĠFotoÄŁraf": 6101,
      "ĠFonu": 6102,
      "okulu": 6103,
      "ĠÅŁer": 6104,
      "ĠÅŁeyi": 6105,
      "ĠdaÄŁ": 6106,
      "ĠdaÄŁÄ±": 6107,
      "Ġdayan": 6108,
      "alarak": 6109,
      "ĠgÃ¶rdÃ¼": 6110,
      "Ġnes": 6111,
      "Ġnum": 6112,
      "ĠnÃ¶beti": 6113,
      "Ġnormal": 6114,
      "ĠnÃ¶bet": 6115,
      "yonlarca": 6116,
      "aÄŁlar": 6117,
      "aÄŁÄ±na": 6118,
      "leniyor": 6119,
      "evize": 6120,
      "yoruz": 6121,
      "ĠkarÄ±n": 6122,
      "Ġkarara": 6123,
      "ecr": 6124,
      "ĠyÄ±llar": 6125,
      "ĠyÄ±ldÃ¶nÃ¼m": 6126,
      "ĠbaÅŁrol": 6127,
      "ĠgeleceÄŁi": 6128,
      "uku": 6129,
      "Ġedin": 6130,
      "Ġedilerek": 6131,
      "ĠÃ¶nde": 6132,
      "ĠgÃ¶be": 6133,
      "Ġverilmesi": 6134,
      "Ġ''": 6135,
      "ĠyarÄ±m": 6136,
      "ĠyardÄ±mc": 6137,
      "ĠOper": 6138,
      "roy": 6139,
      "Ġ350": 6140,
      "Ġ331": 6141,
      "Ġayar": 6142,
      "Ġayakta": 6143,
      "ĠaykÄ±r": 6144,
      "Ġ55": 6145,
      "ĠÃ§Ä±kÄ±ÅŁ": 6146,
      "ĠÃ§Ä±kmasÄ±": 6147,
      "Ġzeb": 6148,
      "Ġzinc": 6149,
      "ĠRum": 6150,
      "ĠRapor": 6151,
      "ĠRamaz": 6152,
      "ĠReform": 6153,
      "ĠyaÅŁÄ±": 6154,
      "ĠyaÅŁan": 6155,
      "ĠyaÅŁanÄ±yor": 6156,
      "ĠyaÅŁandÄ±ÄŁÄ±": 6157,
      "ekistan": 6158,
      "ĠÃĸte": 6159,
      "ĠÃĸykÃ¼": 6160,
      "Ġanma": 6161,
      "Ġrol": 6162,
      "Ġrefer": 6163,
      "Ġrevize": 6164,
      "opo": 6165,
      "ÅŀarkÄ±cÄ±": 6166,
      "mann": 6167,
      "ĠgeÃ§meye": 6168,
      "ĠgeÃ§id": 6169,
      "ĠÃĩeÅŁme": 6170,
      "ĠÃĩukur": 6171,
      "ĠÃĩankaya": 6172,
      "Ġengeli": 6173,
      "ĠbinalarÄ±": 6174,
      "Ġkonum": 6175,
      "Ġkonser": 6176,
      "Ġkontey": 6177,
      "ilme": 6178,
      "ilmeye": 6179,
      "ĠLe": 6180,
      "ĠLunch": 6181,
      "ĠLisesi": 6182,
      "ĠsÃ¼rÃ¼k": 6183,
      "ĠsÃ¼recek": 6184,
      "ĠsÃ¼rÃ¼ldÃ¼": 6185,
      "ĠÃ§alÄ±ÅŁmasÄ±": 6186,
      "ĠÃ§alÄ±ÅŁtÄ±r": 6187,
      "ĠÃ§alÄ±ÅŁÄ±yor": 6188,
      "ĠErba": 6189,
      "ĠErmeni": 6190,
      "Ġyerini": 6191,
      "Ġyerinin": 6192,
      "Ġyerinden": 6193,
      "Ġyerlerine": 6194,
      "ĠyerleÅŁk": 6195,
      "ĠNaz": 6196,
      "ĠNijer": 6197,
      "Ġistihbarat": 6198,
      "remlin": 6199,
      "Ġkaydet": 6200,
      "ĠPark": 6201,
      "ĠinsanÄ±": 6202,
      "Ġbelirsiz": 6203,
      "Ġ46": 6204,
      "Ġ49": 6205,
      "Ġkalk": 6206,
      "ĠkalsÄ±n": 6207,
      "Ġkalbinden": 6208,
      "ĠaÃ§Ä±klamasÄ±na": 6209,
      "ĠAnne": 6210,
      "ĠAnneleri": 6211,
      "Ġeleman": 6212,
      "Ġelbette": 6213,
      "ĠÅŀen": 6214,
      "ĠÅŀent": 6215,
      "ĠÅŀÃ¼ph": 6216,
      "Ġkurma": 6217,
      "Ġkurban": 6218,
      "ĠÃ¼zÃ¼m": 6219,
      "Ġ63": 6220,
      "Ġuygu": 6221,
      "Ġsorusu": 6222,
      "Ġsorusunun": 6223,
      "ĠdediÄŁi": 6224,
      "Ġdevi": 6225,
      "Ġtoplu": 6226,
      "ĠyÃ¶nÃ¼nde": 6227,
      "Ġdurdurdu": 6228,
      "nedy": 6229,
      "ĠkapalÄ±": 6230,
      "Ġoyunu": 6231,
      "ĠyakÄ±ndan": 6232,
      "ĠyaklaÅŁ": 6233,
      "ĠAktaÅŁ": 6234,
      "ebbÃ¼s": 6235,
      "ebilmek": 6236,
      "otor": 6237,
      "otten": 6238,
      "ĠHabertÃ¼rk": 6239,
      "edinin": 6240,
      "Ġgide": 6241,
      "cao": 6242,
      "Ġ2013": 6243,
      "Ġ2015": 6244,
      "Ġ74": 6245,
      "Ġhabere": 6246,
      "ĠAvaÅŁin": 6247,
      "Ġevinin": 6248,
      "Ġevlilik": 6249,
      "ĠBaÅŁkent": 6250,
      "imizi": 6251,
      "ĠÃľÃ§": 6252,
      "Ġyani": 6253,
      "ĠyanÄ±na": 6254,
      "Ġhayal": 6255,
      "ĠgÃ¶steri": 6256,
      "Ġhasta": 6257,
      "Ġpoz": 6258,
      "ĠattÄ±ÄŁÄ±": 6259,
      "Ġatlayarak": 6260,
      "ĠAlman": 6261,
      "ĠgÃ¶sterilerin": 6262,
      "ĠgÃ¶sterisine": 6263,
      "ĠII": 6264,
      "ĠIÅŁÄ±k": 6265,
      "Ġesas": 6266,
      "ĠMilyonlarca": 6267,
      "Ġsahtek": 6268,
      "ĠbÃ¶lgenin": 6269,
      "ĠbÃ¶lgelere": 6270,
      "ĠMÃ¼steÅŁ": 6271,
      "Ġyolunda": 6272,
      "Ġyolculu": 6273,
      "Ġmilyona": 6274,
      "ĠArnavut": 6275,
      "reden": 6276,
      "Ġtesti": 6277,
      "ĠdÃ¼ÅŁÃ¼ÅŁ": 6278,
      "Ġaktiv": 6279,
      "Ġgetirdi": 6280,
      "ĠsaldÄ±rÄ±sÄ±na": 6281,
      "ĠyaygÄ±n": 6282,
      "ĠÃ¶rnek": 6283,
      "ĠedildiÄŁini": 6284,
      "leÅŁen": 6285,
      "ĠÄ°nce": 6286,
      "ĠzamanlÄ±": 6287,
      "Ġzamanda": 6288,
      "ĠzammÄ±": 6289,
      "ĠZap": 6290,
      "ĠZeki": 6291,
      "ĠZÄ±rhlÄ±": 6292,
      "ĠZikar": 6293,
      "ĠhavacÄ±lÄ±k": 6294,
      "ĠyazÄ±mÄ±": 6295,
      "ĠyazÄ±sÄ±nda": 6296,
      "ĠgeldiÄŁini": 6297,
      "ĠhazÄ±rlÄ±ÄŁÄ±": 6298,
      "ĠhazÄ±rladÄ±ÄŁÄ±": 6299,
      "Ġihbar": 6300,
      "Ġ84": 6301,
      "Ġ800": 6302,
      "Ġuzay": 6303,
      "Ġdurumda": 6304,
      "Ġdurumunda": 6305,
      "ĠÃ¼lkem": 6306,
      "ĠWorld": 6307,
      "ĠKonferansÄ±": 6308,
      "rafikte": 6309,
      "ĠsaygÄ±": 6310,
      "ĠsayÄ±sÄ±nÄ±": 6311,
      "olog": 6312,
      "layacak": 6313,
      "ĠkadÄ±nlarda": 6314,
      "ĠsÃ¶zleri": 6315,
      "ĠsÃ¶zcÃ¼sÃ¼": 6316,
      "Ġmedyaya": 6317,
      "ĠgÃ¶rÃ¼ÅŁmesine": 6318,
      "2020": 6319,
      "liÄŁindeki": 6320,
      "ranma": 6321,
      "ĠAynÄ±": 6322,
      "ĠAyÅŁe": 6323,
      "ĠTÃ¼rkÃ§e": 6324,
      "Ġokulu": 6325,
      "Ġhala": 6326,
      "ĠOrgan": 6327,
      "ĠOrtad": 6328,
      "iÃ§re": 6329,
      "ĠsatÄ±ÅŁÄ±": 6330,
      "Ġsevgil": 6331,
      "Ġerdi": 6332,
      "Ġkims": 6333,
      "ĠkimliÄŁini": 6334,
      "Ġderin": 6335,
      "ĠderneÄŁe": 6336,
      "ĠkullanÄ±ldÄ±": 6337,
      "ĠkullanÄ±ldÄ±ÄŁÄ±": 6338,
      "ĠÃ¼ye": 6339,
      "Ġyoktu": 6340,
      "ĠtemalÄ±": 6341,
      "Ġdolu": 6342,
      "Ġdoldur": 6343,
      "ĠProj": 6344,
      "Ġdenetim": 6345,
      "ĠÃ§arpÄ±yordu": 6346,
      "ĠfiyatÄ±nÄ±": 6347,
      "ĠgeÃ§iren": 6348,
      "ĠgeÃ§irilen": 6349,
      "Ġbakmaz": 6350,
      "Ġadam": 6351,
      "Ġmerm": 6352,
      "ĠyÃ¼rÃ¼rlÃ¼ÄŁ": 6353,
      "lanÄ±rken": 6354,
      "rettin": 6355,
      "ĠgeÃ§tiÄŁi": 6356,
      "ĠyayÄ±nlan": 6357,
      "ĠÃ¶nemlidir": 6358,
      "ĠSerbest": 6359,
      "ĠyargÄ±": 6360,
      "ĠtartÄ±ÅŁtÄ±ÄŁÄ±": 6361,
      "Ġkeseriz": 6362,
      "lendiÄŁini": 6363,
      "ĠÃ§Ä±karÄ±lan": 6364,
      "Ġuygulanan": 6365,
      "ĠyetiÅŁ": 6366,
      "ĠÄ°slam": 6367,
      "ĠboÅŁan": 6368,
      "Ġkilit": 6369,
      "ĠÃ§ocuklarÄ±mÄ±z": 6370,
      "ĠkonuÅŁmasÄ±": 6371,
      "ĠkonuÅŁmada": 6372,
      "ozgat": 6373,
      "ÅŁamba": 6374,
      "Ġbilgiye": 6375,
      "Ġbilgisayar": 6376,
      "ucuz": 6377,
      "ĠHakk": 6378,
      "ĠkaldÄ±rÄ±ldÄ±ÄŁÄ±": 6379,
      "ĠtoplantÄ±sÄ±na": 6380,
      "ĠgerÃ§ekleÅŁtiren": 6381,
      "ĠgerÃ§ekleÅŁtirilecek": 6382,
      "cilerinden": 6383,
      "Ä±pranma": 6384,
      "Ġavantaj": 6385,
      "ĠÅŁÃ¼pheliden": 6386,
      "ustin": 6387,
      "ustur": 6388,
      "ĠvatandaÅŁlarÄ±n": 6389,
      "ĠMardin": 6390,
      "Ġdestekli": 6391,
      "ĠbÄ±raktÄ±": 6392,
      "erber": 6393,
      "ĠkÄ±rÄ±": 6394,
      "ĠkÄ±rÄ±k": 6395,
      "Ġmuhaf": 6396,
      "Ġmuhbir": 6397,
      "ĠyapÄ±lÄ±r": 6398,
      "Ġokulun": 6399,
      "Ġbaba": 6400,
      "ĠbabasÄ±nÄ±n": 6401,
      "Ġseyr": 6402,
      "Ġseyreden": 6403,
      "ĠTuran": 6404,
      "Ġboyu": 6405,
      "ĠsenatÃ¶r": 6406,
      "ĠaraÅŁtÄ±rÄ±lÄ±yor": 6407,
      "ĠedeceÄŁini": 6408,
      "agehan": 6409,
      "agazin": 6410,
      "ĠkuzeydoÄŁ": 6411,
      "ĠgÃ¼ndemde": 6412,
      "ĠgÃ¼ndemine": 6413,
      "Ġprojesi": 6414,
      "ĠaÅŁaÄŁÄ±": 6415,
      "ĠsÄ±Ã§": 6416,
      "Ġtelevizyon": 6417,
      "ĠprogramÄ±nda": 6418,
      "ĠgerÃ§ekleÅŁecek": 6419,
      "ĠValisine": 6420,
      "ĠkapatÄ±lan": 6421,
      "ĠgiriÅŁimi": 6422,
      "Ġturist": 6423,
      "ĠdeÄŁiÅŁikliÄŁi": 6424,
      "ĠjÃ¼r": 6425,
      "Ġkorun": 6426,
      "ĠyÃ¼rÃ¼ten": 6427,
      "ĠyatÄ±rÄ±mcÄ±": 6428,
      "ĠyansÄ±yan": 6429,
      "ĠkÄ±zÄ±": 6430,
      "ĠkampanyasÄ±": 6431,
      "Ġmakale": 6432,
      "ĠTarsus": 6433,
      "eyince": 6434,
      "anÄ±ÅŁma": 6435,
      "ĠyayÄ±mladÄ±": 6436,
      "Ġanlatan": 6437,
      "ĠanlatÄ±yor": 6438,
      "ĠinsanlÄ±k": 6439,
      "Ġyenisi": 6440,
      "ĠteÅŁebbÃ¼s": 6441,
      "Ġfutbolcusu": 6442,
      "ĠiÅŁlemi": 6443,
      "ĠUzmanlar": 6444,
      "ĠyanÄ±tladÄ±": 6445,
      "rahim": 6446,
      "ĠSaÄŁlÄ±ÄŁÄ±": 6447,
      "ĠDoÄŁan": 6448,
      "ĠpuanÄ±": 6449,
      "Ġyaralanan": 6450,
      "ĠÃ¼Ã§Ã¼ncÃ¼": 6451,
      "okratik": 6452,
      "ĠsektÃ¶rÃ¼mÃ¼ze": 6453,
      "Ġtakibi": 6454,
      "ĠSelim": 6455,
      "Ġartarak": 6456,
      "ĠdeÄŁiÅŁtirilmesi": 6457,
      "ĠgÃ¼zellik": 6458,
      "Ġdoktor": 6459,
      "Ġmaddi": 6460,
      "ĠElektrik": 6461,
      "landÄ±rdÄ±ÄŁÄ±": 6462,
      "ombiya": 6463,
      "Ġraporunda": 6464,
      "Ġfirmalar": 6465,
      "Ä±mÄ±zda": 6466,
      "tepe": 6467,
      "Ġdizisi": 6468,
      "Ġkurumsal": 6469,
      "ĠduruÅŁmaya": 6470,
      "ĠhastasÄ±na": 6471,
      "Ġiktid": 6472,
      "ĠpaylaÅŁÄ±mÄ±ndan": 6473,
      "Ġtehlikesi": 6474,
      "Ġtehlikeye": 6475,
      "Ġmevki": 6476,
      "Ġmevcut": 6477,
      "ĠKÄ±dem": 6478,
      "ĠKÄ±rÄ±m": 6479,
      "ĠKÄ±raÃ§": 6480,
      "ĠMerlano": 6481,
      "Ġpiyasalar": 6482,
      "ĠfÄ±rsat": 6483,
      "ĠyarÄ±ÅŁmasÄ±": 6484,
      "ĠsÃ¼redir": 6485,
      "Ġpersonelini": 6486,
      "ĠÃ§aÄŁrÄ±sÄ±nda": 6487,
      "off": 6488,
      "ĠmÃ¼zik": 6489,
      "ĠMuham": 6490,
      "ĠedilmiÅŁ": 6491,
      "ĠÃ¶ÄŁrencilerinin": 6492,
      "ĠimzaladÄ±": 6493,
      "Ġ07": 6494,
      "ĠuÄŁradÄ±": 6495,
      "ĠuÄŁradÄ±ÄŁÄ±": 6496,
      "ĠbÃ¼tÃ¼nlÃ¼ÄŁÃ¼": 6497,
      "ĠÃ§evresinde": 6498,
      "ĠSimeri": 6499,
      "Ġbirincilerinden": 6500,
      "ĠkaÃ§Ä±rma": 6501,
      "ĠkaÃ§Ä±rÄ±ldÄ±ÄŁÄ±nÄ±": 6502,
      "ĠbaÅŁvurusu": 6503,
      "ĠbaÅŁvurabilmek": 6504,
      "ĠharekatÄ±nda": 6505,
      "ĠharekatlarÄ±yla": 6506,
      "Ġsabit": 6507,
      "Ġpaketi": 6508,
      "ĠHayat": 6509,
      "ĠsÃ¼recin": 6510,
      "ĠsÃ¼recinin": 6511,
      "ĠsuÃ§lamalarÄ±nÄ±": 6512,
      "ĠsevkiyatÄ±": 6513,
      "ĠHastaneye": 6514,
      "Ġincelemeler": 6515,
      "Ġkavg": 6516,
      "Ġolumlu": 6517,
      "Ġnereye": 6518,
      "ĠyarattÄ±": 6519,
      "ĠÅŁÃ¼phelisi": 6520,
      "beyr": 6521,
      "beyli": 6522,
      "mediÄŁini": 6523,
      "ĠBalcÄ±": 6524,
      "ĠBalina": 6525,
      "ĠGÃ¶rÃ¼ÅŁ": 6526,
      "ĠPensil": 6527,
      "Ġfinal": 6528,
      "ĠÃ¼retilen": 6529,
      "ĠÃ¼rÃ¼nleri": 6530,
      "ĠÅŁeklindeki": 6531,
      "ĠsÃ¶ylemiÅŁ": 6532,
      "ĠiktidarÄ±n": 6533,
      "Enflasyon": 6534,
      "temoeller": 6535,
      "ĠHarry": 6536,
      "ĠPervin": 6537,
      "Ġniteli": 6538,
      "Ġnitelendir": 6539,
      "Ġsorgulama": 6540,
      "Ġekibine": 6541,
      "Ġtalebiyle": 6542,
      "ĠÅŁiddetli": 6543,
      "Paralel": 6544,
      "ĠkÄ±yÄ±": 6545,
      "Ġsporcu": 6546,
      "ĠmezarlÄ±k": 6547,
      "ĠyÄ±ldÄ±zdan": 6548,
      "ĠkiÅŁilerde": 6549,
      "ĠkiÅŁilerce": 6550,
      "ĠNuri": 6551,
      "Ġkurtul": 6552,
      "ronik": 6553,
      "ugh": 6554,
      "ĠbÃ¼yÃ¼me": 6555,
      "ĠbarajÄ±nÄ±n": 6556,
      "Ġtabanc": 6557,
      "Ġcezaevine": 6558,
      "Ġtazminat": 6559,
      "Ekonomi": 6560,
      "Pentagon": 6561,
      "Ġplatformu": 6562,
      "Ġfayd": 6563,
      "ĠChrist": 6564,
      "ĠyaralÄ±nÄ±n": 6565,
      "Ġyaralayan": 6566,
      "ĠuygulanmasÄ±na": 6567,
      "ĠkomÅŁu": 6568,
      "ĠSekreterinden": 6569,
      "BeyoÄŁlu": 6570,
      "Ġbahs": 6571,
      "Ġselfi": 6572,
      "ĠhatÄ±rlat": 6573,
      "Ġpanik": 6574,
      "ĠÅŁampiyonu": 6575,
      "ĠRuhani": 6576,
      "ĠkaldÄ±rÄ±ldÄ±ÄŁÄ±na": 6577,
      "Ġbanka": 6578,
      "Ġbloke": 6579,
      "Ġtavuk": 6580,
      "ĠBasel": 6581,
      "ĠAdam": 6582,
      "ĠÃ§apÄ±nda": 6583,
      "laziz": 6584,
      "ĠÄ°liÅŁk": 6585,
      "ĠGiorgi": 6586,
      "ĠYurtlar": 6587,
      "ĠduyduÄŁunuz": 6588,
      "ĠMÃ¼dÃ¼rlÃ¼ÄŁÃ¼n": 6589,
      "hatsApp": 6590,
      "Ã¼ste": 6591,
      "Ġticari": 6592,
      "Ġtransfer": 6593,
      "ĠAmerika": 6594,
      "Ġmekan": 6595,
      "Ġmaskeli": 6596,
      "ĠKennedy": 6597,
      "ĠaÄŁrÄ±sÄ±": 6598,
      "ĠÄ°daresi": 6599,
      "ĠDinner": 6600,
      "ĠYaklaÅŁÄ±k": 6601,
      "ĠFederasyon": 6602,
      "ĠCinayet": 6603,
      "ĠgÃ¶mÃ¼l": 6604,
      "ĠJaponya": 6605,
      "ĠsaldÄ±rganÄ±n": 6606,
      "ĠTemsilcisi": 6607,
      "ĠÄ°sviÃ§re": 6608,
      "ĠzorunluluÄŁu": 6609,
      "ĠBayrampaÅŁa": 6610,
      "ĠBaÅŁsavcÄ±lÄ±ÄŁÄ±nca": 6611,
      "ĠÃ¶zgÃ¼rlÃ¼ÄŁÃ¼nÃ¼n": 6612,
      "Ġfinansman": 6613,
      "ĠdÃ¶viz": 6614,
      "ĠsÄ±ÄŁÄ±nmacÄ±": 6615,
      "ONDA": 6616,
      "ĠyÃ¶rÃ¼ngesinde": 6617,
      "asaport": 6618,
      "Ġtims": 6619,
      "esterol": 6620,
      "Ġidari": 6621,
      "ĠAlanya": 6622,
      "ĠmÃ¼lakat": 6623,
      "ĠKireÃ§lenme": 6624,
      "ĠKapalÄ±": 6625,
      "ĠTeÅŁkil": 6626,
      "ĠMacron": 6627,
      "ĠHazÄ±rlÄ±klarÄ±mÄ±zÄ±": 6628,
      "ĠFahrettin": 6629,
      "ĠErkek": 6630,
      "ĠNobel": 6631,
      "alefetin": 6632,
      "ĠÃĸzbekistan": 6633,
      "ĠAyvacÄ±k": 6634,
      "trenÃ¶r": 6635,
      "ĠÃĸncelik": 6636,
      "Ġmuhalif": 6637,
      "ĠGÃ¼ngÃ¶rmÃ¼ÅŁ": 6638,
      "Ġhissedildi": 6639,
      "ĠsloganÄ±yla": 6640,
      "ĠhavalimanÄ±na": 6641,
      "EylÃ¼l": 6642,
      "takÄ±m": 6643,
      "amayÄ±nca": 6644,
      "ĠhÃ¼cre": 6645,
      "ĠTHY": 6646,
      "ĠDayanÄ±ÅŁma": 6647,
      "ĠeÄŁlen": 6648,
      "ĠGerektiÄŁinde": 6649,
      "Ġfizik": 6650,
      "Ġetiket": 6651,
      "ĠRose": 6652,
      "ĠÃĩarÅŁamba": 6653,
      "ĠLevent": 6654,
      "ĠNevin": 6655,
      "ĠAyrÄ±ntÄ±lar": 6656,
      "Ġizleyic": 6657,
      "ĠSergey": 6658,
      "Ġjinekolog": 6659,
      "Ġkorkutan": 6660,
      "Ġtercih": 6661,
      "Ġlezzet": 6662,
      "ĠAÃ§Ä±klamada": 6663,
      "ĠbiÃ§imde": 6664,
      "Bakan": 6665,
      "Enerji": 6666,
      "lobal": 6667,
      "tuÄŁrul": 6668,
      "ĠkÃ¼fÃ¼r": 6669,
      "Ġsendrom": 6670,
      "ĠsiyanÃ¼r": 6671,
      "ĠvazgeÃ§": 6672,
      "ĠvahÅŁ": 6673,
      "ĠKaÃ§akÃ§Ä±lÄ±k": 6674,
      "ĠTugay": 6675,
      "ĠSputnik": 6676,
      "ĠEndeksi": 6677,
      "ĠGottemoeller": 6678,
      "Ġartarken": 6679,
      "Ġfezlek": 6680,
      "ĠFecri": 6681,
      "ĠgÃ¶beÄŁimizi": 6682,
      "ĠaykÄ±rÄ±": 6683,
      "ĠRamazan": 6684,
      "Ġreferans": 6685,
      "ĠgeÃ§idinde": 6686,
      "Ġkonteyner": 6687,
      "Ġuygularsa": 6688,
      "ottenham": 6689,
      "ĠMÃ¼steÅŁar": 6690,
      "ĠOrganize": 6691,
      "ĠOrtadoÄŁu": 6692,
      "ĠyÃ¼rÃ¼rlÃ¼ÄŁe": 6693,
      "21": 6694,
      "27": 6695,
      "67": 6696,
      "73": 6697,
      "At": 6698,
      "Afet": 6699,
      "BA": 6700,
      "DT": 6701,
      "Dec": 6702,
      "EK": 6703,
      "EN": 6704,
      "El": 6705,
      "Frans": 6706,
      "Hen": 6707,
      "Hakk": 6708,
      "IF": 6709,
      "KÄ±": 6710,
      "Kol": 6711,
      "Kad": 6712,
      "KaÄŁÄ±thane": 6713,
      "Mal": 6714,
      "Mark": 6715,
      "Magazin": 6716,
      "NATO": 6717,
      "OB": 6718,
      "OD": 6719,
      "OX": 6720,
      "Pro": 6721,
      "San": 6722,
      "SaÄŁ": 6723,
      "Samsun": 6724,
      "Siper": 6725,
      "TSK": 6726,
      "Van": 6727,
      "VatandaÅŁ": 6728,
      "YÃ¼ksek": 6729,
      "ail": 6730,
      "awe": 6731,
      "ben": 6732,
      "bez": 6733,
      "cÄ±nÄ±n": 6734,
      "cra": 6735,
      "ds": 6736,
      "drum": 6737,
      "dosk": 6738,
      "ei": 6739,
      "eji": 6740,
      "fone": 6741,
      "gÃ¼zel": 6742,
      "ho": 6743,
      "hmer": 6744,
      "ier": 6745,
      "ida": 6746,
      "ka": 6747,
      "kel": 6748,
      "kes": 6749,
      "kele": 6750,
      "leki": 6751,
      "los": 6752,
      "liyet": 6753,
      "lilerin": 6754,
      "luluk": 6755,
      "mal": 6756,
      "mÄ±yor": 6757,
      "mama": 6758,
      "mÃ¼yor": 6759,
      "memesi": 6760,
      "nÃ¼": 6761,
      "nam": 6762,
      "nec": 6763,
      "oj": 6764,
      "olar": 6765,
      "oter": 6766,
      "pet": 6767,
      "pik": 6768,
      "prem": 6769,
      "plin": 6770,
      "resi": 6771,
      "rit": 6772,
      "relik": 6773,
      "ranÄ±n": 6774,
      "sk": 6775,
      "sar": 6776,
      "sine": 6777,
      "sÄ±ndaki": 6778,
      "siyet": 6779,
      "siyon": 6780,
      "skÃ¼": 6781,
      "sultan": 6782,
      "silahlÄ±": 6783,
      "ttÄ±": 6784,
      "tta": 6785,
      "ue": 6786,
      "uawe": 6787,
      "vanÄ±n": 6788,
      "yaÅŁ": 6789,
      "yse": 6790,
      "zan": 6791,
      "Ġir": 6792,
      "Ġro": 6793,
      "Ġucuz": 6794,
      "ard": 6795,
      "arken": 6796,
      "arÄ±sÄ±": 6797,
      "arip": 6798,
      "areti": 6799,
      "eratif": 6800,
      "inasyon": 6801,
      "ÅŁan": 6802,
      "ÅŁen": 6803,
      "ÅŁembe": 6804,
      "enor": 6805,
      "ilya": 6806,
      "ileli": 6807,
      "ileceÄŁi": 6808,
      "illeme": 6809,
      "ilebilir": 6810,
      "ÄŁin": 6811,
      "ÄŁinin": 6812,
      "ÄŁuz": 6813,
      "ÄŁÄ±ndaki": 6814,
      "ÄŁiniz": 6815,
      "Ã§is": 6816,
      "Ã§ileri": 6817,
      "Ã§ata": 6818,
      "Ġbuz": 6819,
      "Ġbom": 6820,
      "ĠbalÄ±k": 6821,
      "Ġbeden": 6822,
      "Ġbalk": 6823,
      "ĠbahÃ§": 6824,
      "ĠbildiÄŁi": 6825,
      "Ġberber": 6826,
      "alÄ±n": 6827,
      "alaj": 6828,
      "alcao": 6829,
      "Ġyam": 6830,
      "Ġyuvar": 6831,
      "Ġker": 6832,
      "ĠkÃ¼r": 6833,
      "Ġkum": 6834,
      "Ġkade": 6835,
      "Ġkep": 6836,
      "Ġkoz": 6837,
      "ĠkavuÅŁ": 6838,
      "ĠkÄ±t": 6839,
      "desiz": 6840,
      "deprem": 6841,
      "aken": 6842,
      "akla": 6843,
      "Ġsuy": 6844,
      "irlerin": 6845,
      "irdek": 6846,
      "Ġgay": 6847,
      "Ġgaz": 6848,
      "Ġgiz": 6849,
      "Ġgec": 6850,
      "Ġgrubu": 6851,
      "ĠgÄ±da": 6852,
      "Ġglobal": 6853,
      "dama": 6854,
      "elt": 6855,
      "eliyat": 6856,
      "elÃ§i": 6857,
      "etik": 6858,
      "etteki": 6859,
      "ayri": 6860,
      "ayacaÄŁÄ±nÄ±": 6861,
      "aslan": 6862,
      "assu": 6863,
      "dim": 6864,
      "dip": 6865,
      "ekili": 6866,
      "eksel": 6867,
      "onunda": 6868,
      "onnec": 6869,
      "Ġta": 6870,
      "Ġticaret": 6871,
      "ĠtÃ¼tÃ¼n": 6872,
      "ĠtanÄ±ÅŁ": 6873,
      "Ġtweet": 6874,
      "Ġtansiyon": 6875,
      "ĠtraktÃ¶r": 6876,
      "Ġtenor": 6877,
      "Ġoper": 6878,
      "dÄ±man": 6879,
      "esan": 6880,
      "esince": 6881,
      "iyer": 6882,
      "iyel": 6883,
      "iyesinin": 6884,
      "unÃ§": 6885,
      "unuz": 6886,
      "Ġide": 6887,
      "ĠiÅŁtir": 6888,
      "Ġimar": 6889,
      "Ġvak": 6890,
      "Ġvurdu": 6891,
      "ĠBun": 6892,
      "ĠBuna": 6893,
      "ĠBÃ¼tÃ¼n": 6894,
      "ĠBina": 6895,
      "amonu": 6896,
      "ameniÅŁ": 6897,
      "ĠhÄ±r": 6898,
      "Ġhain": 6899,
      "urlandÄ±": 6900,
      "ursal": 6901,
      "uruma": 6902,
      "lerken": 6903,
      "ĠAj": 6904,
      "ĠAz": 6905,
      "ĠAma": 6906,
      "ĠAki": 6907,
      "ĠAÅŀ": 6908,
      "ĠAÄŁr": 6909,
      "ĠAtal": 6910,
      "ĠAÅŁk": 6911,
      "Ġdak": 6912,
      "Ġders": 6913,
      "Ġdarp": 6914,
      "orun": 6915,
      "Ġmir": 6916,
      "Ġmah": 6917,
      "ĠmÃ¼k": 6918,
      "ĠmÃ¼s": 6919,
      "Ġmeclis": 6920,
      "emiÅŁ": 6921,
      "emenin": 6922,
      "emeyince": 6923,
      "Ã¼nÃ¼z": 6924,
      "Ã¼nih": 6925,
      "Ã¼ncÃ¼sÃ¼": 6926,
      "Ä°ÅŁ": 6927,
      "Ä°talya": 6928,
      "Ä°HA": 6929,
      "stakil": 6930,
      "ĠKu": 6931,
      "ĠKaf": 6932,
      "ĠKÃ¼t": 6933,
      "ĠKoc": 6934,
      "ĠKuv": 6935,
      "ĠKoz": 6936,
      "ĠKÃ¼resel": 6937,
      "ĠKaÄŁÄ±thane": 6938,
      "ĠKDV": 6939,
      "ĠKONDA": 6940,
      "ĠTam": 6941,
      "ĠTus": 6942,
      "ĠTÄ±p": 6943,
      "ĠTottenham": 6944,
      "ĠÃ§Ä±": 6945,
      "ĠÃ§ar": 6946,
      "ĠÃ§eki": 6947,
      "ĠÃ§oÄŁun": 6948,
      "ĠÃ§ant": 6949,
      "ĠSil": 6950,
      "ĠSam": 6951,
      "ĠSez": 6952,
      "ĠSavaÅŁ": 6953,
      "ĠSiyaset": 6954,
      "ĠSayÄ±n": 6955,
      "ĠStre": 6956,
      "ĠSendik": 6957,
      "ĠSilahlÄ±": 6958,
      "ĠStrat": 6959,
      "ĠSamsun": 6960,
      "ĠSquin": 6961,
      "ĠSGK": 6962,
      "ĠSabah": 6963,
      "ĠSokak": 6964,
      "ĠSUV": 6965,
      "ĠSassu": 6966,
      "apei": 6967,
      "ĠMuz": 6968,
      "ĠMut": 6969,
      "ĠMaÃ§": 6970,
      "ĠMali": 6971,
      "ĠMÄ±sÄ±r": 6972,
      "ĠMike": 6973,
      "ĠMamak": 6974,
      "ĠMÃ¼nih": 6975,
      "ĠMapei": 6976,
      "lev": 6977,
      "Ġdef": 6978,
      "Ġdede": 6979,
      "Ġdemek": 6980,
      "Ġbirey": 6981,
      "ĠbirliÄŁi": 6982,
      "imya": 6983,
      "Ġolmas": 6984,
      "Ġolmaya": 6985,
      "Ġolup": 6986,
      "Ġolmayacak": 6987,
      "Ġac": 6988,
      "ĠadÄ±ndan": 6989,
      "eyting": 6990,
      "laf": 6991,
      "Ã¶reni": 6992,
      "iÅŁi": 6993,
      "iÅŁli": 6994,
      "iÅŁlerinden": 6995,
      "tÄ±p": 6996,
      "ĠÄ°kinci": 6997,
      "ĠÄ°ÅŀKUR": 6998,
      "ĠÄ°letiÅŁim": 6999,
      "anÄ±t": 7000,
      "tici": 7001,
      "ticut": 7002,
      "azartesi": 7003,
      "ĠDÄ±ÅŁ": 7004,
      "ĠDav": 7005,
      "ĠDaÄŁ": 7006,
      "ĠDisi": 7007,
      "ĠDiv": 7008,
      "ĠDirektÃ¶r": 7009,
      "ĠDidi": 7010,
      "ĠDoÃ§": 7011,
      "ĠDalam": 7012,
      "ĠDuvar": 7013,
      "indey": 7014,
      "ĠEÄŁer": 7015,
      "ĠEdirne": 7016,
      "ise": 7017,
      "ĠpeÅŁ": 7018,
      "Ġpsik": 7019,
      "Ġpenc": 7020,
      "abrika": 7021,
      "ĠÃ¶v": 7022,
      "ĠÃ¶tÃ¼r": 7023,
      "Ġez": 7024,
      "ĠGer": 7025,
      "ĠGÃ¼nde": 7026,
      "ĠGIF": 7027,
      "Ä±nÄ±r": 7028,
      "Ä±nÄ±z": 7029,
      "lÄ±ÄŁa": 7030,
      "lÄ±ÄŁÄ±nÄ±n": 7031,
      "ĠHikay": 7032,
      "ĠHisar": 7033,
      "ĠHoff": 7034,
      "ĠyapÄ±m": 7035,
      "ĠyapÄ±sÄ±": 7036,
      "ĠyapacaÄŁÄ±nÄ±": 7037,
      "ĠPM": 7038,
      "ĠPak": 7039,
      "ĠPiyan": 7040,
      "ĠPYD": 7041,
      "Ġard": 7042,
      "Ġarz": 7043,
      "ĠarÄ±yor": 7044,
      "ĠalacaÄŁÄ±": 7045,
      "Ġalmay": 7046,
      "ĠalamayÄ±nca": 7047,
      "itch": 7048,
      "itelikli": 7049,
      "oÄŁuz": 7050,
      "Ä±rlÄ±": 7051,
      "aca": 7052,
      "ĠYa": 7053,
      "ĠYay": 7054,
      "ĠYusu": 7055,
      "ĠYayÄ±n": 7056,
      "ĠYeterlilik": 7057,
      "Ġfel": 7058,
      "ĠiÃ§en": 7059,
      "ĠFalcao": 7060,
      "affer": 7061,
      "Ġsonsuz": 7062,
      "ĠsonlandÄ±r": 7063,
      "ĠaÃ§an": 7064,
      "oker": 7065,
      "okul": 7066,
      "ĠCook": 7067,
      "ĠCerrah": 7068,
      "ĠÅŁiÅŁ": 7069,
      "Ġday": 7070,
      "ilerle": 7071,
      "ilerinden": 7072,
      "ĠgÃ¶rm": 7073,
      "ĠgÃ¶rme": 7074,
      "ĠgÃ¶rÃ¼ldÃ¼": 7075,
      "Ġnak": 7076,
      "ĠniÅŁ": 7077,
      "Ġniyet": 7078,
      "Ġnisan": 7079,
      "ĠnÃ¼kleer": 7080,
      "Ġnetic": 7081,
      "stana": 7082,
      "Ä±sÄ±z": 7083,
      "eve": 7084,
      "evinde": 7085,
      "usunu": 7086,
      "usundaki": 7087,
      "yorsa": 7088,
      "lÃ¼man": 7089,
      "addesi": 7090,
      "lament": 7091,
      "lamasÄ±na": 7092,
      "lamÄ±ÅŁtÄ±": 7093,
      "Ġbulmak": 7094,
      "ĠolduklarÄ±nÄ±": 7095,
      "eciler": 7096,
      "Ä±mÄ±n": 7097,
      "ĠgeldiÄŁi": 7098,
      "ezilya": 7099,
      "likten": 7100,
      "ukluÄŁu": 7101,
      "Ġedilirken": 7102,
      "dÄ±rÄ±m": 7103,
      "Ġveriyor": 7104,
      "Ġverilerini": 7105,
      "Ġvermesinin": 7106,
      "ĠyarÄ±": 7107,
      "ĠyarÄ±ndan": 7108,
      "ĠyarÄ±sÄ±nda": 7109,
      "ĠyarÄ±sÄ±ndan": 7110,
      "ĠObr": 7111,
      "ĠOGS": 7112,
      "ĠObez": 7113,
      "ĠOÄŁuz": 7114,
      "Ġbulunurken": 7115,
      "ĠayÄ±ndan": 7116,
      "ĠayÄ±nÄ±n": 7117,
      "ĠgÃ¼nler": 7118,
      "ĠgÃ¼ndÃ¼r": 7119,
      "lÄ±klar": 7120,
      "lÄ±kla": 7121,
      "lÄ±ktan": 7122,
      "Ġ53": 7123,
      "Ġ58": 7124,
      "ĠÃ§Ä±ktÄ±ÄŁÄ±": 7125,
      "ĠÃ§Ä±karÄ±": 7126,
      "Ġzih": 7127,
      "Ġzehir": 7128,
      "ĠRob": 7129,
      "ĠRyan": 7130,
      "ĠyaÅŁÄ±nÄ±": 7131,
      "ĠyaÅŁadÄ±ÄŁÄ±": 7132,
      "ĠÃĸlÃ¼m": 7133,
      "ĠÃĸdÃ¼l": 7134,
      "Ġanem": 7135,
      "Ġrenk": 7136,
      "ĠrÃ¼ÅŁvet": 7137,
      "opoz": 7138,
      "operatif": 7139,
      "Åŀu": 7140,
      "ĠkiÅŁilik": 7141,
      "ĠgeÃ§ici": 7142,
      "ĠÃĩak": 7143,
      "ĠÃĩek": 7144,
      "ĠÃĩapa": 7145,
      "ĠendÃ¼": 7146,
      "Ġbinaya": 7147,
      "Ġbinada": 7148,
      "Ã¼tok": 7149,
      "ilmedi": 7150,
      "ilmesinin": 7151,
      "ehit": 7152,
      "ĠLos": 7153,
      "teÅŁ": 7154,
      "ĠdÃ¼zey": 7155,
      "Ġ2030": 7156,
      "ĠiÅŁi": 7157,
      "ĠÃ§alÄ±ÅŁmasÄ±yla": 7158,
      "ĠÃ§alÄ±ÅŁtÄ±ÄŁÄ±nÄ±": 7159,
      "ĠErgen": 7160,
      "ĠErtaÅŁ": 7161,
      "ĠErtuÄŁrul": 7162,
      "Ġyere": 7163,
      "ĠNec": 7164,
      "ĠNASA": 7165,
      "ĠNagehan": 7166,
      "Ã¼sÃ¼nÃ¼": 7167,
      "eÅŁet": 7168,
      "ĠkadÄ±nÄ±": 7169,
      "Ġister": 7170,
      "Ġolanlar": 7171,
      "ĠyÃ¼zÃ¼ne": 7172,
      "ĠkaydÄ±": 7173,
      "Ġindi": 7174,
      "Ġinfaz": 7175,
      "Ġbelirledi": 7176,
      "Ġbelirlemek": 7177,
      "ĠÄ°stanbullu": 7178,
      "ĠkalÄ±p": 7179,
      "ĠaÃ§Ä±klamalara": 7180,
      "Ġbilim": 7181,
      "ĠilÃ§e": 7182,
      "ĠAngel": 7183,
      "lemelerden": 7184,
      "ĠÅŀam": 7185,
      "ĠÅŀimdi": 7186,
      "ĠÅŀiÅŁli": 7187,
      "Ġkurmak": 7188,
      "ĠkuralÄ±": 7189,
      "ĠVarlÄ±k": 7190,
      "ĠVoda": 7191,
      "ĠkarÅŁÄ±lan": 7192,
      "Ġ650": 7193,
      "Ġsordu": 7194,
      "Ġsorunu": 7195,
      "Ġsordum": 7196,
      "ĠbulunduklarÄ±": 7197,
      "Ġtaraftar": 7198,
      "ĠtopladÄ±": 7199,
      "aÄŁÄ±r": 7200,
      "ĠyÃ¶nde": 7201,
      "ĠyÃ¶netmen": 7202,
      "endiÄŁi": 7203,
      "negÃ¶l": 7204,
      "ĠkapÄ±larÄ±": 7205,
      "Ġoyunun": 7206,
      "ektaÅŁ": 7207,
      "lÃ¼ÄŁÃ¼ne": 7208,
      "Ġishal": 7209,
      "raklÄ±": 7210,
      "ĠUÄŁ": 7211,
      "ersiz": 7212,
      "ĠAkÃ§ak": 7213,
      "ĠAkadem": 7214,
      "malarÄ±nÄ±n": 7215,
      "ĠmÃ¼stakil": 7216,
      "ĠiliÅŁki": 7217,
      "oyu": 7218,
      "ĠkatlÄ±": 7219,
      "ĠkatÄ±ndaki": 7220,
      "Ġ71": 7221,
      "Ġ700": 7222,
      "Ġhaberlerini": 7223,
      "ĠAvukat": 7224,
      "Ġeve": 7225,
      "Ġevlat": 7226,
      "Ġevlere": 7227,
      "imize": 7228,
      "imizin": 7229,
      "imizde": 7230,
      "ĠÃľskÃ¼": 7231,
      "ĠyankÄ±": 7232,
      "Ġetkiliyor": 7233,
      "ĠgÃ¼c": 7234,
      "Ġtuttu": 7235,
      "ĠtutarÄ±ndaki": 7236,
      "ĠalÄ±ndÄ±ÄŁÄ±": 7237,
      "ĠalÄ±nmasÄ±": 7238,
      "ĠhakkÄ±": 7239,
      "ĠAllah": 7240,
      "ĠgÃ¶steriyor": 7241,
      "ĠgÃ¶sterdiÄŁi": 7242,
      "ĠgÃ¶steriyi": 7243,
      "Ġsalg": 7244,
      "ĠsalgÄ±n": 7245,
      "ayÄ±p": 7246,
      "Ġsahn": 7247,
      "altÄ±ndan": 7248,
      "Ġkaybol": 7249,
      "ĠbÃ¶lgeden": 7250,
      "ĠbÃ¶lgelerinde": 7251,
      "Ġ95": 7252,
      "etirse": 7253,
      "ĠdÃ¶nÃ¼ÅŁtÃ¼": 7254,
      "Ġyolu": 7255,
      "Ġyolla": 7256,
      "ĠÃ¶ÄŁrenilen": 7257,
      "ĠÃĸzil": 7258,
      "ĠÃĸzpet": 7259,
      "ĠoperasyonlarÄ±": 7260,
      "ĠalanÄ±nda": 7261,
      "ĠalanlarÄ±": 7262,
      "ĠdÃ¼ny": 7263,
      "ĠdÃ¼ÅŁÃ¼k": 7264,
      "ĠdÃ¼ÅŁman": 7265,
      "ĠdÃ¼ÅŁmanÄ±": 7266,
      "ĠbÃ¼yÃ¼kelÃ§": 7267,
      "ĠJon": 7268,
      "Ã¼psultan": 7269,
      "Ġgerekir": 7270,
      "ĠgerekÃ§e": 7271,
      "ĠakÄ±mÄ±": 7272,
      "ĠLice": 7273,
      "Ġgetirme": 7274,
      "ĠsaldÄ±rdÄ±": 7275,
      "ĠyayÄ±nda": 7276,
      "ĠÃ¶rÃ¼m": 7277,
      "ĠÃ§ekim": 7278,
      "ĠÃ§ekiyor": 7279,
      "ĠÃ§ekirdek": 7280,
      "iff": 7281,
      "ĠmaÃ§Ä±nÄ±n": 7282,
      "ĠÄ°nfaz": 7283,
      "ĠZinc": 7284,
      "ĠZileli": 7285,
      "ivas": 7286,
      "artÄ±n": 7287,
      "Ġsert": 7288,
      "Ġsergil": 7289,
      "ĠseÃ§ilmek": 7290,
      "Ġhayata": 7291,
      "ĠhayatÄ±na": 7292,
      "icili": 7293,
      "Ġortalama": 7294,
      "Ġpolislerin": 7295,
      "Ġyazan": 7296,
      "ĠyazdÄ±ÄŁÄ±": 7297,
      "ĠtakÄ±lanlar": 7298,
      "mazsa": 7299,
      "mazlÄ±ÄŁÄ±": 7300,
      "Ġdakikada": 7301,
      "obil": 7302,
      "ĠBirisi": 7303,
      "riot": 7304,
      "ĠhazÄ±rlÄ±klarÄ±": 7305,
      "Ġazalarak": 7306,
      "ĠaltÄ±nÄ±": 7307,
      "ĠsÃ¶yley": 7308,
      "Ġ85": 7309,
      "ĠuzmanÄ±": 7310,
      "ĠÃ¶zet": 7311,
      "Ġekr": 7312,
      "Ġdaveti": 7313,
      "Ġbelirtiliyor": 7314,
      "Ġdurumun": 7315,
      "ĠÃ¶rgÃ¼tÃ¼n": 7316,
      "ĠÃ¶rgÃ¼tlerine": 7317,
      "ĠÃ¼lkesi": 7318,
      "ĠÃ¼lkeye": 7319,
      "ĠÃ¼lkelerinin": 7320,
      "ĠparaÅŁ": 7321,
      "ĠÃ¶ldÃ¼rmeye": 7322,
      "ĠÃ¶ldÃ¼rdÃ¼m": 7323,
      "ĠWal": 7324,
      "ĠWhatsApp": 7325,
      "Ġlimon": 7326,
      "ĠÃ¼retirse": 7327,
      "ĠsayÄ±m": 7328,
      "Ġekiplerinden": 7329,
      "ĠÄ°lber": 7330,
      "Ġtarihli": 7331,
      "rant": 7332,
      "Ãĸz": 7333,
      "ĠAyhan": 7334,
      "Ġadres": 7335,
      "ĠdeÄŁiÅŁim": 7336,
      "Ġikiye": 7337,
      "Ġbodrum": 7338,
      "ĠkÃ¶ÅŁ": 7339,
      "Ġokuyan": 7340,
      "ĠOrdu": 7341,
      "ĠOrman": 7342,
      "ovic": 7343,
      "ĠgÃ¼venliÄŁini": 7344,
      "bardÄ±man": 7345,
      "Ġgazetesinin": 7346,
      "Ġsatan": 7347,
      "ĠKomite": 7348,
      "ĠKomitesi": 7349,
      "ĠolayÄ±na": 7350,
      "celona": 7351,
      "mÄ±zÄ±lÄ±": 7352,
      "ĠereceÄŁi": 7353,
      "ĠkapsamlÄ±": 7354,
      "ĠBÃ¼yÃ¼kelÃ§": 7355,
      "ĠBÃ¼yÃ¼kelÃ§i": 7356,
      "Ġdernek": 7357,
      "Ġkullanma": 7358,
      "Ġkullanmak": 7359,
      "ĠkullanÄ±lmasÄ±": 7360,
      "Ġhapse": 7361,
      "ĠeÅŁit": 7362,
      "ĠeÅŁinin": 7363,
      "ĠsaldÄ±rÄ±ya": 7364,
      "Ãľst": 7365,
      "ĠayrÄ±ntÄ±": 7366,
      "vert": 7367,
      "ĠsÄ±ra": 7368,
      "Ġtemin": 7369,
      "ĠkaybettiÄŁini": 7370,
      "maye": 7371,
      "mayla": 7372,
      "Ġdenet": 7373,
      "Ġdeney": 7374,
      "ĠÃ§arparak": 7375,
      "Ġfiyatlar": 7376,
      "Ġbazda": 7377,
      "ĠbazÄ±nda": 7378,
      "ĠadayÄ±": 7379,
      "Ġmerkezine": 7380,
      "ĠsoruÅŁturmasÄ±nÄ±": 7381,
      "Ġamiral": 7382,
      "Ġameliyat": 7383,
      "ĠaracÄ±lÄ±ÄŁÄ±": 7384,
      "ĠbaÅŁlatÄ±ldÄ±ÄŁÄ±nÄ±": 7385,
      "tÄ±ktan": 7386,
      "ĠuÃ§uruma": 7387,
      "ĠyayÄ±nladÄ±ÄŁÄ±": 7388,
      "Ġizledi": 7389,
      "ĠSerebral": 7390,
      "ĠEser": 7391,
      "ĠEsed": 7392,
      "ĠtartÄ±ÅŁma": 7393,
      "Ġolmaktan": 7394,
      "ĠÄ°skoÃ§": 7395,
      "Ġtespiti": 7396,
      "ĠAdliyesi": 7397,
      "ĠÃ§ocuklarÄ±nÄ±n": 7398,
      "ĠSanders": 7399,
      "lÄ±ÄŁÄ±yla": 7400,
      "Ġemlak": 7401,
      "Ġkolesterol": 7402,
      "ĠKarab": 7403,
      "Ġbilgisi": 7404,
      "ĠdÃ¶nemi": 7405,
      "ĠseÃ§imlerin": 7406,
      "Ġailesinin": 7407,
      "Ġailelerine": 7408,
      "ĠÃ¶ncesinde": 7409,
      "ĠÃ¶ncÃ¼lÃ¼ÄŁ": 7410,
      "ĠkaldÄ±rÄ±lmasÄ±": 7411,
      "ĠtoplantÄ±da": 7412,
      "ĠtoplantÄ±daki": 7413,
      "ĠgÃ¼Ã§leri": 7414,
      "ĠgÃ¼Ã§lerinin": 7415,
      "ĠgÃ¼Ã§lÃ¼k": 7416,
      "ĠgÃ¼Ã§lendirme": 7417,
      "Ġaskerlerin": 7418,
      "Ġdikkate": 7419,
      "Ġdikkati": 7420,
      "ĠBÃ¶hmer": 7421,
      "ĠEnerji": 7422,
      "ĠgeliÅŁme": 7423,
      "ĠgeliÅŁmeleri": 7424,
      "Ġdesteklemelerden": 7425,
      "ĠbÄ±rakÄ±ldÄ±ÄŁÄ±": 7426,
      "Ġmuhab": 7427,
      "Ġmuhalefet": 7428,
      "ĠToplu": 7429,
      "ĠToplam": 7430,
      "ĠToprak": 7431,
      "ĠToplum": 7432,
      "ĠEmine": 7433,
      "ĠtakÄ±mdan": 7434,
      "Ġkod": 7435,
      "Ġkoca": 7436,
      "Ġokulda": 7437,
      "ĠokullarÄ±n": 7438,
      "ĠsÄ±kÄ±": 7439,
      "lediÄŁini": 7440,
      "Ġona": 7441,
      "Ġboynuz": 7442,
      "Ġseneki": 7443,
      "ulanlar": 7444,
      "ĠÄ°ÅŁlet": 7445,
      "ĠDemet": 7446,
      "ĠaraÅŁtÄ±rmasÄ±": 7447,
      "Ġisteyenler": 7448,
      "Ġbenim": 7449,
      "Ġedeb": 7450,
      "ĠedeceÄŁi": 7451,
      "Ġ177": 7452,
      "ĠgÃ¶rÃ¼nce": 7453,
      "Ġoynanan": 7454,
      "ĠoynandÄ±": 7455,
      "ĠÅŁirketin": 7456,
      "ĠÅŁirketinin": 7457,
      "ĠÅŁirketlerinden": 7458,
      "ĠAtlet": 7459,
      "ĠanlaÅŁmalÄ±": 7460,
      "Ġtoplama": 7461,
      "ĠgÃ¶sterilerden": 7462,
      "Ġeylemine": 7463,
      "ĠhesabÄ±": 7464,
      "ĠhesabÄ±nÄ±": 7465,
      "CumhurbaÅŁkanlÄ±ÄŁÄ±": 7466,
      "Ġkomedi": 7467,
      "Ġsuikast": 7468,
      "ĠKanunu": 7469,
      "ĠHassan": 7470,
      "Avukat": 7471,
      "baÅŁkan": 7472,
      "ĠPolitik": 7473,
      "ĠaraÃ§ta": 7474,
      "ĠaraÃ§tan": 7475,
      "ĠiÃ§eren": 7476,
      "Ġadaylar": 7477,
      "ĠadaylarÄ±": 7478,
      "ĠarkadaÅŁÄ±nÄ±": 7479,
      "ĠarkadaÅŁlarÄ±na": 7480,
      "ĠÅŁeydir": 7481,
      "ĠkapattÄ±": 7482,
      "ĠgiriÅŁinde": 7483,
      "anyol": 7484,
      "ingo": 7485,
      "Ġturizm": 7486,
      "ĠolmadÄ±k": 7487,
      "ĠolmadÄ±ÄŁÄ±na": 7488,
      "ĠÃ¶nerisi": 7489,
      "ĠÃ¶nerisine": 7490,
      "ĠyardÄ±mdan": 7491,
      "Ġkuruldu": 7492,
      "Ġkurultay": 7493,
      "Ġdevletin": 7494,
      "ĠdeÄŁerlendirmesini": 7495,
      "ĠdeÄŁerlendirmesinde": 7496,
      "Ġitibariyle": 7497,
      "Ġjandar": 7498,
      "andÄ±rÄ±cÄ±": 7499,
      "ĠyurttaÅŁ": 7500,
      "Ġsistemi": 7501,
      "Ġ160": 7502,
      "ĠyatÄ±rÄ±mlarÄ±": 7503,
      "vanya": 7504,
      "Ġborcu": 7505,
      "ĠyansÄ±yacak": 7506,
      "Ġkampany": 7507,
      "Ġhangileri": 7508,
      "ĠDenizli": 7509,
      "ĠistediÄŁini": 7510,
      "Ġkamyonlar": 7511,
      "ĠBayern": 7512,
      "Ġmaktul": 7513,
      "ĠTarih": 7514,
      "ĠyayÄ±mlandÄ±": 7515,
      "Ġpartisinin": 7516,
      "ĠkarÅŁÄ±laÅŁmada": 7517,
      "melere": 7518,
      "melerden": 7519,
      "Ãĩin": 7520,
      "Ãĩanakkale": 7521,
      "ĠkoyduÄŁu": 7522,
      "astamonu": 7523,
      "ĠmaÄŁaz": 7524,
      "ĠmaÄŁdur": 7525,
      "ĠYÄ±ldÄ±rÄ±m": 7526,
      "evrim": 7527,
      "Ġziyaretini": 7528,
      "ĠsÃ¼rdÃ¼rÃ¼yor": 7529,
      "Ġyenilen": 7530,
      "ĠteÅŁh": 7531,
      "ĠoÄŁul": 7532,
      "ĠÃ¶lÃ¼mÃ¼nÃ¼n": 7533,
      "ĠÃ¶lÃ¼mÃ¼yle": 7534,
      "ĠkonularÄ±nda": 7535,
      "ĠbaÅŁkanlarÄ±": 7536,
      "ĠdÃ¼ÅŁÃ¼rÃ¼ldÃ¼": 7537,
      "ĠyÃ¼kselen": 7538,
      "Ġberaat": 7539,
      "ĠKocaeli": 7540,
      "Ġenflasyonun": 7541,
      "ĠmÃ¼cadelede": 7542,
      "ĠbÃ¶lgesindeki": 7543,
      "Ġekonomisi": 7544,
      "Ġotomobilde": 7545,
      "Ġotomobilin": 7546,
      "ĠgÃ¶nderildi": 7547,
      "SGK": 7548,
      "Ġtepk": 7549,
      "limp": 7550,
      "ĠSelman": 7551,
      "ĠaÃ§Ä±lacak": 7552,
      "Ġnoktal": 7553,
      "ĠdeÄŁiÅŁtirme": 7554,
      "ĠuygulamasÄ±na": 7555,
      "ĠAhameniÅŁ": 7556,
      "Ġmemuru": 7557,
      "ĠpatladÄ±": 7558,
      "ĠpatlayÄ±": 7559,
      "ĠpatlamasÄ±": 7560,
      "landÄ±rÄ±lacak": 7561,
      "Ġraporu": 7562,
      "Ġraporunu": 7563,
      "Ġistiyorum": 7564,
      "ĠsÃ¶ylÃ¼": 7565,
      "ĠkatÄ±lmadÄ±": 7566,
      "Ġteklifine": 7567,
      "ĠÃ¼stÃ¼nde": 7568,
      "ĠboÅŁaltÄ±lan": 7569,
      "ĠSanayici": 7570,
      "Ġasgari": 7571,
      "ĠBarcelona": 7572,
      "Ġfirar": 7573,
      "ĠduruÅŁma": 7574,
      "ĠpaylaÅŁÄ±mda": 7575,
      "ĠyÄ±kÄ±l": 7576,
      "ĠtanÄ±tÄ±p": 7577,
      "ĠBenim": 7578,
      "ĠKÄ±brÄ±s": 7579,
      "ĠKaymak": 7580,
      "ĠKÄ±rklareli": 7581,
      "Ġgerilimi": 7582,
      "ĠkullanÄ±m": 7583,
      "ĠÃ¶ldÃ¼rÃ¼ldÃ¼ÄŁÃ¼": 7584,
      "ĠÃ¶ldÃ¼rÃ¼lmesine": 7585,
      "ĠÃ¶ldÃ¼rÃ¼lmesinin": 7586,
      "Ġriskini": 7587,
      "Ġkanun": 7588,
      "Ġsebep": 7589,
      "atÃ¶rÃ¼": 7590,
      "ĠmÃ¼zisyen": 7591,
      "ĠMeslek": 7592,
      "ĠMesleki": 7593,
      "ĠMuharrem": 7594,
      "ĠyapacaÄŁÄ±z": 7595,
      "ĠartÄ±ÅŁÄ±": 7596,
      "ĠkardeÅŁlerimiz": 7597,
      "ĠÃ¶ÄŁrencilere": 7598,
      "ĠÃ§ekiliÅŁi": 7599,
      "ĠliranÄ±n": 7600,
      "Ġeyaletinin": 7601,
      "Ġdereceden": 7602,
      "Ġbirbirine": 7603,
      "ĠÅŁartlarÄ±nÄ±": 7604,
      "ĠkaÃ§Ä±rÄ±lan": 7605,
      "ĠkameralarÄ±na": 7606,
      "Ġbenzer": 7607,
      "ĠÅŁikayetiyle": 7608,
      "ĠsarÄ±m": 7609,
      "ĠThe": 7610,
      "ĠMaden": 7611,
      "abÄ±ta": 7612,
      "Ġetkileyen": 7613,
      "ĠÃ§arptÄ±rÄ±lan": 7614,
      "Ġlisans": 7615,
      "Ġerkekler": 7616,
      "Ä±lÄ±rken": 7617,
      "ĠÃ§izg": 7618,
      "ĠÃ§Ã¶ktÃ¼": 7619,
      "ĠÄ°ranlÄ±": 7620,
      "ĠÅŁarkÄ±": 7621,
      "ĠÃĩocuklarÄ±": 7622,
      "Ġesnek": 7623,
      "ĠesnasÄ±nda": 7624,
      "ĠbozukluÄŁu": 7625,
      "Ġkitapta": 7626,
      "Trump": 7627,
      "Trabzonspor": 7628,
      "beyazlÄ±": 7629,
      "Ġyararlan": 7630,
      "ĠOngun": 7631,
      "ĠOnursal": 7632,
      "Ġismini": 7633,
      "Ġseviyesine": 7634,
      "ĠgÃ¶rÃ¼ntÃ¼ler": 7635,
      "ĠgÃ¶rÃ¼ntÃ¼leri": 7636,
      "Ġitfaiyesinin": 7637,
      "Endonezya": 7638,
      "ĠBekir": 7639,
      "Ġmaden": 7640,
      "ĠEvin": 7641,
      "ĠHarb": 7642,
      "ĠPerÅŁembe": 7643,
      "ĠbaÅŁlÄ±ktan": 7644,
      "Ġsorgulan": 7645,
      "ĠborÃ§larÄ±nÄ±n": 7646,
      "Ġbasketbol": 7647,
      "ĠkiralÄ±k": 7648,
      "ĠBuldan": 7649,
      "ĠMetina": 7650,
      "ĠMetiner": 7651,
      "ĠaÃ§Ä±ÄŁÄ±": 7652,
      "ĠaÃ§Ä±dan": 7653,
      "ĠanlamÄ±": 7654,
      "ĠcevabÄ±": 7655,
      "ĠKurulunun": 7656,
      "ĠKurulunca": 7657,
      "ĠsanÄ±ÄŁa": 7658,
      "Ġilerleyen": 7659,
      "ĠDÃ¼nyanÄ±n": 7660,
      "ĠEmekli": 7661,
      "ĠEmeklilikte": 7662,
      "ĠHaftasÄ±": 7663,
      "ĠOyuncu": 7664,
      "ĠkarÅŁÄ±lÄ±klÄ±": 7665,
      "ĠkuruluÅŁu": 7666,
      "Ġmalzeme": 7667,
      "Ġmalzemesi": 7668,
      "Ġapartman": 7669,
      "Ġapartmanda": 7670,
      "ĠÅŁofÃ¶rÃ¼": 7671,
      "Ġsavant": 7672,
      "Ġtablet": 7673,
      "ĠÃ§alÄ±n": 7674,
      "ĠGÃ¶zÃ¼tok": 7675,
      "ĠkuruÅŁluk": 7676,
      "ĠkaÃ§Ä±nmalarÄ±nÄ±": 7677,
      "ĠittifakÄ±n": 7678,
      "ĠkomÅŁusu": 7679,
      "ĠnoktasÄ±nda": 7680,
      "ĠYapÄ±lanmasÄ±": 7681,
      "Ġfestivalde": 7682,
      "Beyaz": 7683,
      "ĠkutladÄ±ÄŁÄ±": 7684,
      "Ġhikayesini": 7685,
      "ĠKamu": 7686,
      "ĠÄ°kti": 7687,
      "ĠRuhsar": 7688,
      "ĠkayyÄ±m": 7689,
      "Ġortadan": 7690,
      "ĠBaÅŁkanlÄ±ÄŁÄ±ndan": 7691,
      "Ġmeselesi": 7692,
      "ĠdolandÄ±rdÄ±": 7693,
      "Ġkorku": 7694,
      "ĠtaslaÄŁÄ±nda": 7695,
      "Ġmilletvekilleri": 7696,
      "ĠbunlarÄ±n": 7697,
      "ĠkÃ¶rlÃ¼ÄŁÃ¼": 7698,
      "eksika": 7699,
      "eksiyon": 7700,
      "ĠÃ¶lenlerin": 7701,
      "luÄŁunda": 7702,
      "ĠCamisi": 7703,
      "ĠBakanlÄ±ÄŁÄ±ndan": 7704,
      "ĠyangÄ±nda": 7705,
      "ĠZelenskiy": 7706,
      "ĠduyduklarÄ±nÄ±": 7707,
      "ĠdesteÄŁiyle": 7708,
      "ĠeriÅŁimi": 7709,
      "ĠkullanÄ±lamaz": 7710,
      "ĠdenizaltÄ±ndan": 7711,
      "ĠuÃ§aÄŁÄ±mÄ±zÄ±": 7712,
      "AltÄ±n": 7713,
      "ĠheyecanÄ±": 7714,
      "ĠHayvanlarÄ±": 7715,
      "Ġmuayenehan": 7716,
      "Akdeniz": 7717,
      "BaÅŁkan": 7718,
      "kunÃ§": 7719,
      "akarya": 7720,
      "ĠsatÄ±cÄ±larÄ±na": 7721,
      "ĠBrezilya": 7722,
      "Ġmenopoz": 7723,
      "ĠGaleri": 7724,
      "ĠPatriot": 7725,
      "ĠartÄ±yor": 7726,
      "ĠYerel": 7727,
      "ĠkarÄ±ÅŁtÄ±ÄŁÄ±": 7728,
      "Ġbelgesel": 7729,
      "Ġrejim": 7730,
      "ĠseÃ§ilsin": 7731,
      "ĠkolonlarÄ±n": 7732,
      "ĠfÄ±rlatÄ±lan": 7733,
      "ĠvurguladÄ±": 7734,
      "ĠdÃ¶rdÃ¼ncÃ¼": 7735,
      "ĠdÃ¶rdÃ¼ncÃ¼sÃ¼": 7736,
      "Adnan": 7737,
      "ĠuÄŁurlandÄ±": 7738,
      "Ä±ntÄ±lÄ±": 7739,
      "Ġyorar": 7740,
      "ĠmÃ¼lteci": 7741,
      "lacivert": 7742,
      "ilipak": 7743,
      "ĠanlayÄ±ÅŁÄ±": 7744,
      "Ġroman": 7745,
      "ĠyoksunluÄŁu": 7746,
      "ĠÄ°spanya": 7747,
      "ĠToplantÄ±sÄ±": 7748,
      "ĠAbdullah": 7749,
      "Ġseslendirdi": 7750,
      "AYM": 7751,
      "parator": 7752,
      "Ġbeyaz": 7753,
      "Ġgizlice": 7754,
      "Ġmisilleme": 7755,
      "ĠKitap": 7756,
      "ĠKendisi": 7757,
      "ĠSarayÄ±": 7758,
      "ĠMevlÃ¼": 7759,
      "ĠEcem": 7760,
      "Ġpompa": 7761,
      "ĠGÃ¼mÃ¼ÅŁhane": 7762,
      "ĠPotter": 7763,
      "ĠfalÃ§ata": 7764,
      "Ġrady": 7765,
      "ĠkaygÄ±larÄ±nÄ±n": 7766,
      "ĠinsanÄ±n": 7767,
      "ĠoranÄ±nda": 7768,
      "ĠakÄ±llÄ±": 7769,
      "Ġikramiye": 7770,
      "ĠdÄ±ÅŁarÄ±ya": 7771,
      "Ġambalaj": 7772,
      "ĠJoaquin": 7773,
      "ĠSaldÄ±rÄ±da": 7774,
      "ĠdosyalarÄ±": 7775,
      "Cubeyr": 7776,
      "Denizli": 7777,
      "FetullahÃ§Ä±": 7778,
      "Kamu": 7779,
      "rasya": 7780,
      "ĠyukarÄ±sÄ±": 7781,
      "Ġkeyif": 7782,
      "ĠgiÅŁelerin": 7783,
      "ĠAdÄ±gÃ¼zel": 7784,
      "ĠKÄ±sa": 7785,
      "ĠTuchel": 7786,
      "ĠTweetDec": 7787,
      "ĠÃ§Ã¶p": 7788,
      "ĠMÃ¼slÃ¼man": 7789,
      "ÄŁÄ±zdaki": 7790,
      "ĠÄ°brahim": 7791,
      "ĠDomingo": 7792,
      "ĠaralÄ±ksÄ±z": 7793,
      "ĠOperasÄ±": 7794,
      "Ġzebra": 7795,
      "ĠReformu": 7796,
      "ĠErbaa": 7797,
      "ĠErmenistan": 7798,
      "ĠÅŀenol": 7799,
      "otorinin": 7800,
      "ĠsahtekarlÄ±k": 7801,
      "ĠArnavutkÃ¶y": 7802,
      "ĠÃ¼lkemizi": 7803,
      "ĠHakkari": 7804,
      "ĠkÄ±rÄ±ÄŁÄ±": 7805,
      "Ġmuhafaza": 7806,
      "ĠjÃ¼ri": 7807,
      "ĠMuhammed": 7808,
      "ĠPensilvanya": 7809,
      "ĠmezarlÄ±kta": 7810,
      "Ġtabancayla": 7811,
      "Ġselfie": 7812,
      "ĠÄ°liÅŁkiler": 7813,
      "ĠGiorgio": 7814,
      "ĠMÃ¼dÃ¼rlÃ¼ÄŁÃ¼nce": 7815,
      "Ġtimsah": 7816,
      "ĠTeÅŁkilatÄ±": 7817,
      "trenÃ¶rÃ¼": 7818,
      "ĠeÄŁlence": 7819,
      "DTÃĸ": 7820,
      "Fransa": 7821,
      "KadÄ±n": 7822,
      "SaÄŁlÄ±k": 7823,
      "doskopi": 7824,
      "uawei": 7825,
      "Ġirade": 7826,
      "Ã§isiyiz": 7827,
      "ĠbombardÄ±man": 7828,
      "ĠyamaÃ§": 7829,
      "ĠyuvarlandÄ±": 7830,
      "ĠkÄ±talar": 7831,
      "onnecticut": 7832,
      "ĠAkif": 7833,
      "ĠAÄŁrÄ±": 7834,
      "ĠAtalay": 7835,
      "ĠTusk": 7836,
      "ĠStreet": 7837,
      "ĠSquinzi": 7838,
      "ĠSassuolo": 7839,
      "ĠMuzaffer": 7840,
      "ĠDÄ±ÅŁiÅŁlerinden": 7841,
      "ĠDisiplin": 7842,
      "ĠDivanÄ±": 7843,
      "ĠDidim": 7844,
      "ĠDalaman": 7845,
      "Ġpencer": 7846,
      "ĠÃ¶tÃ¼rÃ¼": 7847,
      "ĠHoffman": 7848,
      "ĠPiyango": 7849,
      "ĠYusuf": 7850,
      "ĠObezite": 7851,
      "ĠRobert": 7852,
      "ĠAngeles": 7853,
      "ĠVodafone": 7854,
      "ĠAkÃ§akale": 7855,
      "ĠÃľskÃ¼dar": 7856,
      "ĠÃĸzpetek": 7857,
      "ĠBÃ¶hmermann": 7858,
      "ĠToplumla": 7859,
      "ĠAhameniÅŁler": 7860,
      "ĠpatlayÄ±cÄ±": 7861,
      "paratorluÄŁu": 7862,
      "ĠTweetDeck": 7863,
      "''": 7864,
      "02": 7865,
      "11": 7866,
      "22": 7867,
      "24": 7868,
      "40": 7869,
      "45": 7870,
      "46": 7871,
      "52": 7872,
      "64": 7873,
      "66": 7874,
      "71": 7875,
      "89": 7876,
      "94": 7877,
      "AM": 7878,
      "AN": 7879,
      "Ana": 7880,
      "BT": 7881,
      "BaÅŁ": 7882,
      "BÄ°R": 7883,
      "Cemal": 7884,
      "Cilt": 7885,
      "Deprem": 7886,
      "EF": 7887,
      "ES": 7888,
      "FE": 7889,
      "Gemlik": 7890,
      "Gaziantep": 7891,
      "HK": 7892,
      "Hi": 7893,
      "HiÃ§": 7894,
      "IK": 7895,
      "IN": 7896,
      "IÅŁ": 7897,
      "Ko": 7898,
      "Kr": 7899,
      "Kon": 7900,
      "KER": 7901,
      "KÃ¼resel": 7902,
      "KoÃ§": 7903,
      "Li": 7904,
      "Man": 7905,
      "Meclis": 7906,
      "Miss": 7907,
      "Mehmet": 7908,
      "MAS": 7909,
      "Motorinin": 7910,
      "OM": 7911,
      "Ot": 7912,
      "PS": 7913,
      "PÄ°": 7914,
      "RS": 7915,
      "Rus": 7916,
      "Rekabet": 7917,
      "RKÄ°": 7918,
      "SJ": 7919,
      "SS": 7920,
      "SeÃ§im": 7921,
      "Sabah": 7922,
      "Tur": 7923,
      "Tokat": 7924,
      "TFF": 7925,
      "Trafikte": 7926,
      "Usta": 7927,
      "Ukrayna": 7928,
      "Yar": 7929,
      "YaÅŁ": 7930,
      "Yozgat": 7931,
      "Zel": 7932,
      "ai": 7933,
      "bas": 7934,
      "bon": 7935,
      "bine": 7936,
      "bini": 7937,
      "bÃ¼m": 7938,
      "barÄ±": 7939,
      "bahar": 7940,
      "bÃ¼ste": 7941,
      "cir": 7942,
      "casÄ±": 7943,
      "cÃ¼k": 7944,
      "ceye": 7945,
      "cimiz": 7946,
      "caÄŁÄ±nÄ±": 7947,
      "cks": 7948,
      "dinde": 7949,
      "dalÄ±k": 7950,
      "dova": 7951,
      "eÄŁini": 7952,
      "eopo": 7953,
      "fak": 7954,
      "fÄ±r": 7955,
      "faf": 7956,
      "feri": 7957,
      "gur": 7958,
      "gor": 7959,
      "ganÄ±": 7960,
      "gah": 7961,
      "gili": 7962,
      "halat": 7963,
      "hlak": 7964,
      "hliyet": 7965,
      "ian": 7966,
      "ieb": 7967,
      "iÄŁe": 7968,
      "jÄ±": 7969,
      "ke": 7970,
      "ku": 7971,
      "ket": 7972,
      "kas": 7973,
      "kÃ¼z": 7974,
      "kad": 7975,
      "ktik": 7976,
      "kov": 7977,
      "kansÄ±z": 7978,
      "lil": 7979,
      "lom": 7980,
      "lÄ±lÄ±k": 7981,
      "lesel": 7982,
      "lkÃ¼": 7983,
      "lilere": 7984,
      "mÃ¼r": 7985,
      "mÄ±nÄ±n": 7986,
      "melik": 7987,
      "marÄ±": 7988,
      "meyin": 7989,
      "naz": 7990,
      "naÄŁÄ±": 7991,
      "natif": 7992,
      "odir": 7993,
      "oyla": 7994,
      "olis": 7995,
      "oder": 7996,
      "odin": 7997,
      "pe": 7998,
      "post": 7999,
      "plom": 8000,
      "rin": 8001,
      "rim": 8002,
      "rab": 8003,
      "rac": 8004,
      "rok": 8005,
      "riyet": 8006,
      "riyat": 8007,
      "slan": 8008,
      "saÄŁ": 8009,
      "sip": 8010,
      "sakta": 8011,
      "semi": 8012,
      "tel": 8013,
      "tmak": 8014,
      "tarÄ±": 8015,
      "tgen": 8016,
      "tiyar": 8017,
      "the": 8018,
      "uar": 8019,
      "uli": 8020,
      "vel": 8021,
      "vey": 8022,
      "veÃ§": 8023,
      "veni": 8024,
      "varÄ±": 8025,
      "vuru": 8026,
      "visine": 8027,
      "wap": 8028,
      "yk": 8029,
      "yl": 8030,
      "yÄ±m": 8031,
      "yoz": 8032,
      "yumu": 8033,
      "yamin": 8034,
      "zÄ±": 8035,
      "zele": 8036,
      "Ġ%": 8037,
      "Ġu": 8038,
      "Ġ|": 8039,
      "ĠaÅŁk": 8040,
      "Ġlam": 8041,
      "Ġ00": 8042,
      "Ġlaz": 8043,
      "Ġlaf": 8044,
      "Ä±d": 8045,
      "Ä±dÄ±r": 8046,
      "Ä±can": 8047,
      "Ä±cÄ±lÄ±k": 8048,
      "ang": 8049,
      "anim": 8050,
      "anlarÄ±": 8051,
      "anci": 8052,
      "andev": 8053,
      "antrenÃ¶rÃ¼": 8054,
      "Ã¼ÄŁ": 8055,
      "Ã¼dÃ¼ÄŁÃ¼": 8056,
      "arsa": 8057,
      "aranjit": 8058,
      "erv": 8059,
      "erde": 8060,
      "ergi": 8061,
      "erre": 8062,
      "ino": 8063,
      "inac": 8064,
      "indir": 8065,
      "inizi": 8066,
      "ÅŁak": 8067,
      "ÅŁkin": 8068,
      "Ä±nÃ§": 8069,
      "Ä±nma": 8070,
      "Ä±ndÄ±r": 8071,
      "Ä±ndalÄ±k": 8072,
      "ena": 8073,
      "enci": 8074,
      "enme": 8075,
      "ilesi": 8076,
      "ilav": 8077,
      "ilemeyen": 8078,
      "ÄŁim": 8079,
      "Ã§isi": 8080,
      "Ã§iliÄŁi": 8081,
      "Ã§ekten": 8082,
      "Ġbiy": 8083,
      "ĠbÃ¼r": 8084,
      "Ġbis": 8085,
      "Ġbinin": 8086,
      "Ġbez": 8087,
      "Ġbilen": 8088,
      "ĠbasÄ±na": 8089,
      "Ġbize": 8090,
      "Ġbeyin": 8091,
      "Ġbeter": 8092,
      "ala": 8093,
      "alma": 8094,
      "aldÄ±ÄŁÄ±": 8095,
      "allah": 8096,
      "Ġyum": 8097,
      "Ġyiye": 8098,
      "ĠyeÅŁil": 8099,
      "ĠyÄ±pranma": 8100,
      "ĠkasÄ±": 8101,
      "Ġkesi": 8102,
      "Ġkok": 8103,
      "ĠkÄ±lan": 8104,
      "Ġkrem": 8105,
      "ĠkÄ±lÄ±": 8106,
      "ĠkaÅŁÄ±": 8107,
      "Ġkov": 8108,
      "ĠkandÄ±r": 8109,
      "deb": 8110,
      "deks": 8111,
      "akis": 8112,
      "akalÄ±": 8113,
      "Ġso": 8114,
      "Ġsam": 8115,
      "Ġsur": 8116,
      "Ġsos": 8117,
      "Ġsark": 8118,
      "ĠsalÄ±": 8119,
      "Ġsef": 8120,
      "Ġsic": 8121,
      "Ġsirk": 8122,
      "Ġsize": 8123,
      "Ġsavc": 8124,
      "Ġstaj": 8125,
      "Ġspek": 8126,
      "Ġswap": 8127,
      "Ã¶por": 8128,
      "Ã¶semi": 8129,
      "irle": 8130,
      "ĠgÄ±d": 8131,
      "elle": 8132,
      "etesi": 8133,
      "etmeni": 8134,
      "ayir": 8135,
      "aydÄ±": 8136,
      "ass": 8137,
      "asus": 8138,
      "asonu": 8139,
      "asinac": 8140,
      "lardÄ±": 8141,
      "larken": 8142,
      "diy": 8143,
      "diven": 8144,
      "eker": 8145,
      "ekin": 8146,
      "ekom": 8147,
      "ekte": 8148,
      "ekizli": 8149,
      "ones": 8150,
      "ondaki": 8151,
      "onot": 8152,
      "ondur": 8153,
      "Ġtan": 8154,
      "ĠtÄ±k": 8155,
      "ĠtÃ¼n": 8156,
      "Ġterk": 8157,
      "ĠtanÄ±n": 8158,
      "Ġturu": 8159,
      "Ġtaciz": 8160,
      "Ġtecr": 8161,
      "dÄ±klarÄ±nÄ±": 8162,
      "esyon": 8163,
      "estici": 8164,
      "iyken": 8165,
      "uno": 8166,
      "Ġicra": 8167,
      "Ġval": 8168,
      "Ġvek": 8169,
      "Ġvis": 8170,
      "Ġvit": 8171,
      "Ġveli": 8172,
      "Ġvade": 8173,
      "atacak": 8174,
      "atmayan": 8175,
      "atthe": 8176,
      "ĠBo": 8177,
      "ĠBildi": 8178,
      "ĠBeÅŁ": 8179,
      "ĠBunu": 8180,
      "ĠBunun": 8181,
      "ĠBundan": 8182,
      "ĠBing": 8183,
      "ĠBolu": 8184,
      "ĠBod": 8185,
      "ĠBilmedi": 8186,
      "ĠBieb": 8187,
      "amda": 8188,
      "amÄ±ÅŁ": 8189,
      "amanÄ±n": 8190,
      "amiral": 8191,
      "Ġhim": 8192,
      "Ġhaz": 8193,
      "Ġhis": 8194,
      "Ġhali": 8195,
      "ĠhoÅŁ": 8196,
      "urda": 8197,
      "Ä±layÄ±": 8198,
      "Ä±lmasÄ±na": 8199,
      "Ä±lsÄ±n": 8200,
      "lera": 8201,
      "lerbirliÄŁi": 8202,
      "lie": 8203,
      "liz": 8204,
      "ĠAN": 8205,
      "ĠAra": 8206,
      "ĠApp": 8207,
      "ĠAmed": 8208,
      "ĠAida": 8209,
      "ĠAstana": 8210,
      "ĠAteÅŁ": 8211,
      "ĠAilesi": 8212,
      "Ġdilen": 8213,
      "ĠdirektÃ¶r": 8214,
      "ĠdÃ¼ÄŁ": 8215,
      "orn": 8216,
      "oran": 8217,
      "Ġmor": 8218,
      "Ġmavi": 8219,
      "ĠmÄ±sÄ±r": 8220,
      "Ġmotosiklet": 8221,
      "Ã¼rriyet": 8222,
      "ullarÄ±n": 8223,
      "ulduÄŁu": 8224,
      "ulmuÅŁ": 8225,
      "ulroy": 8226,
      "emez": 8227,
      "emeye": 8228,
      "emize": 8229,
      "Ä±kan": 8230,
      "Ã¼ntÃ¼": 8231,
      "Ä°L": 8232,
      "Ä°N": 8233,
      "Ä°YÄ°": 8234,
      "Ä°ETT": 8235,
      "Ä°ÅŀKUR": 8236,
      "ĠKab": 8237,
      "ĠKum": 8238,
      "ĠKÃ¼l": 8239,
      "ĠKuÅŁ": 8240,
      "ĠKeÅŁ": 8241,
      "ĠKent": 8242,
      "ĠKarp": 8243,
      "ĠKÃ¶k": 8244,
      "ĠKend": 8245,
      "ĠKalk": 8246,
      "ĠKAR": 8247,
      "ĠKiÅŁisel": 8248,
      "ĠKremlin": 8249,
      "ĠKastamonu": 8250,
      "ĠKPS": 8251,
      "ĠTa": 8252,
      "ĠTer": 8253,
      "ĠTok": 8254,
      "ĠTut": 8255,
      "ĠTip": 8256,
      "ĠTeb": 8257,
      "ĠTuna": 8258,
      "ĠTahk": 8259,
      "ĠTuÄŁ": 8260,
      "ĠTÃ¼ketici": 8261,
      "ĠTDK": 8262,
      "ĠÃ§iv": 8263,
      "ĠÃ§ete": 8264,
      "ĠÃ§ektir": 8265,
      "ĠSP": 8266,
      "ĠSum": 8267,
      "ĠSpor": 8268,
      "ĠSadece": 8269,
      "ĠSefer": 8270,
      "ĠSmit": 8271,
      "ĠSlo": 8272,
      "ĠSoÄŁuk": 8273,
      "ĠSÄ°HA": 8274,
      "ikim": 8275,
      "ikmet": 8276,
      "ĠMu": 8277,
      "ĠMen": 8278,
      "ĠMol": 8279,
      "ĠMÃ¼ÅŁ": 8280,
      "ĠMiÃ§": 8281,
      "ĠMete": 8282,
      "ĠMotosiklet": 8283,
      "ĠMeksika": 8284,
      "ĠMulroy": 8285,
      "lebi": 8286,
      "Ġdedir": 8287,
      "Ġbirer": 8288,
      "Ġbiraz": 8289,
      "Ġbirden": 8290,
      "Ġbirisinin": 8291,
      "ĠbirliÄŁiyle": 8292,
      "ĠbirtakÄ±m": 8293,
      "Ġbirikim": 8294,
      "Ġolaya": 8295,
      "ĠolayÄ±": 8296,
      "Ġolmam": 8297,
      "ĠolmasÄ±nÄ±": 8298,
      "Ġolunca": 8299,
      "ĠolmamasÄ±": 8300,
      "Ġab": 8301,
      "Ġailen": 8302,
      "Ġahlak": 8303,
      "eyh": 8304,
      "ÄŁÄ±mÄ±zÄ±": 8305,
      "iÅŁer": 8306,
      "tÄ±larak": 8307,
      "ĠÄ°tal": 8308,
      "ĠÄ°TO": 8309,
      "ĠÄ°SKÄ°": 8310,
      "ĠÄ°negÃ¶l": 8311,
      "anÄ±mÄ±": 8312,
      "tisi": 8313,
      "ĠDu": 8314,
      "ĠDÃ¼z": 8315,
      "ĠDos": 8316,
      "ĠDalÄ±ÅŁ": 8317,
      "ĠDAK": 8318,
      "ĠDeÄŁ": 8319,
      "ĠDilipak": 8320,
      "ĠDestici": 8321,
      "ĠEmir": 8322,
      "ĠEruh": 8323,
      "ĠEfes": 8324,
      "ĠEdeb": 8325,
      "izler": 8326,
      "Ã¼zlÃ¼": 8327,
      "ĠpiÅŁ": 8328,
      "Ġpot": 8329,
      "ĠplanÄ±": 8330,
      "abak": 8331,
      "abalÄ±k": 8332,
      "uman": 8333,
      "ĠÃ¶kÃ¼z": 8334,
      "ĠÃ¶yk": 8335,
      "Ġeg": 8336,
      "Ġedip": 8337,
      "Ġehliyet": 8338,
      "ĠGS": 8339,
      "ĠGr": 8340,
      "ĠGro": 8341,
      "ĠGÃ¼lt": 8342,
      "ĠGret": 8343,
      "ĠGÃ¼Ã§": 8344,
      "ĠGant": 8345,
      "ĠGermain": 8346,
      "ĠGelin": 8347,
      "olat": 8348,
      "olga": 8349,
      "lÄ±larÄ±n": 8350,
      "lÄ±Ã§eÅŁme": 8351,
      "ĠHT": 8352,
      "ĠHil": 8353,
      "ĠHun": 8354,
      "ĠHey": 8355,
      "ĠHacÄ±": 8356,
      "ĠHuawei": 8357,
      "ĠHikmet": 8358,
      "aht": 8359,
      "iyede": 8360,
      "ĠyapÄ±sÄ±nda": 8361,
      "ĠPrem": 8362,
      "ĠPiyas": 8363,
      "ĠPerson": 8364,
      "ĠPetrol": 8365,
      "ĠPelin": 8366,
      "ĠPaÅŁin": 8367,
      "ĠPlaci": 8368,
      "ĠPÄ±nar": 8369,
      "ĠPasaport": 8370,
      "ĠPho": 8371,
      "ĠPilav": 8372,
      "ĠPolat": 8373,
      "Ġarab": 8374,
      "Ġarada": 8375,
      "ĠarasÄ±ndan": 8376,
      "ĠarayÄ±ÅŁ": 8377,
      "Ġaratmayan": 8378,
      "ĠaltÄ±": 8379,
      "Ġalter": 8380,
      "Ġalama": 8381,
      "ĠalmÄ±ÅŁ": 8382,
      "Ġaldat": 8383,
      "ĠalmÄ±ÅŁtÄ±": 8384,
      "Ġalabilmek": 8385,
      "ĠalbÃ¼m": 8386,
      "ĠalakalÄ±": 8387,
      "ito": 8388,
      "itli": 8389,
      "itlerle": 8390,
      "Ã¼ldÃ¼ÄŁÃ¼": 8391,
      "Ã¼lÃ¼yor": 8392,
      "lanamadÄ±": 8393,
      "Ä±ÅŁla": 8394,
      "Ä±ÅŁta": 8395,
      "Ã¼rken": 8396,
      "Ã¼rkuÅŁ": 8397,
      "ĠYen": 8398,
      "ĠYurdu": 8399,
      "ĠYaÅŁa": 8400,
      "ĠYener": 8401,
      "Ġfon": 8402,
      "ĠfakÃ¼lt": 8403,
      "ĠfelÃ§": 8404,
      "Ġfreni": 8405,
      "Ġfabrik": 8406,
      "Ġfabrika": 8407,
      "Ġfaranjit": 8408,
      "lub": 8409,
      "lus": 8410,
      "luÄŁunu": 8411,
      "ĠiÃ§i": 8412,
      "ĠiÃ§meyen": 8413,
      "ĠFir": 8414,
      "ĠFik": 8415,
      "ĠFran": 8416,
      "ĠForum": 8417,
      "ĠFreni": 8418,
      "ĠFabrik": 8419,
      "aflarÄ±n": 8420,
      "afaka": 8421,
      "ĠaÃ§Ä±yor": 8422,
      "oktor": 8423,
      "ĠCI": 8424,
      "ĠCar": 8425,
      "ĠCey": 8426,
      "ĠCez": 8427,
      "ĠCih": 8428,
      "ĠCEO": 8429,
      "ĠConnecticut": 8430,
      "ĠÅŁerb": 8431,
      "ĠÅŁiir": 8432,
      "ĠÅŁantaj": 8433,
      "ĠÅŁaÅŁkÄ±n": 8434,
      "Ġdamar": 8435,
      "ĠdayalÄ±": 8436,
      "ĠgÃ¶rmek": 8437,
      "Ġnet": 8438,
      "Ġnam": 8439,
      "Ġnih": 8440,
      "Ġnot": 8441,
      "ĠnÃ¼f": 8442,
      "Ġnoter": 8443,
      "aÄŁÄ±layÄ±": 8444,
      "Ġetmesi": 8445,
      "Ġetmeye": 8446,
      "lenmesi": 8447,
      "evir": 8448,
      "evine": 8449,
      "Ã¶ntgen": 8450,
      "adovic": 8451,
      "ĠkartÄ±": 8452,
      "Ġkariyer": 8453,
      "lamak": 8454,
      "uters": 8455,
      "ĠbulmasÄ±": 8456,
      "ĠbuluÅŁtur": 8457,
      "ĠbuluÅŁtu": 8458,
      "ĠolduklarÄ±": 8459,
      "omiya": 8460,
      "omise": 8461,
      "ĠyÄ±ldan": 8462,
      "ĠyÄ±lÄ±na": 8463,
      "ĠbaÅŁlan": 8464,
      "ĠbaÅŁÄ±ndaki": 8465,
      "ĠbaÅŁarÄ±": 8466,
      "ĠbaÅŁsaÄŁ": 8467,
      "Ġgelm": 8468,
      "Ġgelip": 8469,
      "Ġgelmesi": 8470,
      "Ġgeldin": 8471,
      "Ġgelirken": 8472,
      "Ġgelmeden": 8473,
      "ĠaÃ§Ä±klanacak": 8474,
      "ezyalÄ±": 8475,
      "elerle": 8476,
      "likleri": 8477,
      "ĠÃ¶neri": 8478,
      "ĠÃ¶nÃ¼ndeki": 8479,
      "iliÄŁinden": 8480,
      "Ġverecek": 8481,
      "Ġvererek": 8482,
      "ĠvermiÅŁ": 8483,
      "Ġverilerin": 8484,
      "ĠvereceÄŁi": 8485,
      "Ġverilmesine": 8486,
      "ĠvereceÄŁim": 8487,
      "Ġtarama": 8488,
      "ĠOl": 8489,
      "ĠOut": 8490,
      "ĠOkan": 8491,
      "ĠOlimp": 8492,
      "dirova": 8493,
      "dirimin": 8494,
      "Ġ32": 8495,
      "Ġ39": 8496,
      "Ġayak": 8497,
      "Ġayda": 8498,
      "Ġaylarda": 8499,
      "ĠaylarÄ±nda": 8500,
      "ĠgÃ¼nd": 8501,
      "ĠgÃ¼neÅŁ": 8502,
      "ĠgÃ¼nÃ¼nden": 8503,
      "ĠÃ§Ä±kart": 8504,
      "ĠÃ§Ä±kmay": 8505,
      "Ġzan": 8506,
      "ĠzabÄ±ta": 8507,
      "ĠRu": 8508,
      "ĠRy": 8509,
      "ĠRek": 8510,
      "ĠyaÅŁlarda": 8511,
      "ĠÃĸÄŁr": 8512,
      "Ġbelden": 8513,
      "ĠanÄ±nda": 8514,
      "Ġanlama": 8515,
      "Ġaniden": 8516,
      "Ġanket": 8517,
      "Ġrek": 8518,
      "Ġrah": 8519,
      "Ġraf": 8520,
      "ĠrÃ¼zgar": 8521,
      "Ġreyting": 8522,
      "ĠrÃ¶por": 8523,
      "opark": 8524,
      "Ġgeriye": 8525,
      "ĠkiÅŁileri": 8526,
      "ĠgeÃ§er": 8527,
      "ĠgeÃ§mek": 8528,
      "ĠgeÃ§emeyince": 8529,
      "osundan": 8530,
      "anlÄ±larÄ±n": 8531,
      "anlÄ±sÄ±": 8532,
      "enix": 8533,
      "ĠÃĩÃ¶": 8534,
      "ĠÃĩocu": 8535,
      "ĠÃĩevre": 8536,
      "ĠÃĩÃ¼nkÃ¼": 8537,
      "ĠÃĩaÄŁlar": 8538,
      "ĠÃĩetesi": 8539,
      "Ġenter": 8540,
      "Ġendoskopi": 8541,
      "Ġendeks": 8542,
      "Ġbinden": 8543,
      "ĠbinasÄ±na": 8544,
      "ĠbinasÄ±nÄ±n": 8545,
      "Ġbinalarda": 8546,
      "ĠbinalarÄ±nÄ±n": 8547,
      "ĠbinalarÄ±n": 8548,
      "Ġkonumu": 8549,
      "Ġkonuyla": 8550,
      "Ġkonuldu": 8551,
      "ehlik": 8552,
      "ehra": 8553,
      "ĠLa": 8554,
      "ĠLÃ¼b": 8555,
      "teg": 8556,
      "Ġ2025": 8557,
      "ĠsÃ¼reÃ§": 8558,
      "ĠsÃ¼relerini": 8559,
      "eyebilecek": 8560,
      "ĠiÅŁini": 8561,
      "ĠiÅŁleri": 8562,
      "ĠiÅŁlenen": 8563,
      "ĠiÅŁbirliÄŁi": 8564,
      "ĠiÅŁyer": 8565,
      "Ä±ldÄ±ÄŁÄ±nda": 8566,
      "uÃ§akos": 8567,
      "Ġnefes": 8568,
      "ĠÃ§alÄ±ÅŁÄ±r": 8569,
      "ĠÃ§alÄ±ÅŁacak": 8570,
      "ĠÃ§alÄ±ÅŁanÄ±n": 8571,
      "ĠÃ§alÄ±ÅŁÄ±rken": 8572,
      "Ġcimi": 8573,
      "ĠcansÄ±z": 8574,
      "Ġcumartesi": 8575,
      "Ġyeri": 8576,
      "Ġyerler": 8577,
      "Ġyerlerinde": 8578,
      "ĠNic": 8579,
      "ĠNTV": 8580,
      "ĠNeÅŁet": 8581,
      "ĠNodir": 8582,
      "ĠNuno": 8583,
      "eÅŁe": 8584,
      "eÅŁim": 8585,
      "eÅŁimi": 8586,
      "Ġkader": 8587,
      "ĠkadarÄ±yla": 8588,
      "Ġisten": 8589,
      "Ġistik": 8590,
      "Ġistih": 8591,
      "Ġisterken": 8592,
      "Ġistenen": 8593,
      "Ġisteyebilecek": 8594,
      "tanin": 8595,
      "tanÄ±n": 8596,
      "ĠyÃ¼zÃ¼": 8597,
      "ĠyÃ¼zlerce": 8598,
      "ĠkaynaÄŁÄ±": 8599,
      "istlerin": 8600,
      "Ġinerek": 8601,
      "Ġdiplom": 8602,
      "Ġdisip": 8603,
      "ĠorganÄ±": 8604,
      "Ġkaleci": 8605,
      "ĠkalÄ±ntÄ±lar": 8606,
      "ĠaÃ§Ä±klamasÄ±ndaki": 8607,
      "ĠaÃ§Ä±klamasÄ±nÄ±": 8608,
      "ĠaÃ§Ä±klamalarÄ±na": 8609,
      "deri": 8610,
      "ĠilÃ§esinden": 8611,
      "Ġelinde": 8612,
      "lemesiyle": 8613,
      "ĠdeÄŁeri": 8614,
      "ĠÅŀehit": 8615,
      "ĠÅŀeker": 8616,
      "ĠhaklÄ±": 8617,
      "ĠhaklarÄ±": 8618,
      "ĠhaklarÄ±nda": 8619,
      "Ġhakikat": 8620,
      "Ġkuru": 8621,
      "cÄ±ya": 8622,
      "raÄŁÄ±mÄ±zÄ±": 8623,
      "ĠVali": 8624,
      "ĠVadi": 8625,
      "ĠVAR": 8626,
      "ĠVekili": 8627,
      "ĠkarÅŁÄ±n": 8628,
      "Ġuymay": 8629,
      "Ġsorunun": 8630,
      "Ġsorusuna": 8631,
      "Ġsorusunu": 8632,
      "ĠdediÄŁini": 8633,
      "adasÄ±": 8634,
      "Ġdevret": 8635,
      "ĠbulunduÄŁunu": 8636,
      "alanmÄ±ÅŁ": 8637,
      "ihtiyar": 8638,
      "Ġtaraflar": 8639,
      "Ġtopl": 8640,
      "Ġtopr": 8641,
      "ĠyÃ¶neticiler": 8642,
      "endim": 8643,
      "dÃ¼laziz": 8644,
      "Ġdururken": 8645,
      "landÄ±ÄŁÄ±na": 8646,
      "Ġkulak": 8647,
      "Ġkaps": 8648,
      "ĠkapÄ±sÄ±": 8649,
      "ĠkapanÄ±ÅŁ": 8650,
      "ĠterÃ¶rle": 8651,
      "ektronik": 8652,
      "lÃ¼ÄŁÃ¼nÃ¼": 8653,
      "lÃ¼ÄŁÃ¼nden": 8654,
      "Ġiskele": 8655,
      "ĠUn": 8656,
      "ĠUr": 8657,
      "ĠUÃ§": 8658,
      "ĠAkÄ±n": 8659,
      "ĠAkalÄ±n": 8660,
      "otunuz": 8661,
      "otakis": 8662,
      "Ä±lÄ±ÄŁa": 8663,
      "lattÄ±m": 8664,
      "ĠgidiÅŁ": 8665,
      "eticisi": 8666,
      "ĠmÃ¼ÅŁt": 8667,
      "Ġhafriyat": 8668,
      "ĠÃ¶ÄŁretim": 8669,
      "saac": 8670,
      "Ġ2014": 8671,
      "Ġkatli": 8672,
      "Ġ720": 8673,
      "ĠAvcÄ±": 8674,
      "ĠAvrasya": 8675,
      "Ġevi": 8676,
      "Ġevden": 8677,
      "Ġevlerinde": 8678,
      "Ġevvel": 8679,
      "ĠBaÅŁka": 8680,
      "ramv": 8681,
      "venya": 8682,
      "ĠÃľst": 8683,
      "ĠÃľlk": 8684,
      "ĠÃľlkÃ¼": 8685,
      "ĠyanayÄ±z": 8686,
      "Ġhayv": 8687,
      "ĠhayatÄ±": 8688,
      "Ġetkisi": 8689,
      "Ġdepremle": 8690,
      "Ġdepremden": 8691,
      "Ġtutum": 8692,
      "ĠtutarÄ±": 8693,
      "Ġtutuyor": 8694,
      "Ġtutuldu": 8695,
      "Ġtuttuk": 8696,
      "Ġhasara": 8697,
      "ĠhasadÄ±": 8698,
      "Ġhasret": 8699,
      "ĠpoÅŁet": 8700,
      "ĠalÄ±nmazsa": 8701,
      "ĠgirdiÄŁi": 8702,
      "Ġgirerek": 8703,
      "ĠatÄ±k": 8704,
      "Ġatlat": 8705,
      "Ġatmam": 8706,
      "ĠatÃ¶l": 8707,
      "ĠiddiasÄ±": 8708,
      "ĠiddiasÄ±na": 8709,
      "ĠiddialarÄ±nÄ±n": 8710,
      "Ġiddialarla": 8711,
      "Ġnedene": 8712,
      "ĠIsaac": 8713,
      "Ġest": 8714,
      "Ġsahaya": 8715,
      "Ġilkokul": 8716,
      "ĠgÃ¶zden": 8717,
      "ĠgÃ¶zlÃ¼": 8718,
      "ĠgÃ¶zÃ¼nÃ¼": 8719,
      "ĠbÃ¶lgesi": 8720,
      "ĠbÃ¶lgesel": 8721,
      "Ġ97": 8722,
      "Ġ98": 8723,
      "Ġ990": 8724,
      "ĠdÃ¶ndÃ¼": 8725,
      "ĠdÃ¶nenin": 8726,
      "ĠdÃ¶ndÃ¼ÄŁÃ¼": 8727,
      "Ġyoluyla": 8728,
      "ĠÃ¶ÄŁrenen": 8729,
      "ĠÃ¶ÄŁrenince": 8730,
      "Ġ101": 8731,
      "Ġ104": 8732,
      "ĠÃĸzg": 8733,
      "ĠÃĸzk": 8734,
      "ĠÃĸzcan": 8735,
      "ĠÃĸzoÄŁuz": 8736,
      "ĠbaÅŁkanlÄ±ÄŁÄ±": 8737,
      "Ġoperasyonu": 8738,
      "ĠoperasyonlarÄ±n": 8739,
      "ĠoperasyonlarÄ±nda": 8740,
      "ĠArda": 8741,
      "ĠArter": 8742,
      "ĠAralÄ±k": 8743,
      "ĠArtÄ±k": 8744,
      "ĠArslan": 8745,
      "ĠArÄ±can": 8746,
      "ĠArÄ±nÃ§": 8747,
      "Ġalanlar": 8748,
      "ĠalanÄ±na": 8749,
      "ĠalanlarÄ±nda": 8750,
      "tenkel": 8751,
      "ĠBelh": 8752,
      "ĠBelÃ§": 8753,
      "ĠBelki": 8754,
      "ĠJan": 8755,
      "ĠJoker": 8756,
      "Ġakan": 8757,
      "Ġakadem": 8758,
      "ĠKurnaz": 8759,
      "Ġgetirilmesi": 8760,
      "Ġiftir": 8761,
      "Ġiflas": 8762,
      "ĠsaldÄ±rÄ±nÄ±n": 8763,
      "Ã§Ä±lar": 8764,
      "ĠÃ§ekilen": 8765,
      "ĠÃ§ekmek": 8766,
      "ĠÃ§ektiÄŁi": 8767,
      "ĠÃ§ekebilmek": 8768,
      "ĠmaÃ§la": 8769,
      "leÅŁmesi": 8770,
      "ĠÄ°ndirimin": 8771,
      "ĠzamanÄ±": 8772,
      "ĠZam": 8773,
      "ĠZehra": 8774,
      "Ġtekrar": 8775,
      "Ġservisine": 8776,
      "ĠseÃ§ilen": 8777,
      "ĠseÃ§ilmesi": 8778,
      "ĠseÃ§ilmesinin": 8779,
      "ĠSurfa": 8780,
      "Ġloj": 8781,
      "ĠlÃ¶semi": 8782,
      "Ġhayati": 8783,
      "ĠsuÃ§tan": 8784,
      "ĠCumhurbaÅŁkanÄ±mÄ±z": 8785,
      "Ġpolise": 8786,
      "Ġpolisleri": 8787,
      "Ġpolislerini": 8788,
      "Ġpolislere": 8789,
      "ĠyazÄ±lÄ±r": 8790,
      "Ġtakla": 8791,
      "ĠtakÄ±ldÄ±": 8792,
      "Ġtaksi": 8793,
      "Ġifadesi": 8794,
      "ĠcezalandÄ±r": 8795,
      "ĠBirleÅŁik": 8796,
      "ĠhazÄ±rlan": 8797,
      "ĠhazÄ±rlÄ±klarÄ±mÄ±zÄ±": 8798,
      "ÅŁtepe": 8799,
      "Ġihtar": 8800,
      "ĠihbarÄ±": 8801,
      "alioÄŁlu": 8802,
      "ĠaltÄ±nÄ±n": 8803,
      "Ġ81": 8804,
      "Ġ83": 8805,
      "ĠuzlaÅŁ": 8806,
      "Ġuzanan": 8807,
      "ĠsaÄŁa": 8808,
      "ĠsaÄŁlÄ±ÄŁÄ±": 8809,
      "ĠsaÄŁlandÄ±ÄŁÄ±na": 8810,
      "ĠÃ¶zen": 8811,
      "Ġeklem": 8812,
      "ĠYarÄ±n": 8813,
      "Ġdavaya": 8814,
      "ĠdavasÄ±nda": 8815,
      "Ġdurumuna": 8816,
      "ĠÃ¼lkeler": 8817,
      "ĠÃ¼lkeden": 8818,
      "ĠyasalarÄ±": 8819,
      "ĠBaÅŁvuru": 8820,
      "ĠBaÅŁantrenÃ¶rÃ¼": 8821,
      "Ġparma": 8822,
      "ĠÃ¶ldÃ¼rme": 8823,
      "ĠÃ¼reticisi": 8824,
      "ĠKonak": 8825,
      "ĠÃľnsal": 8826,
      "Ġsayf": 8827,
      "ĠsayÄ±n": 8828,
      "ĠsaygÄ±n": 8829,
      "leyecek": 8830,
      "leyna": 8831,
      "leyerek": 8832,
      "Ġduyan": 8833,
      "ĠsÃ¶zde": 8834,
      "ĠsÃ¶zlerine": 8835,
      "ĠsÃ¶zlÃ¼ÄŁÃ¼ne": 8836,
      "ĠBelediy": 8837,
      "Ġmedy": 8838,
      "ĠmedyasÄ±": 8839,
      "ĠÄ°lÃ§": 8840,
      "ĠgÃ¶rÃ¼ÅŁmek": 8841,
      "ĠgÃ¶rÃ¼ÅŁÃ¼nÃ¼": 8842,
      "ĠgÃ¶rÃ¼ÅŁmeyi": 8843,
      "ĠgÃ¶rÃ¼ÅŁmesinde": 8844,
      "ĠterÃ¶ristlerden": 8845,
      "ĠaskÄ±ya": 8846,
      "ĠyÃ¼kÃ¼": 8847,
      "liÄŁin": 8848,
      "Ġverdikleri": 8849,
      "ÃĸK": 8850,
      "ÃĸDP": 8851,
      "ĠAyten": 8852,
      "ĠAyrÄ±": 8853,
      "ĠAykaÃ§": 8854,
      "Ġadliy": 8855,
      "ĠdeÄŁiÅŁti": 8856,
      "Ġikili": 8857,
      "Ġikisinin": 8858,
      "ĠikiÅŁer": 8859,
      "Ġmesl": 8860,
      "Ġmesaf": 8861,
      "Ġmesele": 8862,
      "ĠTÃ¼rkoÄŁlu": 8863,
      "abileceÄŁ": 8864,
      "abileceÄŁine": 8865,
      "ĠÅŁÃ¼phesi": 8866,
      "ĠkararÄ±n": 8867,
      "ĠkÃ¶ÅŁe": 8868,
      "Ġhaline": 8869,
      "Ġhallet": 8870,
      "ĠgÃ¶revli": 8871,
      "ĠgÃ¶revini": 8872,
      "ĠOromiya": 8873,
      "bucks": 8874,
      "Ġdestinasyon": 8875,
      "ĠdesteÄŁini": 8876,
      "ĠgÃ¼venliÄŁinin": 8877,
      "iÃ§i": 8878,
      "ĠÃ¼vey": 8879,
      "ĠsattÄ±klarÄ±": 8880,
      "ĠbugÃ¼ne": 8881,
      "Ġtutuklanarak": 8882,
      "ĠtutuklanÄ±rken": 8883,
      "Ġsevilen": 8884,
      "Ġseviyede": 8885,
      "ĠKork": 8886,
      "ĠKoramiral": 8887,
      "Ġolayla": 8888,
      "Ġolaydan": 8889,
      "mÄ±za": 8890,
      "tronot": 8891,
      "Ġergen": 8892,
      "ĠEyÃ¼psultan": 8893,
      "Ġbildirim": 8894,
      "Ġkapsamda": 8895,
      "Ġkimlik": 8896,
      "Ġderg": 8897,
      "Ġderken": 8898,
      "Ġdersten": 8899,
      "Anadolu": 8900,
      "ĠÃ¼yeli": 8901,
      "ĠsÄ±nÄ±fa": 8902,
      "ĠsÄ±nÄ±rÄ±": 8903,
      "ĠeÅŁini": 8904,
      "ĠeÅŁlik": 8905,
      "ĠeÅŁliÄŁinde": 8906,
      "ĠsaldÄ±rÄ±larÄ±": 8907,
      "ĠsaldÄ±rÄ±larÄ±nda": 8908,
      "Ġbirliklere": 8909,
      "ĠyaptÄ±lar": 8910,
      "tayken": 8911,
      "Ãľlk": 8912,
      "ĠvarlÄ±ÄŁÄ±nÄ±": 8913,
      "veren": 8914,
      "ĠsÄ±ralarÄ±nda": 8915,
      "Ġsaatini": 8916,
      "Ġsaatlik": 8917,
      "Ġtemp": 8918,
      "Ġtemmuz": 8919,
      "ĠdolmuÅŁ": 8920,
      "Ġoyununu": 8921,
      "Ġdenemesi": 8922,
      "ĠÃ§arpÄ±ÅŁ": 8923,
      "ĠÃ§arptÄ±ÄŁÄ±": 8924,
      "ĠÃ§arpÄ±p": 8925,
      "ĠfiyatÄ±nda": 8926,
      "ĠgeÃ§irerek": 8927,
      "Ġbakla": 8928,
      "ĠbakÄ±cÄ±": 8929,
      "ĠbakÄ±lÄ±r": 8930,
      "Ġbazen": 8931,
      "Ġyapanlara": 8932,
      "ĠaldÄ±ÄŁÄ±nÄ±": 8933,
      "ĠaldÄ±klarÄ±nÄ±": 8934,
      "ĠdeÄŁilse": 8935,
      "ĠsandÄ±k": 8936,
      "Ġmermi": 8937,
      "Ġmerkezindeki": 8938,
      "ĠsoruÅŁturmada": 8939,
      "ĠsoruÅŁturmanÄ±n": 8940,
      "ĠsoruÅŁturmalarda": 8941,
      "ĠyÃ¼rÃ¼me": 8942,
      "ĠyÃ¼rÃ¼dÃ¼ÄŁÃ¼": 8943,
      "ĠTeklif": 8944,
      "Ġhavadan": 8945,
      "Ä±lÄ±ktan": 8946,
      "ĠbaÅŁlattÄ±ÄŁÄ±": 8947,
      "ĠbaÅŁlatmayÄ±": 8948,
      "idon": 8949,
      "endy": 8950,
      "Ġizi": 8951,
      "Ġizliyor": 8952,
      "Ġizni": 8953,
      "ĠBilgin": 8954,
      "ĠSerdar": 8955,
      "ĠEspir": 8956,
      "ĠtartÄ±ÅŁmasÄ±yla": 8957,
      "Ġkesint": 8958,
      "Ġsonraki": 8959,
      "ĠÃ§Ä±kardÄ±ÄŁÄ±": 8960,
      "ĠÃ§Ä±karÄ±ldÄ±": 8961,
      "ĠÃ§Ä±kartÄ±larak": 8962,
      "ĠpaylaÅŁÄ±mÄ±": 8963,
      "ĠKÄ±lÄ±Ã§aslan": 8964,
      "Ġyetkin": 8965,
      "Ġyeterli": 8966,
      "Ġyetersiz": 8967,
      "ĠaÄŁÄ±rlaÅŁtÄ±r": 8968,
      "ĠaÄŁÄ±rlayacak": 8969,
      "ĠboÅŁalan": 8970,
      "ĠboÅŁaldÄ±ÄŁÄ±": 8971,
      "ĠSanto": 8972,
      "ĠkonuÅŁma": 8973,
      "ĠkonuÅŁmasÄ±nda": 8974,
[...]
